{
  "version": "1.0",
  "truncation": null,
  "padding": null,
  "added_tokens": [
    {
      "id": 0,
      "content": "<pad>",
      "single_word": false,
      "lstrip": false,
      "rstrip": false,
      "normalized": false,
      "special": true
    },
    {
      "id": 1,
      "content": "<unk>",
      "single_word": false,
      "lstrip": false,
      "rstrip": false,
      "normalized": false,
      "special": true
    },
    {
      "id": 2,
      "content": "<bos>",
      "single_word": false,
      "lstrip": false,
      "rstrip": false,
      "normalized": false,
      "special": true
    },
    {
      "id": 3,
      "content": "<eos>",
      "single_word": false,
      "lstrip": false,
      "rstrip": false,
      "normalized": false,
      "special": true
    },
    {
      "id": 4,
      "content": "<user>",
      "single_word": false,
      "lstrip": false,
      "rstrip": false,
      "normalized": false,
      "special": true
    },
    {
      "id": 5,
      "content": "<assistant>",
      "single_word": false,
      "lstrip": false,
      "rstrip": false,
      "normalized": false,
      "special": true
    },
    {
      "id": 6,
      "content": "<system>",
      "single_word": false,
      "lstrip": false,
      "rstrip": false,
      "normalized": false,
      "special": true
    }
  ],
  "normalizer": {
    "type": "Sequence",
    "normalizers": [
      {
        "type": "NFKC"
      }
    ]
  },
  "pre_tokenizer": {
    "type": "ByteLevel",
    "add_prefix_space": false,
    "trim_offsets": true,
    "use_regex": true
  },
  "post_processor": null,
  "decoder": {
    "type": "ByteLevel",
    "add_prefix_space": true,
    "trim_offsets": true,
    "use_regex": true
  },
  "model": {
    "type": "BPE",
    "dropout": null,
    "unk_token": "<unk>",
    "continuing_subword_prefix": null,
    "end_of_word_suffix": null,
    "fuse_unk": false,
    "byte_fallback": false,
    "ignore_merges": false,
    "vocab": {
      "<pad>": 0,
      "<unk>": 1,
      "<bos>": 2,
      "<eos>": 3,
      "<user>": 4,
      "<assistant>": 5,
      "<system>": 6,
      ",": 7,
      "-": 8,
      ".": 9,
      "2": 10,
      "4": 11,
      "5": 12,
      "7": 13,
      "8": 14,
      "9": 15,
      ":": 16,
      "A": 17,
      "B": 18,
      "C": 19,
      "D": 20,
      "E": 21,
      "F": 22,
      "G": 23,
      "H": 24,
      "I": 25,
      "J": 26,
      "K": 27,
      "L": 28,
      "M": 29,
      "N": 30,
      "O": 31,
      "P": 32,
      "Q": 33,
      "R": 34,
      "S": 35,
      "T": 36,
      "U": 37,
      "V": 38,
      "a": 39,
      "b": 40,
      "c": 41,
      "d": 42,
      "e": 43,
      "f": 44,
      "g": 45,
      "h": 46,
      "i": 47,
      "k": 48,
      "l": 49,
      "m": 50,
      "n": 51,
      "o": 52,
      "p": 53,
      "q": 54,
      "r": 55,
      "s": 56,
      "t": 57,
      "u": 58,
      "v": 59,
      "w": 60,
      "x": 61,
      "y": 62,
      "¡": 63,
      "¢": 64,
      "£": 65,
      "¤": 66,
      "¥": 67,
      "¦": 68,
      "§": 69,
      "®": 70,
      "¯": 71,
      "°": 72,
      "±": 73,
      "²": 74,
      "³": 75,
      "´": 76,
      "µ": 77,
      "¶": 78,
      "·": 79,
      "¸": 80,
      "¹": 81,
      "º": 82,
      "»": 83,
      "¼": 84,
      "½": 85,
      "¾": 86,
      "¿": 87,
      "Ð": 88,
      "Ñ": 89,
      "â": 90,
      "Ċ": 91,
      "č": 92,
      "Ġ": 93,
      "Ģ": 94,
      "ģ": 95,
      "Ĥ": 96,
      "ĥ": 97,
      "Ħ": 98,
      "ħ": 99,
      "Ĩ": 100,
      "ĩ": 101,
      "Ī": 102,
      "ī": 103,
      "Ĭ": 104,
      "ĭ": 105,
      "Į": 106,
      "į": 107,
      "İ": 108,
      "ı": 109,
      "Ĳ": 110,
      "ĳ": 111,
      "Ĵ": 112,
      "ĵ": 113,
      "Ķ": 114,
      "ķ": 115,
      "Ĺ": 116,
      "ĺ": 117,
      "ļ": 118,
      "Ľ": 119,
      "ľ": 120,
      "Ŀ": 121,
      "ŀ": 122,
      "Ł": 123,
      "ł": 124,
      "Ń": 125,
      "Ðµ": 126,
      "ĠÐ": 127,
      "Ð¾": 128,
      "Ð¸": 129,
      "Ð°": 130,
      "ÑĤ": 131,
      "Ð½": 132,
      "ÑĢ": 133,
      "Ñģ": 134,
      "Ð¾Ð": 135,
      "ÐµÐ": 136,
      "Ñı": 137,
      "Ð°Ð": 138,
      "Ñĥ": 139,
      "Ñĭ": 140,
      "ĠÐ¿": 141,
      "Ð½Ð¸": 142,
      "ÐµÑĤ": 143,
      "Ð»": 144,
      "ÑģÑĤ": 145,
      "Ñĩ": 146,
      "ÑĮ": 147,
      "Ðº": 148,
      "Ð²": 149,
      "Ð·": 150,
      "ĠÑģ": 151,
      "ĠÐ¸": 152,
      "Ð¼": 153,
      "ĠÐ¾": 154,
      "Ñħ": 155,
      "Ð½Ñĭ": 156,
      "ÐµÐ½Ð¸": 157,
      "ĠÐ²": 158,
      "Ð¿": 159,
      "Ð¾Ð²": 160,
      "ÐµÑĢ": 161,
      "ÑĨ": 162,
      "ĠÐ¿ÑĢ": 163,
      "ÐµÐ´": 164,
      "ÐµÐ»": 165,
      "ÐµÐ½": 166,
      "Ð¾ÑĢ": 167,
      "Ð¾ÑģÑĤ": 168,
      "ÐµÐ¼": 169,
      "Ñİ": 170,
      "Ð¾Ð»": 171,
      "ĠÐ¾Ð": 172,
      "Ð¾Ð´": 173,
      "ÑĢÐ°Ð": 174,
      "ÑĨÐ¸": 175,
      "Ð°ÑĤ": 176,
      "ĠÐ´": 177,
      "Ð°ÐµÑĤ": 178,
      "ĠÐº": 179,
      "ĠÐ·": 180,
      "Ð¾Ð½": 181,
      "ÑģÐº": 182,
      "Ð¹": 183,
      "Ð°Ð½": 184,
      "Ð½ÑĭÑħ": 185,
      "Ð°Ð½Ð¸": 186,
      "ÑıÐµÑĤ": 187,
      "ĠÐ¾Ð±": 188,
      "Ð´": 189,
      "ºÑĤ": 190,
      "ĠÐ¼": 191,
      "Ð¸ÑĤ": 192,
      "Ð¾Ð¹": 193,
      "ĠÐ½": 194,
      "Ð½Ð°": 195,
      "Ð¸Ñģ": 196,
      "Ð¾Ð¼": 197,
      "Ð½Ð¾ÑģÑĤ": 198,
      "ÑĥÐµÑĤ": 199,
      "ÐµÐ½Ð¸Ñı": 200,
      "ÑĢÐµÐ": 201,
      "ĠÐ¿Ð¾": 202,
      "Ð¾Ð³": 203,
      "Ð¸Ð·": 204,
      "Ð¸Ñĩ": 205,
      "ÐµÐ½Ð¸Ðµ": 206,
      "ÑĪ": 207,
      "ĠÐ¸Ð·": 208,
      "ÑĥÑĩ": 209,
      "ĠÐ·Ð°Ð": 210,
      "ÐµÑģÐº": 211,
      "Ð°ÑĨÐ¸": 212,
      "ĠÑĤ": 213,
      "Ñī": 214,
      "Ð¸Ð¼": 215,
      "ÐµÐ»ÑĮ": 216,
      "Ð½Ð¾": 217,
      "ÑģÑı": 218,
      "Ð¾Ð»ÑĮ": 219,
      "Ð½ÑĭÐµ": 220,
      "ÐµÐ¹": 221,
      "Ð¾Ð¶": 222,
      "ĠÐ¾Ð¿": 223,
      "Ð°Ð»": 224,
      "ĠÑ": 225,
      "ĠÑģÐ¸": 226,
      "Ð¸ÑĩÐµÑģÐº": 227,
      "ĠÐ´Ð°Ð½": 228,
      "Ð½Ð¾ÑģÑĤÑĮ": 229,
      "ÑģÑĤÐµÐ¼": 230,
      "ÑģÑĤÐ²": 231,
      "ĠÐ°": 232,
      "ÑģÐ¿": 233,
      "ĠÑģÐ¸ÑģÑĤÐµÐ¼": 234,
      "ÑĢÑĥ": 235,
      "ÐºÐ¸": 236,
      "Ð½Ð°Ñı": 237,
      "Ð¸Ð½": 238,
      "Ð»ÑıÐµÑĤ": 239,
      "Ð»Ñı": 240,
      "ÑĭÐ²": 241,
      "ĠÐ±": 242,
      "ĠÑģÐ²": 243,
      "Ð°Ð¼": 244,
      "ĠÑĥ": 245,
      "ÑĢÐ°": 246,
      "Ð¾Ðº": 247,
      "ÑĢÐ°Ð½Ð¸": 248,
      "ÑĢÐ°Ð·": 249,
      "ÐµÐ½ÑĤ": 250,
      "Ð½Ð¾Ð¹": 251,
      "Ð¸Ñı": 252,
      "ÑıÑĤ": 253,
      "ĠÑģÐ»": 254,
      "ÑħÐ¾Ð´": 255,
      "ĠÑį": 256,
      "ÐµÐºÑĤ": 257,
      "Ð±": 258,
      "ÑİÑĤ": 259,
      "ĠÐ´Ð°Ð½Ð½ÑĭÑħ": 260,
      "ĠÐ¿ÑĢÐµÐ´": 261,
      "ĠÐ²Ñĭ": 262,
      "ĠÐŁ": 263,
      "ÑĦ": 264,
      "ĠÑı": 265,
      "Ð¾Ð»ÑĮÐ·": 266,
      "ÐµÐ½Ð¸Ð¹": 267,
      "ÑĢÐµÐ±": 268,
      "ĠÐ¸ÑģÐ¿": 269,
      "ĠÐ¡": 270,
      "ÑĥÑİ": 271,
      "Ð³": 272,
      "ÑĢÐ¾Ð²": 273,
      "Ð¾Ð±": 274,
      "ĠÐ¸ÑģÐ¿Ð¾Ð»ÑĮÐ·": 275,
      "ĠÐ¸Ð·Ð¼": 276,
      "ÐµÐº": 277,
      "ÑĢÐµ": 278,
      "Ð¾ÑĤ": 279,
      "ÑģÑģ": 280,
      "Ð¶": 281,
      "Ð°Ð²": 282,
      "ÐµÐ·": 283,
      "ĠÐĴ": 284,
      "ÑĢÐ¸": 285,
      "Ð°ÑĨÐ¸Ñı": 286,
      "ĠÑħ": 287,
      "ÑıÐ·": 288,
      "ĠÐ¿ÐµÑĢ": 289,
      "³ÑĢÐ°Ð½Ð¸": 290,
      "³ÑĢÐ°Ð½Ð¸Ñĩ": 291,
      "Ð¾Ð³Ð¾": 292,
      "ĠÐ¸ÑģÐ¿Ð¾Ð»ÑĮÐ·ÑĥÐµÑĤ": 293,
      "ĠÐļ": 294,
      "ÐºÐ°": 295,
      "Ð¼Ð¸": 296,
      "ĠÐ¸Ð½": 297,
      "Ð½Ð°Ñĩ": 298,
      "Ð»ÑĮ": 299,
      "ĠÑĢÐ°Ð·": 300,
      "ĠÐ½Ð°": 301,
      "Ð¸ÑģÐ»": 302,
      "ÑĭÐ²Ð°ÐµÑĤ": 303,
      "Ð°Ñĩ": 304,
      "ĠÐ¿ÑĢÐ¾": 305,
      "Ð¾Ð·": 306,
      "ĠÑıÐ²": 307,
      "Ð»ÑıÐµÑĤÑģÑı": 308,
      "ĠÑıÐ²Ð»ÑıÐµÑĤÑģÑı": 309,
      "Ð»Ð¸": 310,
      "Ð°ÑİÑĤ": 311,
      "ÑģÐ»": 312,
      "Ð°Ð±": 313,
      "ÐµÐ¶": 314,
      "Ð¾Ð¿": 315,
      "Ð°ÑģÑĤ": 316,
      "Ð°Ð»Ð¸Ð·": 317,
      "Ð¾ÑģÑĤÑĮ": 318,
      "ĠÐ´Ð»Ñı": 319,
      "ĠÐ¾ÑĤ": 320,
      "Ð¸ÑĤÐµÐ»ÑĮ": 321,
      "Ð°Ñı": 322,
      "Ð½Ð¾ÑģÑĤÐ¸": 323,
      "ĠÐ¼Ð¾Ð´": 324,
      "Ð½ÑĭÐ¹": 325,
      "Ð½ÑĥÑİ": 326,
      "ÑĬ": 327,
      "ĠÐ¾Ð±ÑĬ": 328,
      "ĠÑĤÑĢÐµÐ±": 329,
      "Ð½Ð¸ÑĤ": 330,
      "Ð»Ñİ": 331,
      "ĠÑĩ": 332,
      "ÐµÐ²": 333,
      "ÑĥÐ»ÑĮ": 334,
      "Ð¾Ð²Ð°ÑĤ": 335,
      "ĠÐºÐ¾Ð½": 336,
      "ÑĢÐµÐ´": 337,
      "Ð½Ð¾Ð³Ð¾": 338,
      "on": 339,
      "ÑģÐ»ÐµÐ´": 340,
      "ĠÐ¸Ð·ÑĥÑĩ": 341,
      "Ð°Ð½Ð¸Ñı": 342,
      "ÑĢÐµÐ·": 343,
      "ÐºÑĥ": 344,
      "ÑģÑĤÐ²Ð°": 345,
      "ÑĢÐ°Ð¼": 346,
      "ĠÐ¿Ð¾Ð»": 347,
      "ÑĢÐµÐ´ÐµÐ»": 348,
      "ĠÐ¾Ð³ÑĢÐ°Ð½Ð¸Ñĩ": 349,
      "at": 350,
      "ĠÑģÐ²ÑıÐ·": 351,
      "Ðļ": 352,
      "ĠÑģÐ¸ÑģÑĤÐµÐ¼Ñĭ": 353,
      "ĠÐ³": 354,
      "Ð°Ðº": 355,
      "Ð°Ð´": 356,
      "ĠÐ¼ÐµÑĤ": 357,
      "Ð°ÐºÑĤ": 358,
      "Ð°Ð·": 359,
      "Ð°ÑĢ": 360,
      "ÑĢÐ°Ð²": 361,
      "Ð¸ÑĩÐµÑģÐºÐ¸": 362,
      "ÑĥÐ»ÑĮÑĤ": 363,
      "ĠÑĢÐµÐ·": 364,
      "ÑĥÐ»ÑĮÑĤÐ°ÑĤ": 365,
      "ĠÑĢÐµÐ·ÑĥÐ»ÑĮÑĤÐ°ÑĤ": 366,
      "ÑĢÐµÑĤ": 367,
      "ĠÑĢÐµ": 368,
      "ĠÑģÐ»Ð¾Ð¶": 369,
      "ĠÐ¿Ð¾Ð²": 370,
      "ĠÑģÑĤ": 371,
      "ĠÐ²ÑĭÑĩ": 372,
      "ĠÐ·Ð°Ð´": 373,
      "ÐµÑĢÐ°ÑĨÐ¸": 374,
      "Ð¸Ð²": 375,
      "Ð¸Ðº": 376,
      "ĠÑįÐ»": 377,
      "Ð¾ÑĢÑĢÐµÐ": 378,
      "ĠÐ¼ÐµÑĤÐ¾Ð´": 379,
      "Ð¾ÑĢÑĢÐµÐºÑĤ": 380,
      "ĠÐ¸Ð·Ð¼ÐµÐ½": 381,
      "ÐµÐ´ÐµÐ½Ð¸Ðµ": 382,
      "ĠÐ¿Ð¾ÑģÐ»ÐµÐ´": 383,
      "¢Ðµ": 384,
      "ĠÐ¾Ð¿Ð¸Ñģ": 385,
      "ĠÑĥÑĩ": 386,
      "Ð°Ñģ": 387,
      "ÑĢÐ°Ð½": 388,
      "ĠÐ¿Ð¾ÑĤ": 389,
      "ÑĢÐ°ÐºÑĤ": 390,
      "ĠÐ·Ð°Ð´Ð°Ñĩ": 391,
      "ÑĢÐ°Ð±": 392,
      "ÑĨÐ¸Ð¸": 393,
      "ÑĢÐµÐ¼": 394,
      "ĠÐ¾Ð¿ÑĢÐµÐ´ÐµÐ»": 395,
      "ĠÐ»": 396,
      "ÐµÐ¹ÑģÑĤÐ²": 397,
      "ĠÐĲ": 398,
      "ÑīÐ¸": 399,
      "ÐµÐ¾Ð±": 400,
      "te": 401,
      "ion": 402,
      "ĠÐ¿Ð¾Ð´": 403,
      "ÐµÑĩ": 404,
      "Ð¾Ð»Ð½": 405,
      "ÐµÐ´Ð¸Ð½": 406,
      "ĠÑĤÑĢÐµÐ±ÑĥÐµÑĤ": 407,
      "ÐµÐ¼Ð¾ÑģÑĤÑĮ": 408,
      "Ð¾Ð²Ð°ÑĤÐµÐ»ÑĮ": 409,
      "ĠÐ¿Ð¾ÑģÐ»ÐµÐ´Ð¾Ð²Ð°ÑĤÐµÐ»ÑĮ": 410,
      "ĠÐ¿Ð¾Ð½": 411,
      "ĠÐ¿Ð¾Ð½ÑıÑĤ": 412,
      "ĠÐĶ": 413,
      "ĠÐľ": 414,
      "ĠÑĩÐ°ÑģÑĤ": 415,
      "ÑīÐ°ÐµÑĤ": 416,
      "Ð°Ð¶": 417,
      "ĠÐ²Ð°Ð¶": 418,
      "Ð¾Ð¹ÑģÑĤÐ²Ð°": 419,
      "Ð°Ð¼Ð¸": 420,
      "Ð±Ð¾ÑĢ": 421,
      "ĠÐ¿ÑĢÐ°ÐºÑĤ": 422,
      "ÐµÐ±": 423,
      "Ð¾Ð³ÑĢÐ°Ð¼": 424,
      "Ð»ÑİÑĩ": 425,
      "ĠÑĦ": 426,
      "ÑĤÑĥ": 427,
      "ĠÐ²ÑħÐ¾Ð´": 428,
      "ĠÐ¼Ð¾Ð´ÐµÐ»": 429,
      "ĠÐ¼Ð¾Ð´ÐµÐ»Ð¸": 430,
      "Ð½Ð¸Ð¼": 431,
      "ĠÐ²Ð·": 432,
      "ÑĢÐ¾": 433,
      "ÑĥÐ½": 434,
      "ÑĥÐ½Ðº": 435,
      "Ð½Ð¾Ð²": 436,
      "re": 437,
      "ĠÐł": 438,
      "ĠÐ¸Ð·ÑĥÑĩÐ°ÐµÑĤ": 439,
      "ĠÐ¸Ð»Ð¸": 440,
      "Ð¾ÑĢÐ¼": 441,
      "ĠÐ¾Ð´": 442,
      "ÑĥÑĤ": 443,
      "Ð½ÑĭÐ¼Ð¸": 444,
      "Ð¸ÑģÐº": 445,
      "ĠÑģÐ²Ð¾Ð¹ÑģÑĤÐ²Ð°": 446,
      "ĠÐ·Ð°Ð¿": 447,
      "ĠÐĵ": 448,
      "ĠÐ°Ð½": 449,
      "ÐµÐ½ÐµÑĢ": 450,
      "ĠÑģÐ¸ÑģÑĤÐµÐ¼Ð°": 451,
      "ĠÐ¿Ð¾Ð¼": 452,
      "ĠÐ²ÑĭÑĩÐ¸ÑģÐ»": 453,
      "Ð¸Ð·Ð²": 454,
      "Ð¾Ð²ÐµÑĢ": 455,
      "ĠÐ¿ÑĢÐ¾Ð²ÐµÑĢ": 456,
      "ĠÐ¿ÑĢÐ¾Ð³ÑĢÐ°Ð¼": 457,
      "it": 458,
      "Ð´Ñĥ": 459,
      "Ð»Ð³": 460,
      "ĠÐ¾Ð¿ÐµÑĢÐ°ÑĨÐ¸": 461,
      "ÑĢÐ°Ð±Ð¾ÑĤ": 462,
      "ĠÐ¸Ð·Ð¼ÐµÑĢ": 463,
      "Ð°Ð¸Ð¼": 464,
      "ĠÐ²Ð·Ð°Ð¸Ð¼": 465,
      "ÐµÐ³": 466,
      "ĠÐĺ": 467,
      "Ð»ÐµÐ½Ð¸Ðµ": 468,
      "ÑģÑĤÐ°Ð²": 469,
      "ĠÐ¿ÑĢÐµÐ´ÑģÑĤÐ°Ð²": 470,
      "ĠÐ¿Ð°Ð¼": 471,
      "ĠÐ¿Ð°Ð¼ÑıÑĤ": 472,
      "Ð¸ÑĢ": 473,
      "ÑģÐ½Ð¾Ð²": 474,
      "ĠÐ¿ÑĢÐ¸": 475,
      "ĠÐ¿ÑĢÐµÐ¾Ð±": 476,
      "ĠÐ¿ÑĢÐµÐ¾Ð±ÑĢÐ°Ð·": 477,
      "ĠÑĨ": 478,
      "ĠÐŀ": 479,
      "nt": 480,
      "ÐµÑģÑĤ": 481,
      "Ð¿ÑĢÐ°Ð²": 482,
      "ÐµÐ´Ð¸Ð½ÑıÐµÑĤ": 483,
      "Ð¸ÑĢÑĥ": 484,
      "Ð¼ÐµÐ½": 485,
      "Ð°ÑĤÐ¾ÑĢ": 486,
      "ĠÐ½Ð°Ð´": 487,
      "ĠÐ½Ð°Ð´ÐµÐ¶": 488,
      "ÐµÐºÑģÑĤ": 489,
      "Ð¾Ð»Ð½Ð¸ÑĤ": 490,
      "ĠÐ´Ð¾Ð¿": 491,
      "Ð¾Ð»Ð½Ð¸ÑĤÐµÐ»ÑĮ": 492,
      "ĠÐ´Ð¾Ð¿Ð¾Ð»Ð½Ð¸ÑĤÐµÐ»ÑĮ": 493,
      "ĠÐ¾Ð±Ð»": 494,
      "Ð¼Ð°": 495,
      "ĠÑģÐ¾ÑģÑĤ": 496,
      "Ð°ÑĤÑĢÐ¸": 497,
      "ÑĤÐ°Ð±": 498,
      "ĠÐ²ÑĭÑĩÐ¸ÑģÐ»Ð¸ÑĤÐµÐ»ÑĮ": 499,
      "ÑĢÐ°ÑĤ": 500,
      "ĠÐ°Ð½Ð°Ð»Ð¸Ð·": 501,
      "ĠÐ¿ÐµÑĢÐµ": 502,
      "ÑĢÐ°Ð½Ð¸ÑĤ": 503,
      "ĠÑħÑĢÐ°Ð½Ð¸ÑĤ": 504,
      "Ð¸Ð·Ð²Ð¾Ð´": 505,
      "ÐµÐºÑĤÐ¾ÑĢ": 506,
      "ĠÐ¿Ð¾Ð¼Ð¾Ð³": 507,
      "ÑĤÐ¾Ð¼": 508,
      "ĠÐ·Ð°Ð²": 509,
      "ĠÑģÐ»Ð¾Ð¶Ð½Ð¾ÑģÑĤÑĮ": 510,
      "ĠÐºÐ»ÑİÑĩ": 511,
      "ÑĢÑĥÐº": 512,
      "ĠÐ²ÑĢÐµÐ¼": 513,
      "Ð¾Ð²Ð°Ð½Ð¸": 514,
      "ÐµÐ´ÐµÐ½Ð¸Ñı": 515,
      "Ð¶ÐµÐ½ÐµÑĢ": 516,
      "Ð¸Ð¸": 517,
      "ĠT": 518,
      "Ð¾Ð´ÐµÐ¹ÑģÑĤÐ²": 519,
      "ĠÐ²Ð·Ð°Ð¸Ð¼Ð¾Ð´ÐµÐ¹ÑģÑĤÐ²": 520,
      "ĠÐ¿Ð°Ð¼ÑıÑĤÐ¸": 521,
      "ÑĨÐµ": 522,
      "ĠÑĥÑĩÐ¸ÑĤ": 523,
      "ĠÐ±ÐµÐ·": 524,
      "Ð¾Ñĩ": 525,
      "ĠR": 526,
      "in": 527,
      "ÐµÐºÑĤÑĢ": 528,
      "ÑĨÐ¸Ñı": 529,
      "Ð¾Ð¼Ð¿": 530,
      "Ð¸ÑĦ": 531,
      "ÑĥÑĩÐµÐ½Ð¸Ðµ": 532,
      "ĠÐ¡Ð¾Ð»Ð½": 533,
      "ĠÐ¾Ð±ÑĬÐµÐ´Ð¸Ð½ÑıÐµÑĤ": 534,
      "Ð°ÑĨÐ¸Ñİ": 535,
      "ĠÐ¿Ð¾ÑģÐ»ÐµÐ´Ð¾Ð²Ð°ÑĤÐµÐ»ÑĮÐ½Ð¾ÑģÑĤÑĮ": 536,
      "ĠÑĤÐµÐ¼": 537,
      "ĠÑĥÑĢÐ¾Ð²": 538,
      "ĠÐ·Ð°": 539,
      "ÑĦÐ¾ÑĢÐ¼": 540,
      "ÐµÐ»Ð°": 541,
      "ĠÑĢÐ°": 542,
      "ĠÑĢÐµÐ·ÑĥÐ»ÑĮÑĤÐ°ÑĤÐ°": 543,
      "Ð´Ð°": 544,
      "ĠÐ¾Ð´Ð½Ð¾Ð¹": 545,
      "ĠÐ¿ÑĢÐµÐ´Ð¿": 546,
      "Ð½Ð¸Ð¼Ð°Ð½Ð¸Ñı": 547,
      "Ð°ÑİÑĤÑģÑı": 548,
      "ĠÑĢÐµÐ°Ð»Ð¸Ð·": 549,
      "ĠÐ¿Ð¾Ð²ÐµÐ´ÐµÐ½Ð¸Ðµ": 550,
      "ĠÐ°Ð½Ð°Ð»Ð¸Ð·Ð°": 551,
      "ĠÑģÐµÑĤ": 552,
      "ĠÐ¡Ð²": 553,
      "Ð½ÑĭÐ¼": 554,
      "ĠÐ¿Ð¾Ð¸ÑģÐº": 555,
      "ÐµÑĤÐºÐ°": 556,
      "ĠÐ¼Ð°Ñģ": 557,
      "ÑĪÑĤÐ°Ð±": 558,
      "ĠÐ¼Ð°ÑģÑĪÑĤÐ°Ð±": 559,
      "Ð°Ð½Ð¸Ð·": 560,
      "ĠÑĢÐ°Ð·Ð´": 561,
      "Ð¸ÑĩÐµÑģÐºÐ¸Ðµ": 562,
      "ĠP": 563,
      "ĠÑģÐ¾ÑģÑĤÐ¾": 564,
      "ÑĭÐµ": 565,
      "ĠÐ¿ÐµÑĢÐµÐ´": 566,
      "ĠÐ¿ÑĢÐ¾Ð¸Ð·Ð²Ð¾Ð´": 567,
      "ĠÐºÐ¾ÑĢÑĢÐµÐºÑĤ": 568,
      "ĠÐ°Ð»Ð³": 569,
      "ÑĥÑĩÐ°": 570,
      "ĠÐ¼ÐµÐ¶": 571,
      "ĠÐ¾Ð±Ð»Ð°ÑģÑĤ": 572,
      "ĠÐ¼ÐµÐ¶Ð´Ñĥ": 573,
      "ĠÐ¢Ðµ": 574,
      "Ð¸Ð½Ð¸": 575,
      "ĠÐ¿ÑĢÐ¾Ð²ÐµÑĢÐºÐ¸": 576,
      "ĠD": 577,
      "ĠÐ¢ÐµÐ¾ÑĢ": 578,
      "ĠS": 579,
      "Ð¾ÑĢÐ¸ÑĤ": 580,
      "ĠÐ¿Ð¾ÑĤÑĢÐµÐ±": 581,
      "ĠÐµÐ´": 582,
      "Ð¸Ð½Ð¸ÑĨ": 583,
      "ĠÐµÐ´Ð¸Ð½Ð¸ÑĨ": 584,
      "Ð¸ÑĤÐµÐ»ÑĮÐ½Ð¾ÑģÑĤÐ¸": 585,
      "Ð¸ÑĩÐµÑģÐºÐ°Ñı": 586,
      "Ð¸ÑĩÐµÑģÐºÐ¸Ð¼": 587,
      "ÑĢÑĥÐºÑĤÑĥ": 588,
      "ĠÐ¾Ð¿Ð¸ÑģÑĭÐ²Ð°ÐµÑĤ": 589,
      "ĠÑģÑĤÑĢÑĥÐºÑĤÑĥ": 590,
      "Ð¾Ð½Ð½Ð°Ñı": 591,
      "ĠÐ²ÐµÐºÑĤÐ¾ÑĢ": 592,
      "ĠÐ¸Ð½Ð¶ÐµÐ½ÐµÑĢ": 593,
      "ĠÐ¿ÑĢÐ¾Ð³ÑĢÐ°Ð¼Ð¼": 594,
      "Ð¸Ð¹": 595,
      "ĠÑįÑĤ": 596,
      "Ð°ÑĤÑĮ": 597,
      "Ð¸ÑĤÑĮ": 598,
      "ĠÑģÐ¾": 599,
      "ĠÐ·Ð°Ð²Ð¸Ñģ": 600,
      "ĠÐ¤": 601,
      "ĠÑĦÑĥÐ½Ðº": 602,
      "ĠÑĦÑĥÐ½ÐºÑĨÐ¸Ð¸": 603,
      "ĠÐ·Ð°Ð´Ð°ÑĩÐ¸": 604,
      "ro": 605,
      "ÐºÐ¾ÑĢ": 606,
      "ÑģÐ½Ð¾Ð²Ð½ÑĭÐµ": 607,
      "ĠÐ¾Ð¿ÑĢÐµÐ´ÐµÐ»ÑıÐµÑĤ": 608,
      "ing": 609,
      "ĠÐ´Ð°Ð½Ð½ÑĭÐµ": 610,
      "ÑĤÐ¾ÑĢ": 611,
      "ĠC": 612,
      "ÑĨÐµÑģÑģ": 613,
      "ÐµÐ¼ÐµÐ½ÑĤ": 614,
      "ĠÑįÐ»ÐµÐ¼ÐµÐ½ÑĤ": 615,
      "ĠÑįÐ»ÐµÐºÑĤÑĢ": 616,
      "ĠÐ¿Ð¾Ð·": 617,
      "Ð¸ÑĢÑĥÐµÑĤ": 618,
      "Ð°Ð³": 619,
      "ĠÐºÐ¾Ð¼Ð¿": 620,
      "Ð¾Ð½ÐµÐ½ÑĤ": 621,
      "ĠÐºÐ¾Ð¼Ð¿Ð¾Ð½ÐµÐ½ÑĤ": 622,
      "Ð¸ÑĢÐ¾Ð²": 623,
      "ÐµÐ½Ð¸ÐµÐ¼": 624,
      "ÑĭÐ¼": 625,
      "ĠÑĨÐµÐ»": 626,
      "Ð½Ð¾Ðµ": 627,
      "Ð°Ð»ÑĮ": 628,
      "ĠÑĤÐ¾Ðº": 629,
      "tent": 630,
      "tention": 631,
      "ĠÐĳ": 632,
      "ÐµÐ¼Ð¾Ð¹": 633,
      "ÑĤÐµÐºÑģÑĤ": 634,
      "ÑĢÐ°ÑīÐ°ÐµÑĤ": 635,
      "Ð¾Ð»Ð¾Ð¶": 636,
      "ÑĤÐµÑĢ": 637,
      "ÐµÐ½Ð½ÑĭÑħ": 638,
      "ĠÐ¸Ð½ÑĤÐµÑĢ": 639,
      "Ð¿ÑĢÐµÑĤ": 640,
      "ĠÐ¸Ð½ÑĤÐµÑĢÐ¿ÑĢÐµÑĤ": 641,
      "»Ð¾Ð¶": 642,
      "ĠÐ¿Ð¾Ð½Ð¸Ð¼Ð°Ð½Ð¸Ñı": 643,
      "ĠÐ·Ð°Ð»Ð¾Ð¶": 644,
      "ĠÐļÐ¾ÑĢÑĢÐµÐºÑĤ": 645,
      "ĠÐ¿ÑĢÐµÐ´Ð¿Ð¾Ð»Ð¾Ð¶": 646,
      "ĠÐ¸Ð½ÑĤÐµÑĢÐ¿ÑĢÐµÑĤÐ°ÑĨÐ¸Ñı": 647,
      "ĠÐ·Ð°Ð»Ð¾Ð¶ÐµÐ½Ð½ÑĭÑħ": 648,
      "ĠÐļÐ¾ÑĢÑĢÐµÐºÑĤÐ½Ð°Ñı": 649,
      "ĠÐ¿ÑĢÐµÐ´Ð¿Ð¾Ð»Ð¾Ð¶ÐµÐ½Ð¸Ð¹": 650,
      "ĠÐ¸ÑģÐ¿Ð¾Ð»ÑĮÐ·ÑĥÐµÑĤÑģÑı": 651,
      "ÐºÐ¸Ð¹": 652,
      "ÐļÑĢÐ°ÑĤ": 653,
      "ÐļÑĢÐ°ÑĤÐºÐ¸Ð¹": 654,
      "HT": 655,
      "TP": 656,
      "ĠHT": 657,
      "Ð¿ÑĢÐ°Ð²ÐºÐ°": 658,
      "ĠHTTP": 659,
      "ĠÑģÐ¾Ð²": 660,
      "Ð°Ð½Ð½ÑĭÐµ": 661,
      "ÐºÐ¸Ñħ": 662,
      "ÑĭÐ²Ð°ÑİÑĤ": 663,
      "ĠÐ¾Ð¿Ð¸ÑģÑĭÐ²Ð°ÑİÑĤ": 664,
      "Ð»Ð¾Ð²": 665,
      "ÑĩÐµÑģÐº": 666,
      "Ð²Ð°ÑİÑĤÑģÑı": 667,
      "Ð·Ð¾ÑĢ": 668,
      "Ð¼ÐµÑģÑĤ": 669,
      "Ð¼Ð°ÑĤÑĢÐ¸": 670,
      "ĠÐ¾Ð½Ð¸": 671,
      "ÑģÐºÐ¾Ð»ÑĮ": 672,
      "ĠÐ¾Ð±Ð·Ð¾ÑĢ": 673,
      "ĠÐ¿Ð¾ÑģÐºÐ¾Ð»ÑĮ": 674,
      "ÑģÑģÐ¼Ð°ÑĤÑĢÐ¸": 675,
      "ÑıÐ·Ð°Ð½Ð½ÑĭÐµ": 676,
      "ĠÑĢÐ°Ð·Ð½ÑĭÐµ": 677,
      "ĠÐ¿Ð¾Ð½ÑıÑĤÐ¸Ñı": 678,
      "ĠÑĩÐ°ÑģÑĤÐ¾": 679,
      "ĠÑĥÑĢÐ¾Ð²Ð½Ð¸": 680,
      "ĠÑĢÐ°ÑģÑģÐ¼Ð°ÑĤÑĢÐ¸": 681,
      "ĠÐ¡Ð²ÑıÐ·Ð°Ð½Ð½ÑĭÐµ": 682,
      "ĠÑģÐ¾Ð²Ð¼ÐµÑģÑĤ": 683,
      "ĠÐ¿Ð¾ÑģÐºÐ¾Ð»ÑĮÐºÑĥ": 684,
      "ĠÑĢÐ°ÑģÑģÐ¼Ð°ÑĤÑĢÐ¸Ð²Ð°ÑİÑĤÑģÑı": 685,
      "ĠÑģÐ¾Ð²Ð¼ÐµÑģÑĤÐ½Ð¾": 686,
      "ÑĩÐµÑģÐºÐ°Ñı": 687,
      "ÑħÐ½Ð¸": 688,
      "Ð¢Ðµ": 689,
      "Ð¢ÐµÑħÐ½Ð¸": 690,
      "ĠÑģÐ¿ÑĢÐ°Ð²ÐºÐ°": 691,
      "Ð¢ÐµÑħÐ½Ð¸ÑĩÐµÑģÐºÐ°Ñı": 692,
      "ĠÐ½Ð°Ð±": 693,
      "ĠÐ½Ð°Ð±Ð»Ñİ": 694,
      "ĠÑģÐ»Ð¾Ð¶Ð½ÑĭÑħ": 695,
      "ĠÐĶÐ»Ñı": 696,
      "ĠÐ²Ð°Ð¶Ð½Ñĭ": 697,
      "Ð¸ÑĢÑĥÐµÐ¼Ð¾ÑģÑĤÑĮ": 698,
      "ĠÐ½Ð°Ð´ÐµÐ¶Ð½Ð¾ÑģÑĤÑĮ": 699,
      "ĠÐ´Ð¾Ð¿Ð¾Ð»Ð½Ð¸ÑĤÐµÐ»ÑĮÐ½Ð¾": 700,
      "Ð´Ð°ÐµÐ¼Ð¾ÑģÑĤÑĮ": 701,
      "ĠÐ¼Ð°ÑģÑĪÑĤÐ°Ð±Ð¸ÑĢÑĥÐµÐ¼Ð¾ÑģÑĤÑĮ": 702,
      "ĠÐ½Ð°Ð±Ð»ÑİÐ´Ð°ÐµÐ¼Ð¾ÑģÑĤÑĮ": 703,
      "ĠÑģÐ¾Ð±": 704,
      "ÑĭÑĤ": 705,
      "ĠÑģÐ¾Ð±ÑĭÑĤ": 706,
      "ÐĴ": 707,
      "Ð°Ð¹": 708,
      "Ð²ÐµÐ´ÐµÐ½Ð¸Ðµ": 709,
      "ĠÑĤÐµÐ¼Ñĥ": 710,
      "ÐĴÐ²ÐµÐ´ÐµÐ½Ð¸Ðµ": 711,
      "ÑģÐ½Ð¸ÑĤ": 712,
      "ÑıÑģÐ½Ð¸ÑĤ": 713,
      "ÐµÑĤÐ¸ÑĩÐµÑģÐºÐ¸Ðµ": 714,
      "ĠÐ¾Ð±ÑĬÑıÑģÐ½Ð¸ÑĤ": 715,
      "Ð¸ÐºÐµ": 716,
      "ĠÐ¿ÑĢÐ°ÐºÑĤÐ¸ÐºÐµ": 717,
      "ĠÐ¿Ð¾Ð¼Ð¾Ð³Ð°ÑİÑĤ": 718,
      "ĠÐ°Ð»Ð³Ð¾ÑĢÐ¸ÑĤ": 719,
      "ĠÐ¢ÐµÐ¾ÑĢÐµÑĤÐ¸ÑĩÐµÑģÐºÐ¸Ðµ": 720,
      "ĠÐ¾Ð±ÑĬÑıÑģÐ½Ð¸ÑĤÑĮ": 721,
      "ĠÐ°Ð»Ð³Ð¾ÑĢÐ¸ÑĤÐ¼Ð°": 722,
      "ÐļÐ¾Ð½": 723,
      "ÑģÐ¿ÐµÐºÑĤ": 724,
      "ĠÑĢÐ°Ð·Ð´ÐµÐ»Ð°": 725,
      "ÐļÐ¾Ð½ÑģÐ¿ÐµÐºÑĤ": 726,
      "ĠÑģÐ²ÑıÐ·ÑĭÐ²Ð°ÐµÑĤ": 727,
      "ĠÐ¿ÐµÑĢÐµÐ´Ð°Ñĩ": 728,
      "Ð¸Ð±": 729,
      "ĠÐ³ÑĢÐ°Ð½Ð¸Ñĩ": 730,
      "ĠÑģÐ»ÑĥÑĩÐ°": 731,
      "ĠÐŁÑĢÐ°ÐºÑĤ": 732,
      "ĠÐ¸Ð·Ð¼ÐµÑĢÐµÐ½Ð¸Ñı": 733,
      "ĠÑĢÐµÐ°Ð»Ð¸Ð·Ð°ÑĨÐ¸Ñı": 734,
      "ĠÐ¿ÑĢÐ¾Ð¸Ð·Ð²Ð¾Ð´Ð¸ÑĤÐµÐ»ÑĮÐ½Ð¾ÑģÑĤÐ¸": 735,
      "ĠÐºÐ¾ÑĢÑĢÐµÐºÑĤÐ½Ð¾ÑģÑĤÐ¸": 736,
      "ĠÐ³ÑĢÐ°Ð½Ð¸ÑĩÐ½ÑĭÑħ": 737,
      "ĠÑģÐ»ÑĥÑĩÐ°ÐµÐ²": 738,
      "ĠÐŁÑĢÐ°ÐºÑĤÐ¸ÑĩÐµÑģÐºÐ°Ñı": 739,
      "Ð£": 740,
      "ÑħÐ¾Ð´Ð¸ÑĤÑĮ": 741,
      "ĠÐ·Ð°Ð¼": 742,
      "ĠÐ¾Ð±Ð»Ð°ÑģÑĤÐ¸": 743,
      "ss": 744,
      "ÑĩÐµÐ±": 745,
      "ĠÑģÐ½Ð°Ñĩ": 746,
      "ÐµÐ½Ð¸Ð¸": 747,
      "Ð°ÑĤÐµÐ¼": 748,
      "ĠÐ·Ð°ÑĤÐµÐ¼": 749,
      "Ð°Ð»Ð°": 750,
      "ĠÐŁÑĢÐ¸": 751,
      "ÐµÐ·Ð½Ð¾": 752,
      "ĠÐ¸Ð·ÑĥÑĩÐµÐ½Ð¸Ð¸": 753,
      "ĠÐ¿Ð¾Ð»ÐµÐ·Ð½Ð¾": 754,
      "ĠÐ·Ð°Ð´Ð°ÑĩÐ°Ð¼": 755,
      "ĠÐ¾Ð¿ÑĢÐµÐ´ÐµÐ»ÐµÐ½Ð¸Ñı": 756,
      "ĠÐ¿Ð¾Ð½ÑıÑĤÑĮ": 757,
      "ĠÐ¿ÑĢÐ°ÐºÑĤÐ¸ÑĩÐµÑģÐºÐ¸Ð¼": 758,
      "ĠÐ¿ÐµÑĢÐµÑħÐ¾Ð´Ð¸ÑĤÑĮ": 759,
      "ĠÑįÑĤÐ¾Ð¹": 760,
      "Ð£ÑĩÐµÐ±": 761,
      "ĠÐ·Ð°Ð¼ÐµÑĤÐºÐ°": 762,
      "ĠÑģÐ½Ð°ÑĩÐ°Ð»Ð°": 763,
      "Ð£ÑĩÐµÐ±Ð½Ð°Ñı": 764,
      "ĠA": 765,
      "Ð°ÑģÑģ": 766,
      "Ðŀ": 767,
      "Ð¾Ð²Ð°Ð½Ð¸Ð¹": 768,
      "ĠÐ·Ð°Ð²Ð¸ÑģÐ¸ÑĤ": 769,
      "ÑĭÐ²Ð°ÑĤÑĮ": 770,
      "ĠÐ¾Ð³ÑĢÐ°Ð½Ð¸ÑĩÐµÐ½Ð¸Ñı": 771,
      "ĠÐ¼ÐµÑĤÐ¾Ð´Ð°": 772,
      "ĠÐ²Ð°Ð¶Ð½Ð¾": 773,
      "ĠÑģÐ¸ÑģÑĤÐµÐ¼Ð°Ñħ": 774,
      "ĠÐ²ÑĭÑĩÐ¸ÑģÐ»Ð¸ÑĤÐµÐ»ÑĮÐ½ÑĥÑİ": 775,
      "ĠÑĥÑĩÐ¸ÑĤÑĭÐ²Ð°ÑĤÑĮ": 776,
      "ĠÐ¿Ð¾ÑĤÑĢÐµÐ±Ð»ÐµÐ½Ð¸Ðµ": 777,
      "ĠÐ¸Ð½Ð¶ÐµÐ½ÐµÑĢÐ½ÑĭÑħ": 778,
      "ÑĭÐ±Ð¾ÑĢ": 779,
      "ÐºÑĢÐµÑĤ": 780,
      "ÑħÐ¾Ð´Ð°": 781,
      "ĠÐĴÑĭÐ±Ð¾ÑĢ": 782,
      "ĠÑĤÑĢÐµÐ±Ð¾Ð²Ð°Ð½Ð¸Ð¹": 783,
      "ĠÐºÐ¾Ð½ÐºÑĢÐµÑĤ": 784,
      "ĠÐ¾Ð³ÑĢÐ°Ð½Ð¸ÑĩÐµÐ½Ð¸Ð¹": 785,
      "ĠÑĢÐµÐ·ÑĥÐ»ÑĮÑĤÐ°ÑĤÑĥ": 786,
      "ĠÐ¿Ð¾Ð´ÑħÐ¾Ð´Ð°": 787,
      "ĠÐ²ÑħÐ¾Ð´Ð½ÑĭÑħ": 788,
      "ĠÐºÐ¾Ð½ÐºÑĢÐµÑĤÐ½Ð¾Ð³Ð¾": 789,
      "ÑĤÐ¸Ð¼": 790,
      "ĠÐ¾Ð¿ÐµÑĢÐ°ÑĨÐ¸Ð¸": 791,
      "ÑĤÐ¸Ð¼Ð¸Ð·": 792,
      "ÐµÑĢÐ¶": 793,
      "ÐŀÑģÐ½Ð¾Ð²Ð½ÑĭÐµ": 794,
      "ĠÑģÐ²ÐµÐ´ÐµÐ½Ð¸Ñı": 795,
      "ĠÐĺÐ½": 796,
      "ĠÑĢÐ°Ð±Ð¾ÑĤ": 797,
      "ĠÐ·Ð½Ð°Ñĩ": 798,
      "ĠÐ±Ð»": 799,
      "ÐµÐ»Ñı": 800,
      "ĠÐ¼Ðµ": 801,
      "ĠÐ¼ÐµÑħ": 802,
      "Ð°Ð¿": 803,
      "de": 804,
      "ÐµÐ»Ð¸Ñĩ": 805,
      "ĠÐ¿ÑĢÐ¾ÑĨÐµÑģÑģ": 806,
      "ÐºÐ¾ÑĢÐ¾ÑģÑĤÑĮ": 807,
      "ĠÐ¥": 808,
      "Ð¾Ðµ": 809,
      "Ð¾Ð»ÑĮÑĪ": 810,
      "ÐµÐ½ÑĤÐ¸ÑĦ": 811,
      "Ð¸Ð²Ð°ÐµÑĤ": 812,
      "ĠÑģÐ²ÑıÐ·Ð°Ð½": 813,
      "er": 814,
      "ĠÐ²ÐµÑĢ": 815,
      "ĠÐ¿ÑĢÐµÐ¾Ð±ÑĢÐ°Ð·ÑĥÐµÑĤ": 816,
      "Ð¿Ñĥ": 817,
      "ĠÐ¼Ð¾Ð´ÐµÐ»ÑĮ": 818,
      "ĠÑĤÐ¾ÐºÐµÐ½": 819,
      "ÑĪÐµÐ»": 820,
      "ĠÐ²Ð¾Ð·": 821,
      "ĠÐ¡Ð¾Ð»Ð½ÐµÑĩ": 822,
      "ÑģÑĤÐ²ÐµÐ½": 823,
      "Ð¾Ð»Ð¾Ð³": 824,
      "ĠÐ·Ð²": 825,
      "ÐµÐ·Ð´": 826,
      "ĠÐ·Ð²ÐµÐ·Ð´": 827,
      "Ð°ÑĨÐ¸Ð¸": 828,
      "Ð¸ÐºÐ°": 829,
      "ĠÐĳÐ¸": 830,
      "ĠÐºÐ»": 831,
      "ĠÐ¿Ð¾ÑģÐ»ÐµÐ´Ð¾Ð²Ð°ÑĤÐµÐ»ÑĮÐ½Ð¾ÑģÑĤÑĮÑİ": 832,
      "ĠÐ±Ð°Ð·": 833,
      "ĠÐ·Ð°Ð¿Ð¸Ñģ": 834,
      "ue": 835,
      "Ð¾Ð²Ð¾Ð¹": 836,
      "Ð»Ð¸ÑĨ": 837,
      "ĠÐ¸Ð½ÑĦÐ¾ÑĢÐ¼": 838,
      "ĠÐºÐ¾Ð½ÑĤÐµÐºÑģÑĤ": 839,
      "PI": 840,
      "ÑĢÐ³": 841,
      "ĠÐ¾ÑĢÐ³": 842,
      "ĠÐ¾ÑĢÐ³Ð°Ð½Ð¸Ð·": 843,
      "ĠÐ½ÐµÑģÐº": 844,
      "ĠÐ½ÐµÑģÐºÐ¾Ð»ÑĮ": 845,
      "ÐµÐ½Ð½Ð¾Ð¹": 846,
      "ĠÐ½ÐµÑģÐºÐ¾Ð»ÑĮÐºÐ¸Ñħ": 847,
      "ÐµÑĢÐ²": 848,
      "Ð½ÐµÑĢ": 849,
      "ĠÐ³ÐµÐ½": 850,
      "ĠÐ¿ÑĢÐ¸Ð¼": 851,
      "ĠÐļÐ¾Ð½": 852,
      "Ð¸Ð½Ñĥ": 853,
      "Ð·Ð½Ð°Ñĩ": 854,
      "ÐµÐ³Ð¾": 855,
      "ĠÐ¿ÐµÑĢÐµÐ´Ð°ÑĩÐ¸": 856,
      "ÑĭÑħ": 857,
      "ĠÐ°Ð´": 858,
      "ÑģÑĤÑĢ": 859,
      "ĠÑħÑĢÐ°Ð½": 860,
      "Ð²Ð¾Ð»": 861,
      "ÑĨÐ¸Ñİ": 862,
      "st": 863,
      "ĠI": 864,
      "Ð·Ð°Ðº": 865,
      "ÑģÐºÐ¾ÑĢ": 866,
      "ÑĢÐ°Ð½Ð·Ð°Ðº": 867,
      "ĠÑĢ": 868,
      "Ð´ÐµÐ½Ð¸Ðµ": 869,
      "Ð¾Ð¶Ð´ÐµÐ½Ð¸Ðµ": 870,
      "Ð½Ð¸Ðº": 871,
      "Ð¸ÑĩÐµÑģÐºÐ¾Ð¹": 872,
      "ata": 873,
      "ĠData": 874,
      "ĠÐŃ": 875,
      "ess": 876,
      "ÑĭÐº": 877,
      "Ð·ÑĭÐº": 878,
      "nc": 879,
      "Ð¸Ð´": 880,
      "Ð¾ÑģÑĤÐ°Ð²": 881,
      "ĠÐºÐ¾ÑĢ": 882,
      "ÑĢÐ¾Ñģ": 883,
      "ÐµÐ¿": 884,
      "ĠÐ¸Ð´": 885,
      "ĠÐ¸Ð´ÐµÐ½ÑĤÐ¸ÑĦ": 886,
      "ĠÐ¾Ð¿ÑĤÐ¸Ð¼Ð¸Ð·": 887,
      "ar": 888,
      "Ð¾Ð±Ñī": 889,
      "ĠÑģÐ¾Ð¾Ð±Ñī": 890,
      "ÐµÐ½Ð½ÑĭÐµ": 891,
      "ÑĨÐ¸Ð¹": 892,
      "ÐµÐºÑģ": 893,
      "Ð°ÑĤÑĭÐ²Ð°ÐµÑĤ": 894,
      "Ð°ÑĢÐ°ÐºÑĤ": 895,
      "ÐµÑĢÐ¸Ð·": 896,
      "ĠÑħÐ°ÑĢÐ°ÐºÑĤ": 897,
      "ÐµÑĢÐ¸Ð·ÑĥÐµÑĤ": 898,
      "ĠÑħÐ°ÑĢÐ°ÐºÑĤÐµÑĢÐ¸Ð·ÑĥÐµÑĤ": 899,
      "ĠÐ¾Ð±Ñī": 900,
      "ÐµÑĪ": 901,
      "ch": 902,
      "Ð»ÐµÐ½Ð¸Ð¹": 903,
      "Ð¸ÑģÐ»ÑıÐµÑĤ": 904,
      "ÑĪÐµÐ½Ð¸Ñı": 905,
      "ĠÐ²ÑĭÑĩÐ¸ÑģÐ»ÑıÐµÑĤ": 906,
      "ĠÐ¿ÑĢÐµÐ´ÑģÑĤÐ°Ð²Ð»ÐµÐ½Ð¸Ð¹": 907,
      "ÑĥÐ¿": 908,
      "Ð¾ÑģÑĤÑĥÐ¿": 909,
      "ÑĢÐ°Ñī": 910,
      "ĠÑĢÐµÐ°Ðº": 911,
      "ÑīÐ¸ÑīÐ°ÐµÑĤ": 912,
      "ĠÐ·Ð°ÑīÐ¸ÑīÐ°ÐµÑĤ": 913,
      "ÑıÐ´": 914,
      "ĠÐ²Ð·Ð°Ð¸Ð¼Ð¾Ð´ÐµÐ¹ÑģÑĤÐ²Ð¸Ñı": 915,
      "ĠÐ²Ð½": 916,
      "Ð¾Ð½Ð¾Ð¼": 917,
      "ĠÑģÐ¾ÑģÑĤÐ¾Ð¸ÑĤ": 918,
      "Ð¼ÐµÑĢ": 919,
      "pro": 920,
      "Ð¸Ð½ÐµÐ¹": 921,
      "ĠM": 922,
      "al": 923,
      "ĠÐ¿Ð¾Ð»Ð¾Ð¶": 924,
      "ĠÐ²ÐµÐ»Ð¸Ñĩ": 925,
      "ĠÑģÐ»ÐµÐ´": 926,
      "Ð¾Ð½Ð¾Ð²": 927,
      "ĠÑĩÐ¸ÑģÐ»": 928,
      "Ð¸Ð½Ñĭ": 929,
      "ĠB": 930,
      "ĠÐ¿Ð¾Ð²ÑĤÐ¾ÑĢ": 931,
      "ÑģÐºÐ°Ð·": 932,
      "ĠÐ¿ÑĢÐµÐ´ÑģÐºÐ°Ð·": 933,
      "Ñį": 934,
      "ĠÐ¸Ð·Ð¼ÐµÑĢÑıÐµÑĤ": 935,
      "ÑįÑĪ": 936,
      "ĠE": 937,
      "ĠÑģÐºÐ¾ÑĢÐ¾ÑģÑĤÑĮ": 938,
      "ÑĢÐ°Ð´": 939,
      "ĠÐ¿Ð¾Ð·Ð¸": 940,
      "ĠÐ´ÐµÐ¹ÑģÑĤÐ²": 941,
      "Ð¸ÐµÐ½ÑĤ": 942,
      "ÑĢÐ°Ð´Ð¸ÐµÐ½ÑĤ": 943,
      "ĠÐ±Ð¾Ð»ÑĮÑĪ": 944,
      "ĠÐ¾Ð³ÑĢÐ°Ð½Ð¸ÑĩÐ¸Ð²Ð°ÐµÑĤ": 945,
      "ĠÑĨÐµÐ»ÐµÐ²": 946,
      "ĠÑģÑĤÑĢÐ¾": 947,
      "ĠÑĢÐ°Ð±Ð¾ÑĤÐ°ÐµÑĤ": 948,
      "Ð¾Ð²Ð°ÑĤÑĮ": 949,
      "ĠÐ¿Ð°": 950,
      "attention": 951,
      "ĠÑıÐ´": 952,
      "ÑīÐ¸Ð¹": 953,
      "ÑĢÐ°ÑĦ": 954,
      "ĠÑįÐº": 955,
      "Ð´Ð°ÐµÑĤ": 956,
      "Ð¸ÑĢÐ¾Ð²Ð°Ð½": 957,
      "or": 958,
      "ÐµÑĤÑĢ": 959,
      "Ð±ÑĥÑĩÐµÐ½Ð¸Ðµ": 960,
      "ĠÐŀÐ±ÑĥÑĩÐµÐ½Ð¸Ðµ": 961,
      "Ð²ÑĭÐ¼": 962,
      "ĠÐ¿ÐµÑĢÐ²ÑĭÐ¼": 963,
      "ĠÐ·Ð°Ðº": 964,
      "Ð¸Ð½ÑĨÐ¸": 965,
      "Ð¾Ñģ": 966,
      "ÐµÑģÑĤÐ²ÐµÐ½": 967,
      "ĠÐ·Ð²ÐµÐ·Ð´Ñĭ": 968,
      "Ð°ÑģÑĤÐ²": 969,
      "ÐµÐ»ÐºÐ¸": 970,
      "ĠÑĥÑĩÐ°ÑģÑĤÐ²": 971,
      "ĠÐĴÑģ": 972,
      "ĠÐĹ": 973,
      "ĠÐĴÑģÐµÐ»": 974,
      "Ð¾Ð»Ð¾Ð³Ð¸Ñı": 975,
      "ĠÐĹÐµÐ¼": 976,
      "Ð»Ð°Ð½": 977,
      "ĠÐ¡Ð¾Ð»Ð½ÐµÑĩÐ½Ð¾Ð¹": 978,
      "Ð»Ð°Ð½ÐµÑĤ": 979,
      "ÑıÐµÐ¼Ð¾Ð¹": 980,
      "ĠÐ²Ð¾Ðº": 981,
      "ĠÐ¾Ð±ÑĢÐ°ÑīÐ°ÐµÑĤ": 982,
      "ÑĢÑĥÐ³": 983,
      "ĠÐ²Ð¾ÐºÑĢÑĥÐ³": 984,
      "ĠÐ¾Ð±ÑĢÐ°ÑīÐ°ÐµÑĤÑģÑı": 985,
      "ÑĤÐ¸Ð·": 986,
      "ĠÐ¿Ð°Ðº": 987,
      "ÑĪÑĢÑĥ": 988,
      "ĠÐ½Ð°ÑģÐ»ÐµÐ´": 989,
      "Ð°ÑĢÑĪÑĢÑĥ": 990,
      "ĠÐ¿Ð°ÐºÐµÑĤ": 991,
      "Ð°ÑĢÑĪÑĢÑĥÑĤÐ¸Ð·": 992,
      "¶Ð¸Ð²": 993,
      "ĠÐ¶Ð¸Ð²": 994,
      "ÐĿ": 995,
      "Ð¾Ñħ": 996,
      "ÐĿÐļ": 997,
      "ĠÐ¾Ð±Ð¼ÐµÐ½": 998,
      "ÑĥÑİÑĤ": 999,
      "Ð»ÐµÑĩ": 1000,
      "ĠÐºÐ¾Ð½ÑĤÐµÐºÑģÑĤÐ°": 1001,
      "ÑıÐ¼Ð¸": 1002,
      "hon": 1003,
      "thon": 1004,
      "ython": 1005,
      "ĠPython": 1006,
      "ĠÑĥÐ¿ÑĢÐ°Ð²": 1007,
      "ĠÑĤÐ°Ð±": 1008,
      "ĠÑģÐ¾Ð±ÑĭÑĤÐ¸Ð¹": 1009,
      "ĠÑĥÐ¿ÑĢÐ°Ð²Ð»ÑıÐµÑĤ": 1010,
      "ĠÑĤÐ°Ð±Ð»Ð¸ÑĨ": 1011,
      "ĠÐĽ": 1012,
      "ÐµÑĢÐ½Ð°Ñı": 1013,
      "Ð°ÑĤÐµÑĢ": 1014,
      "ĠÐºÑĢÑĥ": 1015,
      "ĠÐ¼Ð°ÑĤÐµÑĢ": 1016,
      "ĠÐºÑĢÑĥÐ¿": 1017,
      "ĠÑģÐ¾Ð·": 1018,
      "Ð¸Ñİ": 1019,
      "ĠÐ±Ð¸": 1020,
      "ĠÐ½ÐµÐ±": 1021,
      "ĠÑıÐ·ÑĭÐº": 1022,
      "Ð½ÐµÑĢÐ³": 1023,
      "ĠÐ¸Ð·Ð¼ÐµÐ½ÑıÐµÑĤ": 1024,
      "Ð¸ÑĩÐµÑģÐºÐ¸Ñħ": 1025,
      "que": 1026,
      "ÐµÐ»ÑıÑĨÐ¸": 1027,
      "ĠÑģÐ¾Ð¾Ð±ÑīÐµÐ½Ð¸Ð¹": 1028,
      "ĠÐ±Ð°Ð·Ð°": 1029,
      "ÐµÐ»ÐµÐ¹": 1030,
      "Ð¸ÑĤÐµÐ»ÐµÐ¹": 1031,
      "Ð¾Ð·Ð½Ð°Ñĩ": 1032,
      "ĠÑģÐµÑĤÐµÐ²": 1033,
      "ĠÐ§": 1034,
      "Ġa": 1035,
      "ÐµÐ½ÑıÐµÑĤ": 1036,
      "ÑĥÑĤÐ¸Ð½Ñĥ": 1037,
      "ĠÐ¿ÑĢÐ¸Ð¼ÐµÐ½ÑıÐµÑĤ": 1038,
      "ĠÐºÐ¾ÑĢÑĥÑĤÐ¸Ð½Ñĥ": 1039,
      "ĠÐ²ÐµÐºÑĤÐ¾ÑĢÐ½ÑĭÑħ": 1040,
      "ĠÐ±Ð»Ð¸Ð·": 1041,
      "ĠÐ¾Ð¶": 1042,
      "ĠÐ´Ð°Ð½Ð½ÑĭÐ¼Ð¸": 1043,
      "ÑĨÐ°": 1044,
      "Ð°Ð¹Ð»Ð¾Ð²": 1045,
      "ÑĢÐµÑģ": 1046,
      "ĠÐ°Ð´ÑĢÐµÑģ": 1047,
      "ĠAPI": 1048,
      "ÐµÐ½Ð½Ð°Ñı": 1049,
      "wa": 1050,
      "ĠÐ¾ÑĤÐ²": 1051,
      "ĠÑģÐµÑĢÐ²": 1052,
      "ĠÐ¿Ð¾ÑĤÐ¾Ðº": 1053,
      "ĠÑģÐµÑĢÐ²Ð¸Ñģ": 1054,
      "ĠÑĥÑģÐºÐ¾ÑĢ": 1055,
      "ÑħÐ¾Ð¶Ð´ÐµÐ½Ð¸Ðµ": 1056,
      "Ð¸ÑģÑħÐ¾Ð¶Ð´ÐµÐ½Ð¸Ðµ": 1057,
      "ĠÐ¿ÑĢÐ¾Ð¸ÑģÑħÐ¾Ð¶Ð´ÐµÐ½Ð¸Ðµ": 1058,
      "ĠÐ¿Ð¾ÑģÐ»ÐµÐ´Ð¾Ð²Ð°ÑĤÐµÐ»ÑĮÐ½Ð¾ÑģÑĤÐ¸": 1059,
      "ÑıÑĤÑĮ": 1060,
      "ĠÑģÑĤÑĢÑĥÐºÑĤÑĥÑĢ": 1061,
      "ĠÑħÑĢÐ°Ð½ÐµÐ½Ð¸Ñı": 1062,
      "ÐµÐ½Ð¸Ð²": 1063,
      "ou": 1064,
      "ĠU": 1065,
      "ĠÑĤÑĢÐ°Ð½Ð·Ð°Ðº": 1066,
      "ĠÑĤÑĢÐ°Ð½Ð·Ð°ÐºÑĨÐ¸Ð¹": 1067,
      "Ð¾ÐºÐ¸": 1068,
      "ĠÐ·Ð°Ð¿ÑĢÐ¾Ñģ": 1069,
      "ĠÐºÐ»Ð°ÑģÑģ": 1070,
      "ÑĤÐ¾Ð²": 1071,
      "ĠÐ¾Ð·Ð½Ð°Ñĩ": 1072,
      "Ð¿Ð¸Ñģ": 1073,
      "ĠÑĥÐ·": 1074,
      "Ð°ÑĢÑĮ": 1075,
      "ÑĢÐ°ÑīÐµÐ½Ð¸Ñı": 1076,
      "ĠÐ¾Ð·Ð½Ð°ÑĩÐ°ÐµÑĤ": 1077,
      "Ð»Ð°Ñģ": 1078,
      "ĠÑģÐ¾Ð³": 1079,
      "ity": 1080,
      "ĠÑģÐ¾Ð³Ð»Ð°Ñģ": 1081,
      "Ð¼Ñĭ": 1082,
      "ĠÐ¼Ð¾Ð¶": 1083,
      "ĠÐ¸Ð½ÑĦÐ¾ÑĢÐ¼Ð°ÑĨÐ¸Ñİ": 1084,
      "ĠÐ¼Ð¾Ð¶ÐµÑĤ": 1085,
      "se": 1086,
      "ĠÐ´Ð¾": 1087,
      "ĠÐµÐ´Ð¸Ð½Ð¸ÑĨÑĥ": 1088,
      "ĠÐµÐ´Ð¸Ð½Ð¸ÑĨÐµÐ¹": 1089,
      "ÐµÐ½Ð½ÑĥÑİ": 1090,
      "Ð¼Ð¸ÑĢÐ¾Ð²": 1091,
      "ĠÐ¿ÑĢÐ¾Ð³ÑĢÐ°Ð¼Ð¼Ð¸ÑĢÐ¾Ð²": 1092,
      "Ð½Ð¾ÑĤÑĥ": 1093,
      "ĠÐ¿Ð¾Ð»Ð½Ð¾ÑĤÑĥ": 1094,
      "ÑĢÐ°Ð±Ð¾ÑĤÐºÐ¸": 1095,
      "ÑģÑĥ": 1096,
      "ÐºÐµ": 1097,
      "ĠSe": 1098,
      "Ð¸Ðµ": 1099,
      "ĠÐ²Ð¾": 1100,
      "ĠÐ²ÑĢÐµÐ¼ÐµÐ½Ð¸": 1101,
      "ĠÐ¾Ð±ÑĢÐ°Ð±Ð¾ÑĤÐºÐ¸": 1102,
      "Ð´ÐµÐºÑģ": 1103,
      "ĠÐ»Ð¾Ð³": 1104,
      "ĠF": 1105,
      "ĠÐ¢": 1106,
      "ĠÐ¿Ð¾Ð²ÐµÐ´ÐµÐ½Ð¸Ñı": 1107,
      "ĠÐ¸Ð·Ð¼ÐµÐ½ÐµÐ½Ð¸Ðµ": 1108,
      "ÑĮÑİÑĤ": 1109,
      "ÑīÐµ": 1110,
      "ÑģÐ¿ÑĢÐµÐ´ÐµÐ»": 1111,
      "ĠÐ¾ÑĤÐ½Ð¾": 1112,
      "ĠÑĢÐµÐ°ÐºÑĨÐ¸Ð¸": 1113,
      "ÐµÑīÐµ": 1114,
      "ĠÐ²ÐµÑīÐµ": 1115,
      "ĠÐ¥Ð¸Ð¼": 1116,
      "ĠÐ³ÐµÐ½ÐµÑĢÐ°ÑĨÐ¸": 1117,
      "LS": 1118,
      "cess": 1119,
      "Ġpro": 1120,
      "Ð¾ÑĢÑıÐ´": 1121,
      "ĠÐ¾Ð±ÑĢÐ°Ð±": 1122,
      "ĠTLS": 1123,
      "ĠÐ¾Ð¿ÑĤÐ¸Ð¼Ð¸Ð·Ð¸ÑĢÑĥÐµÑĤ": 1124,
      "cessing": 1125,
      "Ġprocessing": 1126,
      "ĠÐ¾Ð±ÑĢÐ°Ð±Ð°ÑĤÑĭÐ²Ð°ÐµÑĤ": 1127,
      "ag": 1128,
      "ak": 1129,
      "ncy": 1130,
      "ĠÐ¿ÑĢÐµÐ´Ð¾ÑģÑĤÐ°Ð²": 1131,
      "ĠÐŀÐ¿": 1132,
      "Ġte": 1133,
      "ÐºÐ¸ÑģÐ»": 1134,
      "ĠÐ¿ÑĢÐ¾Ð²ÐµÑĢÑıÐµÑĤ": 1135,
      "ĠÐ¿ÑĢÐµÐ´ÑģÑĤÐ°Ð²Ð»ÑıÐµÑĤ": 1136,
      "Ġtest": 1137,
      "ĠÐ¸Ð·Ð¼ÐµÐ½ÐµÐ½Ð¸Ñı": 1138,
      "ĠÐ¿ÑĢÐµÐ´Ð¾ÑģÑĤÐ°Ð²Ð»ÑıÐµÑĤ": 1139,
      "ĠÐ´Ð¾ÑģÑĤÑĥÐ¿": 1140,
      "ÐµÑĦ": 1141,
      "Ð¾ÑĢÑĭÐµ": 1142,
      "ĠÐ½ÐµÐº": 1143,
      "Ð¾ÑĤÐ¾ÑĢÑĭÐµ": 1144,
      "Ð¾Ð²Ð°Ð½Ð¸Ðµ": 1145,
      "ĠÐ½ÐµÐºÐ¾ÑĤÐ¾ÑĢÑĭÐµ": 1146,
      "ĠÐŁÐµÑĢ": 1147,
      "ĠK": 1148,
      "ĠÐ¿ÑĢÐµÐ¾Ð±ÑĢÐ°Ð·Ð¾Ð²Ð°Ð½Ð¸Ðµ": 1149,
      "ĠÑģÐ¾Ð±ÑĭÑĤÐ¸Ñı": 1150,
      "ĠÐ¼ÐµÑħÐ°Ð½Ð¸Ð·": 1151,
      "ÑıÐ¶": 1152,
      "ĠÐ°Ð±": 1153,
      "ĠÐĲÐ²": 1154,
      "ĠÐ°Ð±ÑģÑĤ": 1155,
      "ĠÐ²ÑĢÐµÐ¼Ñı": 1156,
      "ĠRe": 1157,
      "ĠÑĢÐ¾ÑģÑĤ": 1158,
      "ĠÑģÐ»ÐµÐ´ÑĥÑİ": 1159,
      "ÑĥÐ»Ñı": 1160,
      "ĠÑģÐ±Ð¾ÑĢ": 1161,
      "Ð°ÐµÑĤÑģÑı": 1162,
      "Ð¾ÑģÑĤÐ¸": 1163,
      "ĠÑģÑĤÑĢÑĥÐºÑĤÑĥÑĢÑĥ": 1164,
      "ĠÐ²ÐµÐ»Ð¸ÑĩÐ¸Ð½Ñĭ": 1165,
      "ĠÐ¼ÐµÑħÐ°Ð½Ð¸": 1166,
      "Ð»ÑĥÑĩ": 1167,
      "ĠÐ¿Ð¾Ð¼Ð¾Ð³Ð°ÐµÑĤ": 1168,
      "ĠÐĲÐ²ÑĤÐ¾ÑĢ": 1169,
      "Ð²Ð°Ð½": 1170,
      "ĠÐ²ÑĭÐ·": 1171,
      "Ð¸ÐºÐ°ÑĤÐ¾ÑĢ": 1172,
      "ĠÐ¸Ð´ÐµÐ½ÑĤÐ¸ÑĦÐ¸ÐºÐ°ÑĤÐ¾ÑĢ": 1173,
      "Ð¾Ð½Ð½Ð¾Ð¹": 1174,
      "ĠÐ»Ð¸Ð½ÐµÐ¹": 1175,
      "Ð¸Ð·Ð°ÑĨÐ¸Ñı": 1176,
      "ÑĢÑĥÐ¶": 1177,
      "ĠÐ¿ÑĢÐ¾Ð³ÑĢÐ°Ð¼Ð¼Ñĭ": 1178,
      "ĠÐ²ÑĭÐ·Ð¾Ð²": 1179,
      "Ð¼Ð°ÐµÑĤÑģÑı": 1180,
      "ĠÐ·Ð°Ð½Ð¸": 1181,
      "ĠÐ°ÑĤÐ¾Ð¼": 1182,
      "ĠÐ·Ð°Ð½Ð¸Ð¼Ð°ÐµÑĤÑģÑı": 1183,
      "ĠÐ°ÑĤÐ¾Ð¼Ð½ÑĭÑħ": 1184,
      "tr": 1185,
      "Ð¾ÑģÑĤÑĢÐ°Ð½": 1186,
      "ĠÑĤÐµÐºÑģÑĤ": 1187,
      "ÑĩÐµÑĢ": 1188,
      "ĠÐ¾ÑĪ": 1189,
      "ÐµÐ´ÑĮ": 1190,
      "ĠÐ¾Ð±Ð½Ð°": 1191,
      "ÑĩÐµÑĢÐµÐ´ÑĮ": 1192,
      "ĠÐ¾ÑĪÐ¸Ð±": 1193,
      "ĠÐ¾Ð±Ð½Ð°ÑĢÑĥÐ¶": 1194,
      "ĠÐĵÑĢÐ°Ð´Ð¸ÐµÐ½ÑĤ": 1195,
      "ĠÑĪ": 1196,
      "ÑĢÐµÐ½ÑĤ": 1197,
      "ĠÐ·Ð°ÑĢ": 1198,
      "ÑĪÐ°ÐµÑĤ": 1199,
      "ĠÐºÐ¾Ð½ÐºÑĥ": 1200,
      "ÐµÐ±ÑĢÐ°": 1201,
      "ĠÐºÐ¾Ð½ÐºÑĥÑĢÐµÐ½ÑĤ": 1202,
      "Ð¾Ð¿Ð°Ñģ": 1203,
      "ĠÑģÐ²ÑıÐ·ÑĮ": 1204,
      "ĠÐ±ÐµÐ·Ð¾Ð¿Ð°Ñģ": 1205,
      "ÐµÑĢÑĮ": 1206,
      "Ð¸ÑģÐ¿": 1207,
      "Ð¸ÑĩÐµÑģÐºÐ¸Ð¹": 1208,
      "ĠÐ¿Ð¾ÑĤÐµÑĢÑĮ": 1209,
      "ation": 1210,
      "ĠÑĨÐµÐ»ÐµÐ²Ð¾Ð¹": 1211,
      "Ð¾Ð¼Ð°Ð³": 1212,
      "Ð¾ÐºÐ°Ð»ÑĮ": 1213,
      "ĠÐ»Ð¾ÐºÐ°Ð»ÑĮ": 1214,
      "ĠÑįÐ»ÐµÐºÑĤÑĢÐ¾Ð¼Ð°Ð³": 1215,
      "ĠÑįÐ»ÐµÐºÑĤÑĢÐ¾Ð¼Ð°Ð³Ð½Ð¸ÑĤ": 1216,
      "ĠÐ¿Ð¾Ð»Ð¾Ð¶Ð¸ÑĤÐµÐ»ÑĮ": 1217,
      "ĠÐ¿Ð°ÑĢÐ°Ð¼": 1218,
      "ode": 1219,
      "ĠÐ½ÐµÐ¹": 1220,
      "Ð¸ÑĩÐµÑģÐºÐ¾Ðµ": 1221,
      "ĠÐ²Ð½ÑĥÑĤ": 1222,
      "ĠÑħÐ¸Ð¼": 1223,
      "ĠÑįÐ»ÐµÐ¼ÐµÐ½ÑĤÐ¾Ð²": 1224,
      "ĠÐ¿Ð¾Ð»Ð¾Ð¶Ð¸ÑĤÐµÐ»ÑĮÐ½ÑĭÑħ": 1225,
      "ĠÑĥÐ¼ÐµÐ½": 1226,
      "ĠÐºÐ¾Ð¼Ð¿Ð¾Ð½ÐµÐ½ÑĤÐ¾Ð²": 1227,
      "ĠÐ·Ð½Ð°ÑĩÐµÐ½Ð¸Ñı": 1228,
      "ĠÑĥÐ¼ÐµÐ½ÑĮ": 1229,
      "ÑģÑħÐ¾Ð´": 1230,
      "ĠÐ¸ÑģÑħÐ¾Ð´": 1231,
      "ĠÐ¿ÑĢÐ¾ÑģÑĤÑĢÐ°Ð½": 1232,
      "ĠÐ¾Ð±ÑĥÑĩ": 1233,
      "ĠÑĩÐ¸ÑģÐ»Ð¾Ð¼": 1234,
      "ĠÐ¿ÑĢÐ¾ÑģÑĤÑĢÐ°Ð½ÑģÑĤÐ²Ð°": 1235,
      "Ġc": 1236,
      "ĠÐ¸Ð·Ð¾Ð»": 1237,
      "ĠÐŁÑĢÐ¾": 1238,
      "ĠÐ¾Ð±ÑĥÑĩÐ°ÐµÑĤ": 1239,
      "ed": 1240,
      "ĠÐ¿Ð¾Ð·Ð²Ð¾Ð»": 1241,
      "ĠÑĢÐ°Ð·Ð¼ÐµÑĢ": 1242,
      "ĠÐ²ÐµÑĢÑĪ": 1243,
      "ac": 1244,
      "Ð¾ÑĩÐºÐ¸": 1245,
      "ÑĦÑĥÐ½Ðº": 1246,
      "ĠÐ¥ÑįÑĪ": 1247,
      "Ð¿Ð¾Ð»Ð½": 1248,
      "ĠÐ²ÑĭÐ¿Ð¾Ð»Ð½": 1249,
      "PE": 1250,
      "ĠÐĲÐ»Ð³": 1251,
      "Ð¾ÑıÑĤ": 1252,
      "ĠPre": 1253,
      "ĠÐ²Ð¾Ð·Ð½Ð¸Ðº": 1254,
      "ĠÐ¿Ð¾Ð·Ð²Ð¾Ð»ÑıÐµÑĤ": 1255,
      "ĠÐ²Ð¾Ð·Ð½Ð¸ÐºÐ°ÐµÑĤ": 1256,
      "ÑĢÐ°Ð¶": 1257,
      "ĠÐºÐ¾Ð´": 1258,
      "ÑĢÐµÑĤÐ½ÑĭÐ¹": 1259,
      "orm": 1260,
      "ÐµÐ½Ð¸Ñİ": 1261,
      "ĠÑĤÐ¾ÐºÐµÐ½Ð°": 1262,
      "ÐºÑĤ": 1263,
      "Ð°Ð½Ð¸Ðµ": 1264,
      "âĢ": 1265,
      "ĠâĢ": 1266,
      "Ð»Ñĥ": 1267,
      "ĠÐ¿ÑĢÐ¸Ð½ÑĨÐ¸": 1268,
      "ĠÐ²ÑĭÑĪÐµÐ»": 1269,
      "ĠÐŁÑĢ": 1270,
      "ĠÐ¿ÑĢÐ¸ÑĪÐµÐ»": 1271,
      "ĠâĢĶ": 1272,
      "ĠÐ¿ÑĢÐ¸Ð½ÑĨÐ¸Ð¿Ñĥ": 1273,
      "ÑīÐ¸Ðµ": 1274,
      "Ð¾ÑģÑĤÐ½Ð¾ÑģÑĤÑĮ": 1275,
      "ĠÑĨÐµÐ»Ð¾ÑģÑĤÐ½Ð¾ÑģÑĤÑĮ": 1276,
      "Ġattention": 1277,
      "ĠÐ¾ÑģÐ½Ð¾Ð²": 1278,
      "ĠÑģÑĤÑĢÐ¾Ð¸ÑĤ": 1279,
      "ĠÐ¾ÑģÐ½Ð¾Ð²Ðµ": 1280,
      "Ð¾Ð½Ð¾Ð¼ÐµÑĢ": 1281,
      "ĠÐ·Ð°ÐºÐ¾Ð½Ð¾Ð¼ÐµÑĢ": 1282,
      "Ð¼ÐµÑĤÑĢ": 1283,
      "Ð¸Ð¼Ð¼ÐµÑĤÑĢ": 1284,
      "Ð¸Ð¼Ð¼ÐµÑĤÑĢÐ¸Ñĩ": 1285,
      "ttention": 1286,
      "ĠÐ¿ÑĢÐ°Ð²": 1287,
      "ĠÐ¾Ð±ÑĥÑĩÐµÐ½Ð¸Ðµ": 1288,
      "Ð¸ÑĦÑĢÐ¾Ð²": 1289,
      "Ð½Ð¾ÑģÑĤÐµÐ¹": 1290,
      "ÑĤÐ²": 1291,
      "ĠÐ¿Ð¾Ð´ÑĤÐ²": 1292,
      "ÐµÑĢÐ¶Ð´Ð°ÐµÑĤ": 1293,
      "ĠÐ¿Ð¾Ð´ÑĤÐ²ÐµÑĢÐ¶Ð´Ð°ÐµÑĤ": 1294,
      "Ð¸Ð½Ð¸Ð¼": 1295,
      "ĠÐ¼Ð¸Ð½Ð¸Ð¼": 1296,
      "ĠÑįÐ½ÐµÑĢÐ³": 1297,
      "ÑĢÐ¸Ð¸": 1298,
      "ÑĭÐ»ÑĮ": 1299,
      "ĠÐ¿ÑĭÐ»ÑĮ": 1300,
      "Ð°Ð»Ð°ÐºÑĤ": 1301,
      "ĠÐ³Ð°Ð·": 1302,
      "ĠÐĵÐ°Ð»Ð°ÐºÑĤ": 1303,
      "ĠÑĤÐµÐ¼Ð½ÑĥÑİ": 1304,
      "ĠÐ¼Ð°ÑĤÐµÑĢÐ¸Ñİ": 1305,
      "ĠÐĵÐ°Ð»Ð°ÐºÑĤÐ¸ÐºÐ°": 1306,
      "ÐµÑĤÐ¸ÑĩÐµÑģÐº": 1307,
      "ÐµÑĤÐºÐ¸": 1308,
      "Ð¾Ð½Ð´": 1309,
      "Ð¸ÑĤÐ¾Ñħ": 1310,
      "ĠÐľÐ¸ÑĤÐ¾Ñħ": 1311,
      "ĠÐºÐ»ÐµÑĤÐºÐ¸": 1312,
      "ĠÑĥÑĩÐ°ÑģÑĤÐ²ÑĥÑİÑĤ": 1313,
      "ĠÐ¾Ð±Ð¼ÐµÐ½Ðµ": 1314,
      "ĠÑįÐ½ÐµÑĢÐ³ÐµÑĤÐ¸ÑĩÐµÑģÐº": 1315,
      "Ð¾Ð½Ð´ÑĢÐ¸Ð¸": 1316,
      "ĠÐľÐ¸ÑĤÐ¾ÑħÐ¾Ð½Ð´ÑĢÐ¸Ð¸": 1317,
      "ĠÑįÐ½ÐµÑĢÐ³ÐµÑĤÐ¸ÑĩÐµÑģÐºÐ¾Ð¼": 1318,
      "ĠÑģÐ¾Ð´": 1319,
      "ĠÑģÐ¾Ð´ÐµÑĢÐ¶": 1320,
      "Ð½ÑĤ": 1321,
      "Ð¾Ð¼Ñĭ": 1322,
      "ĠÐķ": 1323,
      "ĠÑģÐ¾Ð´ÐµÑĢÐ¶Ð¸ÑĤ": 1324,
      "Ð¼Ð¾Ð»Ð¾Ð³Ð¸Ñı": 1325,
      "ÑİÑĨÐ¸Ñİ": 1326,
      "ĠÑįÐ²Ð¾Ð»": 1327,
      "ĠÐļÐ¾Ñģ": 1328,
      "ĠÐĴÑģÐµÐ»ÐµÐ½Ð½Ð¾Ð¹": 1329,
      "ĠÑįÐ²Ð¾Ð»ÑİÑĨÐ¸Ñİ": 1330,
      "ĠÐļÐ¾ÑģÐ¼Ð¾Ð»Ð¾Ð³Ð¸Ñı": 1331,
      "ĠÐĹÐµÐ¼Ð»Ð¸": 1332,
      "Ð¸ÑĢÑĥÑİÑĤ": 1333,
      "ĠÑģÐ¸ÑģÑĤÐµÐ¼Ñĥ": 1334,
      "ĠÐŁÑĥÑĤ": 1335,
      "ĠÐľÐ»ÐµÑĩ": 1336,
      "ĠÐ¡Ð¾Ð»Ð½ÐµÑĩÐ½ÑĥÑİ": 1337,
      "ĠÐŁÑĥÑĤÑĮ": 1338,
      "ĠÐľÐ»ÐµÑĩÐ½ÑĭÐ¹": 1339,
      "ĠÐµÑģÑĤ": 1340,
      "ÑĥÐ½Ð°": 1341,
      "ĠÑģÐ¿": 1342,
      "ĠÑģÐ¸Ð½ÑĤ": 1343,
      "ĠÐ°Ð¼": 1344,
      "ĠÐ±ÐµÐ»ÐºÐ¸": 1345,
      "ÐµÐ·Ð¸ÑĢÑĥÑİÑĤ": 1346,
      "ĠÐłÐ¸Ð±": 1347,
      "ÑĥÑĤÐ½Ð¸Ðº": 1348,
      "Ð¾ÑģÐ¾Ð¼Ñĭ": 1349,
      "ÐµÑģÑĤÐ²ÐµÐ½Ð½ÑĭÐ¼": 1350,
      "ĠÐµÑģÑĤÐµÑģÑĤÐ²ÐµÐ½Ð½ÑĭÐ¼": 1351,
      "ĠÑģÐ¿ÑĥÑĤÐ½Ð¸Ðº": 1352,
      "ĠÑģÐ¸Ð½ÑĤÐµÐ·Ð¸ÑĢÑĥÑİÑĤ": 1353,
      "ĠÐłÐ¸Ð±Ð¾ÑģÐ¾Ð¼Ñĭ": 1354,
      "ĠÑģÐ¿ÑĥÑĤÐ½Ð¸ÐºÐ¾Ð¼": 1355,
      "ĠÐĽÑĥÐ½Ð°": 1356,
      "Ð½Ð°Ðº": 1357,
      "ÑĥÐµÐ¼": 1358,
      "ÑģÑĤÐµÑģÑĤÐ²ÐµÐ½": 1359,
      "ĠÐ¿ÑĢÐ¸Ð·": 1360,
      "Ð¾ÑĤÑĭ": 1361,
      "ĠÐ¾ÑĤÐ±Ð¾ÑĢ": 1362,
      "ĠÑĩÐ°ÑģÑĤÐ¾ÑĤÑĭ": 1363,
      "ĠÑģÐ¾ÑģÑĤÐ¾ÑıÑĤ": 1364,
      "ĠÐ½Ð°ÑģÐ»ÐµÐ´ÑĥÐµÐ¼": 1365,
      "ĠÐķÑģÑĤÐµÑģÑĤÐ²ÐµÐ½": 1366,
      "Ð½Ð°ÐºÐ¾Ð²": 1367,
      "ĠÐ¿ÑĢÐ¸Ð·Ð½Ð°ÐºÐ¾Ð²": 1368,
      "ĠÐ½Ð°ÑģÐ»ÐµÐ´ÑĥÐµÐ¼ÑĭÑħ": 1369,
      "ĠÐķÑģÑĤÐµÑģÑĤÐ²ÐµÐ½Ð½ÑĭÐ¹": 1370,
      "Ð½ÐµÐ¹": 1371,
      "Ð¸Ð½Ð¾Ðº": 1372,
      "Ð¸ÑģÐ»Ð¾ÑĤ": 1373,
      "ĠÐĳÐµÐ»ÐºÐ¸": 1374,
      "ĠÐ°Ð¼Ð¸Ð½Ð¾Ðº": 1375,
      "ĠÐ°Ð¼Ð¸Ð½Ð¾ÐºÐ¸ÑģÐ»Ð¾ÑĤ": 1376,
      "ĠÐ¾Ð±Ð»Ð°Ð´": 1377,
      "Ð¿Ð¸ÑģÐ¾Ðº": 1378,
      "ĠÑĤÐµÐ»Ð°": 1379,
      "ĠÐ¡Ð¿Ð¸ÑģÐ¾Ðº": 1380,
      "ĠÐ¸Ð·Ð¼ÐµÐ½ÑıÐµÐ¼Ð¾Ð¹": 1381,
      "ÑĭÑĢÐ°": 1382,
      "ÐºÐ·": 1383,
      "ÐµÐ»Ð°Ð¼Ð¸": 1384,
      "Ð¾ÑĢÐ¸Ð·": 1385,
      "ĠÐ´ÑĭÑĢÐ°": 1386,
      "Ð¾Ð½ÑĤÐ¾Ð¼": 1387,
      "ĠÐ¿ÑĢÐµÐ´ÐµÐ»Ð°Ð¼Ð¸": 1388,
      "Ð¾Ð¿Ð»Ð°Ð½ÐµÑĤ": 1389,
      "ĠÐ³Ð¾ÑĢÐ¸Ð·": 1390,
      "ĠÐŃÐºÐ·": 1391,
      "ĠÐ§ÐµÑĢÐ½Ð°Ñı": 1392,
      "ĠÐ¾Ð±Ð»Ð°Ð´Ð°ÐµÑĤ": 1393,
      "Ð¾Ð¿Ð»Ð°Ð½ÐµÑĤÐ°": 1394,
      "ĠÐ³Ð¾ÑĢÐ¸Ð·Ð¾Ð½ÑĤÐ¾Ð¼": 1395,
      "ĠÐŃÐºÐ·Ð¾Ð¿Ð»Ð°Ð½ÐµÑĤÐ°": 1396,
      "ĠÐºÑĢÑĥÐ¿Ð½ÐµÐ¹": 1397,
      "ĠÐºÑĢÑĥÐ¿Ð½ÐµÐ¹ÑĪ": 1398,
      "ĠÐ®": 1399,
      "ĠÐ¼Ð°ÑĢÑĪÑĢÑĥÑĤÐ¸Ð·": 1400,
      "ĠÐ»ÐµÐ½Ð¸Ð²": 1401,
      "ÐµÑĩÐ°ÐµÑĤ": 1402,
      "ĠÐĵÐµÐ½ÐµÑĢ": 1403,
      "ĠÐ·Ð½Ð°ÑĩÐµÐ½Ð¸Ð¹": 1404,
      "ĠIP": 1405,
      "ĠÐ¿Ð°ÐºÐµÑĤÐ¾Ð²": 1406,
      "ĠÐ°Ð´ÑĢÐµÑģÐ°ÑĨÐ¸Ñİ": 1407,
      "ĠÐ¾ÑĤÐ²ÐµÑĩÐ°ÐµÑĤ": 1408,
      "ĠÐ¼Ð°ÑĢÑĪÑĢÑĥÑĤÐ¸Ð·Ð°ÑĨÐ¸Ñİ": 1409,
      "ĠÐ»ÐµÐ½Ð¸Ð²Ð¾": 1410,
      "ĠÐĵÐµÐ½ÐµÑĢÐ°ÑĤÐ¾ÑĢ": 1411,
      "ÐµÐ´Ð¶": 1412,
      "ÐµÐ½ÐµÐ´Ð¶": 1413,
      "ĠÐ¼ÐµÐ½ÐµÐ´Ð¶": 1414,
      "ÑħÐ¾Ð´Ð¾Ð¼": 1415,
      "ĠÐ²ÑĭÑħÐ¾Ð´Ð¾Ð¼": 1416,
      "ĠÐ²ÑħÐ¾Ð´Ð¾Ð¼": 1417,
      "ÑĤÐµÐºÑģÑĤÐ½ÑĭÐ¹": 1418,
      "ĠÐļÐ¾Ð½ÑĤÐµÐºÑģÑĤÐ½ÑĭÐ¹": 1419,
      "ĠÐºÑĢÑĥÐ¿Ð½ÐµÐ¹ÑĪÐµÐ¹": 1420,
      "ĠÐ¼ÐµÐ½ÐµÐ´Ð¶ÐµÑĢ": 1421,
      "Ð¸Ñħ": 1422,
      "ÐµÑģ": 1423,
      "ĠÐ¿Ð»Ð°Ð½ÐµÑĤ": 1424,
      "Ð¿Ð¸ÑĤ": 1425,
      "ĠÐĲÑģÑĤÑĢ": 1426,
      "Ð¾Ð½Ð¾Ð¼Ð¸Ñı": 1427,
      "ĠÐĴÑģÐµÐ»ÐµÐ½Ð½ÑĥÑİ": 1428,
      "ĠÐ½ÐµÐ±ÐµÑģ": 1429,
      "ĠÐ¿Ð»Ð°Ð½ÐµÑĤÐ¾Ð¹": 1430,
      "ĠÐĲÑģÑĤÑĢÐ¾Ð½Ð¾Ð¼Ð¸Ñı": 1431,
      "ĠÐ½ÐµÐ±ÐµÑģÐ½ÑĭÐµ": 1432,
      "ĠÐ®Ð¿Ð¸ÑĤ": 1433,
      "ĠÐ®Ð¿Ð¸ÑĤÐµÑĢ": 1434,
      "ÑĭÐ»": 1435,
      "ÐµÑĤÐ¸ÑĩÐµÑģÐºÐ¾Ð¹": 1436,
      "Ð¾ÑĢÑĤ": 1437,
      "ĠÐ½Ðµ": 1438,
      "ĠÐ½Ð¸Ñħ": 1439,
      "ĠÐłÐĿÐļ": 1440,
      "ĠÐ¿ÐµÑĢÐµÑģ": 1441,
      "ĠÑĢÐµÐ°Ð»Ð¸Ð·Ð°ÑĨÐ¸Ð¸": 1442,
      "ĠÐ¿ÑĢÐ¾ÑĨÐµÑģÑģÑĭ": 1443,
      "ĠÐĳÐ¸Ð¾Ð»Ð¾Ð³Ð¸Ñı": 1444,
      "ĠÐ¸Ð½ÑĦÐ¾ÑĢÐ¼Ð°ÑĨÐ¸Ð¸": 1445,
      "ĠÐ³ÐµÐ½ÐµÑĤÐ¸ÑĩÐµÑģÐºÐ¾Ð¹": 1446,
      "ĠÑĥÑĩÐ°ÑģÑĤÐ²ÑĥÐµÑĤ": 1447,
      "ĠÐ¶Ð¸Ð²ÑĭÐµ": 1448,
      "ĠÐ¡Ð¾Ð»Ð½ÑĨÐ°": 1449,
      "ĠÐĹÐµÐ¼Ð»Ñı": 1450,
      "Ð¸Ð·Ð¼ÐµÐ½": 1451,
      "ĠÐļÐ¾ÑĢÑĤ": 1452,
      "ĠÐ½ÐµÐ¸Ð·Ð¼ÐµÐ½": 1453,
      "ĠÐļÐ¾ÑĢÑĤÐµÐ¶": 1454,
      "ĠÐ½ÐµÐ¸Ð·Ð¼ÐµÐ½ÑıÐµÐ¼Ð¾Ð¹": 1455,
      "ĠJ": 1456,
      "Ð»ÐµÑĤÐºÐ°": 1457,
      "ĠÐļÐ»ÐµÑĤÐºÐ°": 1458,
      "ĠÐ±Ð°Ð·Ð¾Ð²Ð¾Ð¹": 1459,
      "ĠÐ¾ÑĢÐ³Ð°Ð½Ð¸Ð·Ð¼Ð°": 1460,
      "ĠÐ¶Ð¸Ð²Ð¾Ð³Ð¾": 1461,
      "ĠÑģÑĤÑĢÑĥÐºÑĤÑĥÑĢÐ½Ð¾Ð¹": 1462,
      "IN": 1463,
      "OIN": 1464,
      "ÑĢÐ¾ÐºÐ¸": 1465,
      "ĠÑģÑĤÑĢÐ¾ÐºÐ¸": 1466,
      "ĠÐľÐ°ÑĢÑĪÑĢÑĥÑĤÐ¸Ð·": 1467,
      "ĠÑģÐµÑĤÑıÐ¼Ð¸": 1468,
      "ĠÐ¿Ð°ÐºÐµÑĤÑĭ": 1469,
      "ÑĭÐ»Ð°ÐµÑĤ": 1470,
      "ĠÐ¿ÐµÑĢÐµÑģÑĭÐ»Ð°ÐµÑĤ": 1471,
      "ĠJOIN": 1472,
      "ĠÐľÐ°ÑĢÑĪÑĢÑĥÑĤÐ¸Ð·Ð°ÑĤÐ¾ÑĢ": 1473,
      "Ð¾Ð¸Ð½": 1474,
      "Ð°ÑĤÐ¸ÐºÐ°": 1475,
      "ĠÐ¼ÐµÑĤÐ¾Ð´Ñĭ": 1476,
      "ĠÐ²ÑĭÑĩÐ¸ÑģÐ»Ð¸ÑĤÐµÐ»ÑĮÐ½ÑĭÐµ": 1477,
      "ÑĦÐ¾ÑĢÐ¼Ð°ÑĤÐ¸ÐºÐ°": 1478,
      "Ð¾Ð»Ð¾Ð³Ð¸ÑĩÐµÑģÐºÐ¸Ñħ": 1479,
      "ĠÐĳÐ¸Ð¾Ð¸Ð½": 1480,
      "ĠÐ±Ð¸Ð¾Ð»Ð¾Ð³Ð¸ÑĩÐµÑģÐºÐ¸Ñħ": 1481,
      "ĠÐĳÐ¸Ð¾Ð¸Ð½ÑĦÐ¾ÑĢÐ¼Ð°ÑĤÐ¸ÐºÐ°": 1482,
      "ĠÐĶÐĿÐļ": 1483,
      "ÑģÑĤÐ²ÐµÐ½Ð½ÑĥÑİ": 1484,
      "ĠÐ½Ð°ÑģÐ»ÐµÐ´ÑģÑĤÐ²ÐµÐ½Ð½ÑĥÑİ": 1485,
      "API": 1486,
      "QL": 1487,
      "ast": 1488,
      "ĠÑĢÐµÐ»ÑıÑĨÐ¸": 1489,
      "astAPI": 1490,
      "Ð¾Ð½Ð½ÑĭÐ¼Ð¸": 1491,
      "Ð´Ð°Ð½Ð¸Ñı": 1492,
      "ĠSQL": 1493,
      "ĠÑĢÐ°Ð±Ð¾ÑĤÑĭ": 1494,
      "ĠÑģÐ¾Ð·Ð´Ð°Ð½Ð¸Ñı": 1495,
      "ĠFastAPI": 1496,
      "ĠÑĢÐµÐ»ÑıÑĨÐ¸Ð¾Ð½Ð½ÑĭÐ¼Ð¸": 1497,
      "ĠÐºÐ¾Ð»": 1498,
      "Ð¾ÐºÐ¾": 1499,
      "Ð»Ð¾Ð²Ð°ÑĢÑĮ": 1500,
      "ĠÑıÐ·ÑĭÐºÐ¾Ð¼": 1501,
      "ĠÐ¿ÑĢÐ¾Ð³ÑĢÐ°Ð¼Ð¼Ð¸ÑĢÐ¾Ð²Ð°Ð½Ð¸Ñı": 1502,
      "Ð½ÐµÐ²": 1503,
      "ÑģÐ¾ÐºÐ¾": 1504,
      "ÑĥÑĢÐ¾Ð²": 1505,
      "Ð¾ÑĢÐ°ÑĤÐ¾ÑĢ": 1506,
      "ĠÐ½Ð°Ð·": 1507,
      "ĠÐ²ÑĭÑģÐ¾ÐºÐ¾": 1508,
      "ÐµÐºÐ¾ÑĢÐ°ÑĤÐ¾ÑĢ": 1509,
      "Ð½Ð°ÑĩÐµÐ½Ð¸Ñı": 1510,
      "ĠÐ¸Ð·Ð¼ÐµÐ½ÑıÑĤÑĮ": 1511,
      "ĠÐĶÐµÐºÐ¾ÑĢÐ°ÑĤÐ¾ÑĢ": 1512,
      "ĠÐ¾Ð±ÑīÐµÐ³Ð¾": 1513,
      "ĠÐºÐ»Ð°ÑģÑģÐ°": 1514,
      "Ð½ÐµÐ²ÑĭÐ¼": 1515,
      "ÑĥÑĢÐ¾Ð²Ð½ÐµÐ²ÑĭÐ¼": 1516,
      "ĠÐ½Ð°Ð·Ð½Ð°ÑĩÐµÐ½Ð¸Ñı": 1517,
      "ĠÐ²ÑĭÑģÐ¾ÐºÐ¾ÑĥÑĢÐ¾Ð²Ð½ÐµÐ²ÑĭÐ¼": 1518,
      "ĠÐ¿Ð°ÑĢ": 1519,
      "ĠÐ¡Ð»Ð¾Ð²Ð°ÑĢÑĮ": 1520,
      "ĠÐĴÐµÐºÑĤÐ¾ÑĢ": 1521,
      "Ð·Ð½Ð°ÑĩÐµÐ½Ð¸Ðµ": 1522,
      "ĠÐ±Ð»Ð¸Ð·ÐºÐ¸Ñħ": 1523,
      "ĠÐ¿Ð°ÑĢÑĭ": 1524,
      "ĠÐĴÐµÐºÑĤÐ¾ÑĢÐ½Ð°Ñı": 1525,
      "Ð°ÑĤÐ¾Ð¼": 1526,
      "ĠÐ´Ð¾Ð¼": 1527,
      "Ð¾Ð½Ð¾Ñĩ": 1528,
      "ĠÑĦÐ¾ÑĢÐ¼": 1529,
      "ĠPar": 1530,
      "quet": 1531,
      "ĠÐºÐ¾Ð»Ð¾Ð½Ð¾Ñĩ": 1532,
      "ĠÑĦÐ¾ÑĢÐ¼Ð°ÑĤÐ¾Ð¼": 1533,
      "ĠParquet": 1534,
      "ĠÐºÐ¾Ð»Ð¾Ð½Ð¾ÑĩÐ½ÑĭÐ¼": 1535,
      "NS": 1536,
      "Ð¸ÑĨÐ¸": 1537,
      "Ð½Ð¾Ð·Ð½Ð°Ñĩ": 1538,
      "ÑĢÑĥÐµÑĤ": 1539,
      "ÑĭÐ¼Ð¸": 1540,
      "ÑĮÑİ": 1541,
      "ĠÐ¸Ð¼ÐµÐ½": 1542,
      "Ð¸ÑĩÐ½ÑĭÐ¹": 1543,
      "ĠÐŁÐµÑĢÐ²": 1544,
      "ĠÐ¾Ð´Ð½Ð¾Ð·Ð½Ð°Ñĩ": 1545,
      "ĠDNS": 1546,
      "ĠÐ·Ð°Ð¿Ð¸ÑģÑĮ": 1547,
      "ĠÐ·Ð°Ð¿Ð¸ÑģÑıÐ¼Ð¸": 1548,
      "ĠÐ¸Ð´ÐµÐ½ÑĤÐ¸ÑĦÐ¸ÑĨÐ¸": 1549,
      "ĠÑģÐ¾Ð·Ð´Ð°ÐµÑĤ": 1550,
      "ĠÑģÐµÑĤÐµÐ²ÑĭÐ¼Ð¸": 1551,
      "ĠÐ´Ð¾Ð¼ÐµÐ½Ð½ÑĭÐµ": 1552,
      "ĠÐ¸Ð¼ÐµÐ½Ð°": 1553,
      "ĠÐŁÐµÑĢÐ²Ð¸ÑĩÐ½ÑĭÐ¹": 1554,
      "ĠÐ¾Ð´Ð½Ð¾Ð·Ð½Ð°ÑĩÐ½Ð¾": 1555,
      "ĠÐ¸Ð´ÐµÐ½ÑĤÐ¸ÑĦÐ¸ÑĨÐ¸ÑĢÑĥÐµÑĤ": 1556,
      "Ð¸Ð´Ð°": 1557,
      "ÐºÐ°ÑĨÐ¸Ñı": 1558,
      "ĠÐºÐ¾Ð¿": 1559,
      "Ð»Ð¸ÐºÐ°ÑĨÐ¸Ñı": 1560,
      "ĠÐłÐµÐ¿": 1561,
      "ĠÐ´Ð¾Ð¿Ð¾Ð»Ð½Ð¸ÑĤÐµÐ»ÑĮÐ½ÑĭÐµ": 1562,
      "ĠÑģÐµÑĢÐ²Ð¸ÑģÐ¾Ð²": 1563,
      "ĠÐºÐ¾Ð¿Ð¸Ð¸": 1564,
      "ĠÐłÐµÐ¿Ð»Ð¸ÐºÐ°ÑĨÐ¸Ñı": 1565,
      "CI": 1566,
      "ÐµÐ»ÑıÐµÑĤ": 1567,
      "ĠÑĥÐ¿": 1568,
      "ĠÐ½Ð°Ð´ÐµÐ¶Ð½ÑĭÑħ": 1569,
      "ĠACI": 1570,
      "ĠÐ·Ð°Ð¿Ð¸ÑģÐ¸": 1571,
      "ĠACID": 1572,
      "Ð½Ñı": 1573,
      "Ð»Ð°Ð´": 1574,
      "Ð¼ÐµÐ½ÑĤ": 1575,
      "ĠÐ¿ÑĢÐ¸Ðº": 1576,
      "ĠÐ³Ð»": 1577,
      "ÑīÐ¸Ñħ": 1578,
      "ĠÑĥÑĢÐ¾Ð²Ð½Ñı": 1579,
      "ĠÐ·Ð²ÐµÐ·Ð´Ð¾Ð¹": 1580,
      "ĠÐ¾Ð¶Ð¸Ð´Ð°": 1581,
      "Ð»Ð°Ð´Ð½Ð¾Ð³Ð¾": 1582,
      "ĠÐ¿ÑĢÐ¸ÐºÐ»Ð°Ð´Ð½Ð¾Ð³Ð¾": 1583,
      "Ð½ÐµÑĪ": 1584,
      "Ð½Ð¸Ð¹": 1585,
      "Ð°Ð²Ð½Ð¾Ð¹": 1586,
      "ĠÐĴÐ½ÐµÑĪ": 1587,
      "ĠÐ¡Ð¾Ð»Ð½ÑĨÐµ": 1588,
      "ĠÑĤÐ°Ð±Ð»Ð¸ÑĨÐ°Ð¼Ð¸": 1589,
      "ĠÐ³Ð»Ð°Ð²Ð½Ð¾Ð¹": 1590,
      "ĠÐĴÐ½ÐµÑĪÐ½Ð¸Ð¹": 1591,
      "CP": 1592,
      "Ġque": 1593,
      "Ð¾Ñī": 1594,
      "Ð°ÑģÐ¿ÑĢÐµÐ´ÐµÐ»": 1595,
      "Ð²Ð°ÐµÑĤ": 1596,
      "ÐµÑĢÑĪÐµÐ½Ð¸Ñı": 1597,
      "ÐµÐ½Ð½ÑĭÐ¹": 1598,
      "Ð¾ÑģÑĤÐ°Ð½": 1599,
      "ĠÐ´Ð¾ÑģÑĤÐ°Ð²": 1600,
      "ĠÐ±Ð°Ð¹": 1601,
      "ÑĥÑİÑīÐ¸Ñħ": 1602,
      "Ð°Ð²Ð»Ð¸": 1603,
      "ĠÐłÐ°ÑģÐ¿ÑĢÐµÐ´ÐµÐ»": 1604,
      "ĠÐ¿ÑĢÐ¸Ð¾ÑģÑĤÐ°Ð½": 1605,
      "ĠÐ½Ð°Ð´ÐµÐ¶Ð½ÑĭÐ¹": 1606,
      "ĠÐ·Ð°Ð²ÐµÑĢÑĪÐµÐ½Ð¸Ñı": 1607,
      "ĠTCP": 1608,
      "ĠÐ²Ð·Ð°Ð¸Ð¼Ð¾Ð´ÐµÐ¹ÑģÑĤÐ²ÑĥÑİÑīÐ¸Ñħ": 1609,
      "Ð¾ÑĩÐµÐ½Ð½ÑĭÐ¹": 1610,
      "ĠÑĢÐ°Ð·Ð´ÐµÐ»ÑıÐµÑĤ": 1611,
      "ĠÐ¿ÑĢÐ¾Ð¸Ð·Ð²Ð¾Ð´Ð¸ÑĤÐµÐ»ÐµÐ¹": 1612,
      "ĠÐ¿Ð¾ÑĤÑĢÐµÐ±Ð¸ÑĤÐµÐ»ÐµÐ¹": 1613,
      "essag": 1614,
      "ĠMessag": 1615,
      "Ġawa": 1616,
      "ĠÑĥÐ·Ð»Ð¾Ð²": 1617,
      "Ð¾ÑĢÑıÐ´Ð¾ÑĩÐµÐ½Ð½ÑĭÐ¹": 1618,
      "ĠÑĥÐ¿Ð¾ÑĢÑıÐ´Ð¾ÑĩÐµÐ½Ð½ÑĭÐ¹": 1619,
      "Ð¼ÐµÐ½ÑĤÑĭ": 1620,
      "ĠÐ¾Ð¶Ð¸Ð´Ð°ÐµÐ¼Ð¾Ð¹": 1621,
      "Ġqueue": 1622,
      "ĠÐ±Ð°Ð¹ÑĤÐ¾Ð²": 1623,
      "Ð°Ð²Ð»Ð¸Ð²Ð°ÐµÑĤ": 1624,
      "ĠÐłÐ°ÑģÐ¿ÑĢÐµÐ´ÐµÐ»ÐµÐ½Ð½Ð°Ñı": 1625,
      "ĠÐ¿ÑĢÐ¸Ð¾ÑģÑĤÐ°Ð½Ð°Ð²Ð»Ð¸Ð²Ð°ÐµÑĤ": 1626,
      "ĠMessage": 1627,
      "Ġawait": 1628,
      "qu": 1629,
      "Ġqu": 1630,
      "ÑıÑİÑĤ": 1631,
      "ÐºÐ»ÑİÑĩ": 1632,
      "ĠÐ²ÐºÐ»ÑİÑĩ": 1633,
      "Ð¾Ð²Ð°Ð½": 1634,
      "ĠÐºÐ¾ÑĢÑĢÐµÐºÑĤÐ½Ð¾ÑģÑĤÑĮ": 1635,
      "ality": 1636,
      "ĠÑģÐ¾Ð³Ð»Ð°ÑģÐ¾Ð²Ð°Ð½": 1637,
      "Ġquality": 1638,
      "ĠÐ²ÐºÐ»ÑİÑĩÐ°ÐµÑĤ": 1639,
      "ĠÑģÐ¾Ð³Ð»Ð°ÑģÐ¾Ð²Ð°Ð½Ð½Ð¾ÑģÑĤÑĮ": 1640,
      "Ð¸Ð¼ÑĭÐµ": 1641,
      "AG": 1642,
      "DP": 1643,
      "Ġde": 1644,
      "ÑĤÐ¸Ð¸": 1645,
      "Ð½ÐµÐ³Ð¾": 1646,
      "Ð°ÑĤÐ°Ð³": 1647,
      "ĠÐ´Ð°ÑĤÐ°Ð³": 1648,
      "Ð°Ð½ÑĤÐ¸Ð¸": 1649,
      "ĠÐ½ÐµÐ·": 1650,
      "Ð¸ÑģÐ¸Ð¼ÑĭÐµ": 1651,
      "Ð°Ð²Ð¸ÑģÐ¸Ð¼ÑĭÐµ": 1652,
      "ÑĢÐ°Ð¼Ð¼Ñĭ": 1653,
      "ĠÐ³Ð°ÑĢ": 1654,
      "ĠÐ¿Ð¾Ð¼Ð¾Ñī": 1655,
      "ĠRAG": 1656,
      "ĠÐ¿ÐµÑĢÐµÐ´Ð°ÐµÑĤ": 1657,
      "ÐµÑĪÐ½ÐµÐ³Ð¾": 1658,
      "ĠÐ²Ð½ÐµÑĪÐ½ÐµÐ³Ð¾": 1659,
      "ĠÑıÐ·ÑĭÐºÐ¾Ð²Ð¾Ð¹": 1660,
      "ĠUDP": 1661,
      "ĠÐ³ÐµÐ½ÐµÑĢÐ°ÑĨÐ¸Ñİ": 1662,
      "ĠÐ´Ð¾ÑģÑĤÐ°Ð²ÐºÐ¸": 1663,
      "Ġdef": 1664,
      "ĠÐ´Ð°ÑĤÐ°Ð³ÑĢÐ°Ð¼Ð¼Ñĭ": 1665,
      "ĠÐ½ÐµÐ·Ð°Ð²Ð¸ÑģÐ¸Ð¼ÑĭÐµ": 1666,
      "ĠÐ³Ð°ÑĢÐ°Ð½ÑĤÐ¸Ð¸": 1667,
      "ĠÐ¿Ð¾Ð¼Ð¾ÑīÑĮÑİ": 1668,
      "sy": 1669,
      "Ð¾ÐµÐ´Ð¸Ð½": 1670,
      "ÑģÐ¾ÐµÐ´Ð¸Ð½": 1671,
      "Ð°ÑĤÐ°Ð»": 1672,
      "ĠÐºÐ°ÑĤÐ°Ð»": 1673,
      "Ð¾Ð³Ð¾Ð²": 1674,
      "ĠÑĦÐ°Ð¹Ð»Ð¾Ð²": 1675,
      "ĠÑģÐ¾ÑģÑĤÐ°Ð²": 1676,
      "ĠÐ¤Ð°Ð¹Ð»Ð¾Ð²": 1677,
      "ĠHTTPS": 1678,
      "ĠÐ¾ÑĢÐ³Ð°Ð½Ð¸Ð·ÑĥÐµÑĤ": 1679,
      "ĠÑħÑĢÐ°Ð½ÐµÐ½Ð¸Ðµ": 1680,
      "Ġasy": 1681,
      "ÑģÐ¾ÐµÐ´Ð¸Ð½ÐµÐ½Ð¸Ðµ": 1682,
      "ĠÐºÐ°ÑĤÐ°Ð»Ð¾Ð³Ð¾Ð²": 1683,
      "ĠÐ¤Ð°Ð¹Ð»Ð¾Ð²Ð°Ñı": 1684,
      "Ġasync": 1685,
      "ÐµÑĢÐ¼ÐµÐ½ÑĤÑĭ": 1686,
      "ĠÐ¿ÑĢÐµÐ²": 1687,
      "Ð¸Ð¼Ð¸ÑĩÐµÑģÐºÐ¸Ðµ": 1688,
      "ĠÐ¿ÑĢÐ¾Ð³ÑĢÐ°Ð¼Ð¼Ð½Ð¾Ð¹": 1689,
      "ĠÐ¤ÐµÑĢÐ¼ÐµÐ½ÑĤÑĭ": 1690,
      "ĠÑģÑĤÑĢÐ¾ÐµÐ½Ð¸Ðµ": 1691,
      "Ð¾ÑħÐ¸Ð¼Ð¸ÑĩÐµÑģÐºÐ¸Ðµ": 1692,
      "ĠÐ±Ð¸Ð¾ÑħÐ¸Ð¼Ð¸ÑĩÐµÑģÐºÐ¸Ðµ": 1693,
      "ĠÑĥÑģÐºÐ¾ÑĢÑıÑİÑĤ": 1694,
      "ĠÐ²ÐµÑīÐµÑģÑĤÐ²": 1695,
      "ĠÐ¥Ð¸Ð¼Ð¸Ñı": 1696,
      "ĠÐ¿ÑĢÐµÐ²ÑĢÐ°ÑīÐµÐ½Ð¸Ñı": 1697,
      "ÑĢÐ½ÑĭÐ¹": 1698,
      "Ð²Ð¾Ðµ": 1699,
      "ĠÑģÐ¾Ðº": 1700,
      "ĠÐ²Ð´": 1701,
      "ĠÐ²Ð¸Ð´": 1702,
      "ÐµÑĢÐ½Ð¾": 1703,
      "Ð½Ð°ÑĢÐ½ÑĭÐ¹": 1704,
      "ÑĪÐµÐ½Ð¸Ð¹": 1705,
      "ĠÐ¿Ð¾Ð¸ÑģÐºÐ°": 1706,
      "ĠÐ¾Ð±Ð»Ð°ÑģÑĤÑĮ": 1707,
      "ĠÐĳÐ¸Ð½Ð°ÑĢÐ½ÑĭÐ¹": 1708,
      "ĠÐ¿ÑĢÐ¸Ð¼ÐµÑĢÐ½Ð¾": 1709,
      "ĠÑģÐ¾ÐºÑĢÐ°ÑīÐ°ÐµÑĤ": 1710,
      "ĠÐ²Ð´Ð²Ð¾Ðµ": 1711,
      "ĠÐ²Ð¸Ð´Ðµ": 1712,
      "Lat": 1713,
      "ency": 1714,
      "ºÑĨÐ¸": 1715,
      "ĠLat": 1716,
      "ÑĢÑģ": 1717,
      "ÑĢÐ°ÐºÑĨÐ¸": 1718,
      "ĠÐ¾Ð±Ð¾Ð·Ð½Ð°Ñĩ": 1719,
      "Ð¾ÐºÐµÑĤ": 1720,
      "ĠÐ¡Ð¾ÐºÐµÑĤ": 1721,
      "ĠÑĢÐµÑģÑĥ": 1722,
      "ĠÐ·Ð°Ð´ÐµÑĢÐ¶": 1723,
      "ĠÑģÐµÑĤÐµÐ²Ð¾Ð³Ð¾": 1724,
      "ĠÐ°Ð±ÑģÑĤÑĢÐ°ÐºÑĨÐ¸": 1725,
      "ĠLatency": 1726,
      "ĠÐ¾Ð±Ð¾Ð·Ð½Ð°ÑĩÐ°ÐµÑĤ": 1727,
      "ĠÑĢÐµÑģÑĥÑĢÑģ": 1728,
      "ĠÐ·Ð°Ð´ÐµÑĢÐ¶ÐºÑĥ": 1729,
      "ĠÐ°Ð±ÑģÑĤÑĢÐ°ÐºÑĨÐ¸ÐµÐ¹": 1730,
      "eou": 1731,
      "im": 1732,
      "Ð¸ÑĨ": 1733,
      "ÐµÐ½Ð½Ð¾Ð³Ð¾": 1734,
      "Ð´Ð°Ð»": 1735,
      "ĠÑĥÐ´Ð°Ð»": 1736,
      "ĠÐłÐµÐ»ÑıÑĨÐ¸": 1737,
      "ĠTim": 1738,
      "Ð¸Ð´Ð°Ð½Ð¸Ñı": 1739,
      "ĠÐ¾Ð¶Ð¸Ð´Ð°Ð½Ð¸Ñı": 1740,
      "ĠÐ¾ÑĤÐ½Ð¾ÑĪÐµÐ½Ð¸Ð¹": 1741,
      "ĠÐ²ÑĭÐ·Ð¾Ð²Ð°": 1742,
      "ĠÑĪÐ¸ÑĢ": 1743,
      "eout": 1744,
      "ĠÑĥÐ´Ð°Ð»ÐµÐ½Ð½Ð¾Ð³Ð¾": 1745,
      "ĠÐłÐµÐ»ÑıÑĨÐ¸Ð¾Ð½Ð½Ð°Ñı": 1746,
      "ĠTimeout": 1747,
      "Ð¾Ð¸ÑģÐº": 1748,
      "Ð½Ð¾Ð¼": 1749,
      "ĠÐ¾ÑĩÐµÑĢÐµÐ´ÑĮ": 1750,
      "ĠÐŁÐ¾Ð¸ÑģÐº": 1751,
      "ÐµÑĢÐ°ÑĨÐ¸Ð¾Ð½Ð½Ð°Ñı": 1752,
      "ĠÐ²ÑĭÑĩÐ¸ÑģÐ»Ð¸ÑĤÐµÐ»ÑĮÐ½ÑĭÐ¼Ð¸": 1753,
      "ĠÐŀÐ¿ÐµÑĢÐ°ÑĨÐ¸Ð¾Ð½Ð½Ð°Ñı": 1754,
      "ĠÑĢÐµÑģÑĥÑĢÑģÐ°Ð¼Ð¸": 1755,
      "ĠÑĪÐ¸ÑĢÐ¸Ð½Ñĥ": 1756,
      "Ð¸ÑĩÐµÑģÐºÑĥÑİ": 1757,
      "ÑĢÐ°Ð½Ð·Ð°ÐºÑĨÐ¸Ñı": 1758,
      "ĠÐ»Ð¾Ð³Ð¸ÑĩÐµÑģÐºÑĥÑİ": 1759,
      "ĠÐ¢ÑĢÐ°Ð½Ð·Ð°ÐºÑĨÐ¸Ñı": 1760,
      "ÑĤÐ°ÑĨÐ¸Ñİ": 1761,
      "ÑıÐ½Ð¸": 1762,
      "ÑİÑī": 1763,
      "ĠÐ¾Ð±ÑĥÑĩÐ°": 1764,
      "ĠÐ²ÑĭÐ±Ð¾ÑĢ": 1765,
      "ĠÑĩÑĢÐµÐ·": 1766,
      "ÐµÐ¾Ð±ÑĥÑĩÐµÐ½Ð¸Ðµ": 1767,
      "Ð°Ð¿ÑĤÐ°ÑĨÐ¸Ñİ": 1768,
      "ĠÐ°Ð´Ð°Ð¿ÑĤÐ°ÑĨÐ¸Ñİ": 1769,
      "Ð¼ÐµÑĢÐ½ÑĥÑİ": 1770,
      "ĠÐŁÐµÑĢÐµÐ¾Ð±ÑĥÑĩÐµÐ½Ð¸Ðµ": 1771,
      "ÑİÑīÐµÐ¹": 1772,
      "ĠÐ¾Ð±ÑĥÑĩÐ°ÑİÑīÐµÐ¹": 1773,
      "ĠÐ²ÑĭÐ±Ð¾ÑĢÐºÐµ": 1774,
      "ĠÑĩÑĢÐµÐ·Ð¼ÐµÑĢÐ½ÑĥÑİ": 1775,
      "TL": 1776,
      "hou": 1777,
      "³ÑĢÑĥ": 1778,
      "Ġwa": 1779,
      "Ð²Ð»ÐµÑĩ": 1780,
      "Ð·ÐºÑĥ": 1781,
      "ÐµÐ½Ð¾Ð¹": 1782,
      "ÑĢÐ°Ð»": 1783,
      "Ð¸ÑĤÐ¸ÑĩÐµÑģÐºÐ¸Ñħ": 1784,
      "ĠÐ¸Ð·Ð²Ð»ÐµÑĩ": 1785,
      "ĠÐ·Ð°Ð³ÑĢÑĥ": 1786,
      "Ð°Ð»Ð¸ÑĤÐ¸ÑĩÐµÑģÐºÐ¸Ñħ": 1787,
      "rehou": 1788,
      "ĠÐ°Ð½Ð°Ð»Ð¸ÑĤÐ¸ÑĩÐµÑģÐºÐ¸Ñħ": 1789,
      "ĠÑĨÐµÐ½Ð¾Ð¹": 1790,
      "ĠÐ´Ð¾Ð¿Ð¾Ð»Ð½Ð¸ÑĤÐµÐ»ÑĮÐ½Ð¾Ð¹": 1791,
      "ĠÐĺÐ½Ð´ÐµÐºÑģ": 1792,
      "ĠÐ¾Ð¿ÑĤÐ¸Ð¼Ð¸Ð·Ð¸ÑĢÐ¾Ð²Ð°Ð½": 1793,
      "ĠETL": 1794,
      "ĠÑĥÑģÐºÐ¾ÑĢÑıÐµÑĤ": 1795,
      "ĠÐ·Ð°Ð¿ÑĢÐ¾ÑģÑĭ": 1796,
      "ĠÐ·Ð°Ð¿ÑĢÐ¾ÑģÐ¾Ð²": 1797,
      "Ġwarehou": 1798,
      "ĠÐ¸Ð·Ð²Ð»ÐµÑĩÐµÐ½Ð¸Ðµ": 1799,
      "ĠÐ·Ð°Ð³ÑĢÑĥÐ·ÐºÑĥ": 1800,
      "Ġwarehouse": 1801,
      "af": 1802,
      "ka": 1803,
      "ĠÐ¿Ð¾ÑĤÐ¾ÐºÐ¾Ð²Ð¾Ð¹": 1804,
      "ĠKaf": 1805,
      "ĠKafka": 1806,
      "ant": 1807,
      "ic": 1808,
      "mant": 1809,
      "Ġse": 1810,
      "ĠÐĴÑĢÐµÐ¼": 1811,
      "ĠÐ²ÑħÐ¾Ð´Ð°": 1812,
      "ĠÐ¾Ð¿ÐµÑĢÐ°ÑĨÐ¸Ð¹": 1813,
      "ĠÑģÐ¾ÑģÑĤÐ¾ÑıÐ½Ð¸": 1814,
      "arch": 1815,
      "ĠÑĩÐ¸ÑģÐ»Ð°": 1816,
      "ĠÐ±Ð»Ð¸Ð·Ð¾ÑģÑĤÑĮ": 1817,
      "ĠSemant": 1818,
      "ĠÑĢÐ°Ð·Ð¼ÐµÑĢÐ¾Ð¼": 1819,
      "Ġsearch": 1820,
      "ĠÐĴÑĢÐµÐ¼ÐµÐ½Ð½Ð°Ñı": 1821,
      "ĠSemantic": 1822,
      "ĠÐ¿Ð¾ÑĢ": 1823,
      "Ð¾Ð¿ÑĢÐ¾Ð²": 1824,
      "ĠÐºÐ¾Ð½ÑĤ": 1825,
      "atch": 1826,
      "ÑĨÐ¸ÑıÐ¼Ð¸": 1827,
      "ĠÐ¿Ð¾Ð»Ð¾Ð¶ÐµÐ½Ð¸Ñı": 1828,
      "ĠBatch": 1829,
      "ĠÐºÑĢÑĥÐ¿Ð½ÑĭÐ¼Ð¸": 1830,
      "ĠÐ¿Ð¾ÑĢÑĨÐ¸ÑıÐ¼Ð¸": 1831,
      "nit": 1832,
      "Ð¾ÑĢÐ¸Ð½": 1833,
      "ĠÐ´Ð°Ð½Ð½ÑĭÐ¼": 1834,
      "ĠÑħÑįÑĪ": 1835,
      "ÑĤÐ°Ð±Ð»Ð¸ÑĨ": 1836,
      "Ð¾Ð»ÑĮÑĪÑĥÑİ": 1837,
      "ĠÐ¾ÑĢÐ³Ð°Ð½Ð¸Ð·Ð°ÑĨÐ¸Ð¸": 1838,
      "ĠÐ½ÐµÐ±Ð¾Ð»ÑĮÑĪÑĥÑİ": 1839,
      "ĠÐ´Ð¾ÑģÑĤÑĥÐ¿Ð°": 1840,
      "ÑĦÑĥÐ½ÐºÑĨÐ¸Ñİ": 1841,
      "ĠÑģÐ¾ÑģÑĤÐ¾ÑıÐ½Ð¸Ðµ": 1842,
      "Ð¾ÑĢÐ¸Ð½Ð³": 1843,
      "ÑĤÐ°Ð±Ð»Ð¸ÑĨÐ°": 1844,
      "lf": 1845,
      "ÐµÑģÐ¿": 1846,
      "ĠÑģÐºÐ¾ÑĢ": 1847,
      "ĠÑģÐ¾Ð¿ÑĢÐ¾Ð²": 1848,
      "ĠÐ²ÐµÑĢÑģ": 1849,
      "ÑģÐºÐ¾ÑĢÐµÐ½Ð¸Ðµ": 1850,
      "ĠÐ¿Ð¾Ð·Ð¸ÑĨÐ¸Ð¸": 1851,
      "ĠUnit": 1852,
      "ĠSelf": 1853,
      "ĠÑģÐºÐ¾ÑĢÐ¾ÑģÑĤÐ¸": 1854,
      "ĠÑģÐ¾Ð¿ÑĢÐ¾Ð²Ð¾Ð¶Ð´ÐµÐ½Ð¸Ðµ": 1855,
      "bre": 1856,
      "cu": 1857,
      "ir": 1858,
      "Ġbre": 1859,
      "Ð¸Ð»ÑĮ": 1860,
      "Ð½Ñİ": 1861,
      "ÑĢÐµÐ½": 1862,
      "Ð²ÑĤÐ¾Ð¼": 1863,
      "ĠÐ¿ÑĢÐµÐº": 1864,
      "ÐµÐ½Ð½Ð¾": 1865,
      "ĠÐ¾Ð±ÑĢÐ°ÑīÐµÐ½Ð¸Ñı": 1866,
      "ĠÐ½ÐµÑģÑĤ": 1867,
      "ÐµÐ½Ð¸ÑıÐ¼Ð¸": 1868,
      "ĠÐ°Ð²ÑĤÐ¾Ð¼": 1869,
      "ĠÑĥÐ»ÑĥÑĩ": 1870,
      "ĠÐ¡ÐºÐ¾ÑĢÐ¾ÑģÑĤÑĮ": 1871,
      "ÑĢÐ¸ÐºÐ¸": 1872,
      "Ð°Ð±Ð¸Ð»ÑĮ": 1873,
      "Ð°ÐºÑĤÐ¾ÑĢÐ¸Ð½Ð³": 1874,
      "ĠÐ²ÑĢÐµÐ¼ÐµÐ½Ð½Ð¾": 1875,
      "ĠCir": 1876,
      "ĠÑģÐµÑĢÐ²Ð¸ÑģÑĥ": 1877,
      "aker": 1878,
      "ÐµÑĦÐ°ÐºÑĤÐ¾ÑĢÐ¸Ð½Ð³": 1879,
      "ĠÐ²Ð½ÑĥÑĤÑĢÐµÐ½": 1880,
      "Ð½Ð¾Ð¼Ñĥ": 1881,
      "cuit": 1882,
      "Ġbreaker": 1883,
      "Ð½ÑİÑİ": 1884,
      "ĠÐ¿ÑĢÐµÐºÑĢÐ°ÑīÐ°ÐµÑĤ": 1885,
      "ĠÐ½ÐµÑģÑĤÐ°Ð±Ð¸Ð»ÑĮ": 1886,
      "ĠÐ°Ð²ÑĤÐ¾Ð¼Ð°ÑĤ": 1887,
      "ĠÑĥÐ»ÑĥÑĩÑĪÐ°ÐµÑĤ": 1888,
      "ĠCircuit": 1889,
      "ĠÐ²Ð½ÑĥÑĤÑĢÐµÐ½Ð½ÑİÑİ": 1890,
      "ĠÐ½ÐµÑģÑĤÐ°Ð±Ð¸Ð»ÑĮÐ½Ð¾Ð¼Ñĥ": 1891,
      "£ÑģÐºÐ¾ÑĢÐµÐ½Ð¸Ðµ": 1892,
      "ĠÐ£ÑģÐºÐ¾ÑĢÐµÐ½Ð¸Ðµ": 1893,
      "Ð»ÐµÐ½": 1894,
      "Ð²Ð°ÑĤÑĭÐ²Ð°ÐµÑĤ": 1895,
      "Ð¼Ð½Ð°Ñı": 1896,
      "ĠÐ¾Ñħ": 1897,
      "ĠÐ¾Ð±ÐµÑģÐ¿": 1898,
      "ÐµÐ¹Ð½ÐµÑĢ": 1899,
      "ĠÑĥÑģÑĤÑĢ": 1900,
      "ĠÐļÐ¾Ð¼Ð¿": 1901,
      "ĠÑĢÐ°Ð·ÑĢÐ°Ð±Ð¾ÑĤ": 1902,
      "Ð¾Ð³ÑĢÐ°Ð¼Ð¼Ð½Ð°Ñı": 1903,
      "ĠÐłÐµÑĦÐ°ÐºÑĤÐ¾ÑĢÐ¸Ð½Ð³": 1904,
      "ĠÑģÐµÑĤÑĮ": 1905,
      "ĠÐ¸Ð½Ð¶ÐµÐ½ÐµÑĢÐ¸Ñı": 1906,
      "ĠÐ¿ÑĢÐ¾Ð³ÑĢÐ°Ð¼Ð¼Ð½ÑĭÑħ": 1907,
      "ĠÑģÐ¾ÐµÐ´Ð¸Ð½ÑıÐµÑĤ": 1908,
      "ĠÐ±Ð¾Ð»ÑĮÑĪÐ¸Ðµ": 1909,
      "ĠÐ¾Ð±Ð¼ÐµÐ½Ð°": 1910,
      "ÑĮÑİÑĤÐµÑĢÐ½Ð°Ñı": 1911,
      "ĠÐŁÑĢÐ¾Ð³ÑĢÐ°Ð¼Ð¼Ð½Ð°Ñı": 1912,
      "ĠÐ¾ÑħÐ²Ð°ÑĤÑĭÐ²Ð°ÐµÑĤ": 1913,
      "ĠÐ¾Ð±ÐµÑģÐ¿ÐµÑĩ": 1914,
      "ĠÑĥÑģÑĤÑĢÐ¾Ð¹ÑģÑĤÐ²Ð°": 1915,
      "ĠÐļÐ¾Ð¼Ð¿ÑĮÑİÑĤÐµÑĢÐ½Ð°Ñı": 1916,
      "ĠÑĢÐ°Ð·ÑĢÐ°Ð±Ð¾ÑĤÐºÑĥ": 1917,
      "ĠÐ¿ÑĢÐ¸ÑĤ": 1918,
      "ĠÐľÐ°ÑģÑģ": 1919,
      "ĠÐºÐ¾Ð¼Ð¿Ð¾Ð½ÐµÐ½ÑĤÐ°Ð¼Ð¸": 1920,
      "ĠÐ¿ÑĢÐ¸ÑĤÑıÐ¶": 1921,
      "ÑĤÐµÐ¹Ð½ÐµÑĢ": 1922,
      "ÑĥÑģÐº": 1923,
      "Ð»ÐµÐ½Ð¸Ñı": 1924,
      "Ð²ÐµÐ»Ð¸Ñĩ": 1925,
      "ĠÐ¾ÐºÐ¸ÑģÐ»": 1926,
      "ÑĨÐ°Ð¼Ð¸": 1927,
      "ĠÐ¼Ð°ÑĤÑĢÐ¸": 1928,
      "ĠÑĥÐ²ÐµÐ»Ð¸Ñĩ": 1929,
      "Ð¾Ð±ÑĢÐ°Ð¶": 1930,
      "ĠÐ¸Ð½Ð´ÐµÐºÑģ": 1931,
      "ĠÐ¾ÑĤÐ¾Ð±ÑĢÐ°Ð¶": 1932,
      "ĠÑģÑĤÐµÐ¿": 1933,
      "ĠÐ·Ð°Ð¿ÑĥÑģÐº": 1934,
      "ĠÐ²Ð·Ð°Ð¸Ð¼Ð½Ð¾Ðµ": 1935,
      "ĠÐŀÐºÐ¸ÑģÐ»": 1936,
      "Ð¸ÑĢÑĥÐµÐ¼Ð¾Ð¹": 1937,
      "ĠÐ°Ð»Ð³ÐµÐ±ÑĢÐ°": 1938,
      "ĠÑģÑĤÑĢÑĥÐºÑĤÑĥÑĢÐµ": 1939,
      "ĠÐ²ÐµÐºÑĤÐ¾ÑĢÐ°Ð¼Ð¸": 1940,
      "ĠÑįÐ»ÐµÐ¼ÐµÐ½ÑĤÑĭ": 1941,
      "ĠÑģÐ²ÑıÐ·Ð°Ð½Ð¾": 1942,
      "Ð¸Ð½ÐµÐ¹Ð½Ð°Ñı": 1943,
      "ĠÐĽÐ¸Ð½ÐµÐ¹Ð½Ð°Ñı": 1944,
      "ĠÐ»Ð¸Ð½ÐµÐ¹Ð½ÑĭÐ¼Ð¸": 1945,
      "ĠÐ°Ð²ÑĤÐ¾Ð¼Ð°ÑĤÐ¸ÑĩÐµÑģÐºÐ¸": 1946,
      "ĠÐľÐ°ÑģÑģÐ¸Ð²": 1947,
      "ĠÐ¾ÐºÐ¸ÑģÐ»ÐµÐ½Ð¸Ñı": 1948,
      "ĠÐ¼Ð°ÑĤÑĢÐ¸ÑĨÐ°Ð¼Ð¸": 1949,
      "ĠÑĥÐ²ÐµÐ»Ð¸ÑĩÐµÐ½Ð¸ÐµÐ¼": 1950,
      "ĠÐ¸Ð½Ð´ÐµÐºÑģÐ¸ÑĢÑĥÐµÐ¼Ð¾Ð¹": 1951,
      "ĠÐ¾ÑĤÐ¾Ð±ÑĢÐ°Ð¶ÐµÐ½Ð¸ÑıÐ¼Ð¸": 1952,
      "ĠÑģÑĤÐµÐ¿ÐµÐ½Ð¸": 1953,
      "ĠÐ·Ð°Ð¿ÑĥÑģÐºÐ°ÐµÑĤ": 1954,
      "ĠÐŀÐºÐ¸ÑģÐ»ÐµÐ½Ð¸Ðµ": 1955,
      "lak": 1956,
      "Ġlak": 1957,
      "ÑıÑĨÐ¸Ð¸": 1958,
      "ÑĥÑģÐ»": 1959,
      "ĠÐ¿Ð»": 1960,
      "ĠÐ¸Ð¾Ð½Ð¾Ð²": 1961,
      "Ð¾Ð²Ð»ÐµÐ½": 1962,
      "Ð¾ÑģÑĤÐ°ÑĤ": 1963,
      "ÐµÐ¼Ñĭ": 1964,
      "ĠÐ¾Ð±ÑĥÑģÐ»": 1965,
      "ĠÐ¿Ð¾ÑģÐ»": 1966,
      "ĠÐ¸ÑģÐ¿Ð¾Ð»ÑĮÐ·ÑĥÑİÑĤ": 1967,
      "Ð¾Ð¿Ñĭ": 1968,
      "ĠÐ¾Ð±ÑĬÐµÐ¼Ñĭ": 1969,
      "ĠÐ¾Ð¿ÐµÑĢÐ°ÑĨÐ¸Ñİ": 1970,
      "ĠÐ¾Ð¿ÐµÑĢÐ°ÑĨÐ¸Ð¾Ð½Ð½Ð¾Ð¹": 1971,
      "ĠÐĺÐ¾Ð½Ð½Ð°Ñı": 1972,
      "ĠÐ²ÑĢÐµÐ¼ÐµÐ½Ð½Ð¾Ð¹": 1973,
      "ĠÐ¿ÑĢÐ¾Ð³ÑĢÐ°Ð¼Ð¼Ð½ÑĭÐ¼Ð¸": 1974,
      "ĠCI": 1975,
      "ĠÑįÐ»ÐµÐºÑĤÑĢÐ¾ÑģÑĤÐ°ÑĤ": 1976,
      "ĠÐļÐ¾Ð½ÑĤÐµÐ¹Ð½ÐµÑĢ": 1977,
      "ĠÐ¿Ð¾Ð²ÑĤÐ¾ÑĢÑıÐµÑĤ": 1978,
      "ĠÐ¼ÐµÑħÐ°Ð½Ð¸Ð·Ð¼Ñĭ": 1979,
      "ĠRetr": 1980,
      "ĠÐ¾ÑĪÐ¸Ð±ÐºÐ¸": 1981,
      "ĠÐ¸Ð·Ð¾Ð»ÑıÑĨÐ¸Ð¸": 1982,
      "ĠÐ¿ÑĢÐ¸ÑĤÑıÐ¶ÐµÐ½Ð¸ÐµÐ¼": 1983,
      "Ġlake": 1984,
      "Ð¾Ð²Ð»ÐµÐ½Ð°": 1985,
      "ĠÐ¾Ð±ÑĥÑģÐ»Ð¾Ð²Ð»ÐµÐ½Ð°": 1986,
      "ĠÐ¿Ð¾ÑģÐ»Ðµ": 1987,
      "ĠÑįÐ»ÐµÐºÑĤÑĢÐ¾ÑģÑĤÐ°ÑĤÐ¸ÑĩÐµÑģÐºÐ¸Ð¼": 1988,
      "ĠÐļÐ¾Ð½ÑĤÐµÐ¹Ð½ÐµÑĢÑĭ": 1989,
      "ĠRetry": 1990,
      "Ob": 1991,
      "ab": 1992,
      "am": 1993,
      "il": 1994,
      "ser": 1995,
      "tre": 1996,
      "vab": 1997,
      "ĠOb": 1998,
      "ÑĤÑĢ": 1999,
      "ÑģÐµÐ½": 2000,
      "ĠÐ¿Ð¾ÑģÑĤÑĥÐ¿": 2001,
      "Ð»Ð°Ð¼": 2002,
      "ĠÐ¸ÑģÐº": 2003,
      "ÐµÑĢÐµ": 2004,
      "ĠÐ¼ÐµÑĢÐµ": 2005,
      "ĠÑĤÑĢÐ°": 2006,
      "ÑģÑģÐ¸ÑĢÐ¾Ð²": 2007,
      "ĠÐļÐ²Ð°Ð½": 2008,
      "ĠÐ¼ÐµÑĤÑĢÐ¸ÐºÐ¸": 2009,
      "ĠÐľÑĮÑİÑĤ": 2010,
      "Ð»ÑİÑĩÐµÐ½Ð¸Ðµ": 2011,
      "ĠÐ¾Ð´Ð½Ð¾Ð³Ð¾": 2012,
      "ĠÐ¼Ð°ÑģÑĪÑĤÐ°Ð±Ð¾Ð²": 2013,
      "ĠStre": 2014,
      "ĠÑģÐ²ÑıÐ·Ð°Ð½Ð°": 2015,
      "ĠÐļÐ¾Ð½ÑģÐµÐ½": 2016,
      "ÑĤÐ¾Ð²Ð°Ñı": 2017,
      "ĠÑĥÐ·Ð»Ð°Ð¼": 2018,
      "ĠÑģÐ¾Ð³Ð»Ð°ÑģÐ¾Ð²Ð°ÑĤÑĮ": 2019,
      "ÑģÑĥÑģ": 2020,
      "ĠÐ»Ð¾Ð³Ð¸": 2021,
      "ĠÐ¼ÐµÑħÐ°Ð½Ð¸ÐºÐ°": 2022,
      "ĠÐ¾Ð±ÐµÑģÐ¿ÐµÑĩÐ¸Ð²Ð°ÐµÑĤ": 2023,
      "ility": 2024,
      "servab": 2025,
      "ĠObservab": 2026,
      "ĠÐ¿Ð¾ÑģÑĤÑĥÐ¿Ð»ÐµÐ½Ð¸Ñı": 2027,
      "ĠÐ¸ÑģÐºÐ»ÑİÑĩÐµÐ½Ð¸Ðµ": 2028,
      "ĠÑĤÑĢÐ°ÑģÑģÐ¸ÑĢÐ¾Ð²": 2029,
      "ĠÐļÐ²Ð°Ð½ÑĤÐ¾Ð²Ð°Ñı": 2030,
      "ĠÐľÑĮÑİÑĤÐµÐºÑģ": 2031,
      "ĠStream": 2032,
      "ĠÐļÐ¾Ð½ÑģÐµÐ½ÑģÑĥÑģ": 2033,
      "ĠObservability": 2034,
      "ĠÑĤÑĢÐ°ÑģÑģÐ¸ÑĢÐ¾Ð²ÐºÐ¸": 2035,
      "CC": 2036,
      "VCC": 2037,
      "Ð¸Ð¾Ð½Ð½Ð°Ñı": 2038,
      "ÑģÐ¸Ñı": 2039,
      "ÑĭÐ´Ñĥ": 2040,
      "ÐµÐ¼Ñĥ": 2041,
      "ÑīÐµÐ¼Ñĥ": 2042,
      "ĠÐ¿ÑĢÐµÐ´ÑĭÐ´Ñĥ": 2043,
      "ÑĢÐµÑģÑģ": 2044,
      "ĠÐ¾Ð±ÑĬÐµÐºÑĤ": 2045,
      "ÐµÐ³ÑĢÐµÑģÑģ": 2046,
      "ĠÐºÐ¾Ð½ÑĤÐµÐºÑģÑĤÑĥ": 2047,
      "ĠMVCC": 2048,
      "ĠÐ¿ÑĢÐµÐ´ÑģÐºÐ°Ð·ÑĭÐ²Ð°ÐµÑĤ": 2049,
      "ĠÑģÐ»ÐµÐ´ÑĥÑİÑīÐ¸Ð¹": 2050,
      "ĠÑģÐ±Ð¾ÑĢÐºÑĥ": 2051,
      "ĠÐĲÐ²ÑĤÐ¾ÑĢÐµÐ³ÑĢÐµÑģÑģ": 2052,
      "ĠÐºÐ¾Ð½ÐºÑĥÑĢÐµÐ½ÑĤÐ½ÑĭÑħ": 2053,
      "ĠÐºÐ¾Ð½ÑĤÑĢÐ°ÐºÑĤ": 2054,
      "ĠÐ²ÐµÑĢÑģÐ¸Ð¸": 2055,
      "ĠÐ¿ÑĢÐµÐ´ÑĭÐ´ÑĥÑīÐµÐ¼Ñĥ": 2056,
      "ĠÐĲÐ²ÑĤÐ¾ÑĢÐµÐ³ÑĢÐµÑģÑģÐ¸Ð¾Ð½Ð½Ð°Ñı": 2057,
      "ent": 2058,
      "py": 2059,
      "ÑĤÐµÐ³": 2060,
      "Ð»Ð¸Ñĩ": 2061,
      "Ð·Ð¾ÑĤ": 2062,
      "ĠÐ½Ð°Ðº": 2063,
      "ÑīÐµÐ³Ð¾": 2064,
      "Ð¾Ð¿Ð»ÐµÐ½Ð¸Ðµ": 2065,
      "ĠÐ¾ÑĤÐ»Ð¸Ñĩ": 2066,
      "ĠÐĺÐ·Ð¾ÑĤ": 2067,
      "ross": 2068,
      "ropy": 2069,
      "ĠCross": 2070,
      "ĠÑįÐ»ÐµÐ¼ÐµÐ½ÑĤÐ°": 2071,
      "ĠÐĺÐ½ÑĤÐµÐ³": 2072,
      "ĠÐ¿ÑĢÐµÐ´ÑģÐºÐ°Ð·Ð°Ð½Ð¸Ñı": 2073,
      "ĠÐ¿ÑĢÐ¸Ð¼ÐµÐ½ÑıÐµÑĤÑģÑı": 2074,
      "ĠÑģÐ»ÐµÐ´ÑĥÑİÑīÐµÐ³Ð¾": 2075,
      "ĠÐ½ÐµÐ¹ÑĤÑĢ": 2076,
      "entropy": 2077,
      "ĠÐ½Ð°ÐºÐ¾Ð¿Ð»ÐµÐ½Ð¸Ðµ": 2078,
      "ĠÐ¾ÑĤÐ»Ð¸ÑĩÐ°ÑİÑĤÑģÑı": 2079,
      "ĠÐĺÐ·Ð¾ÑĤÐ¾Ð¿Ñĭ": 2080,
      "ĠÐĺÐ½ÑĤÐµÐ³ÑĢÐ°Ð»": 2081,
      "ĠÐ½ÐµÐ¹ÑĤÑĢÐ¾Ð½Ð¾Ð²": 2082,
      "bed": 2083,
      "ding": 2084,
      "gr": 2085,
      "mbed": 2086,
      "nte": 2087,
      "Ð¸Ð°Ð¿": 2088,
      "Ð»ÐµÐºÑĤÑĢ": 2089,
      "ĠÑģÐ¿Ñĥ": 2090,
      "ÐµÑĢÐ¾ÑıÑĤ": 2091,
      "ÐµÑĢÑģÐ¸Ñı": 2092,
      "ĠÐ´Ð¸ÑģÐº": 2093,
      "ĠÐ´Ð¸Ð°Ð¿": 2094,
      "Ð¾Ð½Ðµ": 2095,
      "ĠÐ¾Ð±Ð½Ð¾Ð²": 2096,
      "Ð¸ÑĤÐ°ÑĨÐ¸Ñı": 2097,
      "ĠÐ½ÑĥÐ»Ñı": 2098,
      "ÑĥÑĩÐ°Ð¹": 2099,
      "ĠÑģÐ¸ÑģÑĤÐµÐ¼Ð°Ð¼Ð¸": 2100,
      "ĠÑģÐ»ÑĥÑĩÐ°Ð¹": 2101,
      "Ð±ÑĢÐ¾Ñģ": 2102,
      "Ð¾ÑĤÐ½ÑĭÐ¹": 2103,
      "ĠÐĴÐµÑĢÐ¾ÑıÑĤ": 2104,
      "ĠÑĢÐ°Ð·Ð±ÑĢÐ¾Ñģ": 2105,
      "ÐµÐ¶Ð¸ÑĤ": 2106,
      "Ð°Ð·Ð¾Ð½Ðµ": 2107,
      "ÑĢÐ°Ð²Ð¸ÑĤÐ°ÑĨÐ¸Ñı": 2108,
      "ĠÐ»ÐµÐ¶Ð¸ÑĤ": 2109,
      "ĠÐĶÐ¸ÑģÐ¿": 2110,
      "Ð¶ÐµÐ½ÐµÑĢÐ¸Ñı": 2111,
      "ĠÐ²Ð·Ð°Ð¸Ð¼Ð¾Ð´ÐµÐ¹ÑģÑĤÐ²Ð¸Ðµ": 2112,
      "ĠÐµÐ´Ð¸Ð½Ð¸ÑĨÑĭ": 2113,
      "ĠÐĺÐ½Ð¶ÐµÐ½ÐµÑĢÐ¸Ñı": 2114,
      "ĠEmbed": 2115,
      "ÐµÑĤÑĢÑĭ": 2116,
      "ĠÑģÐ±Ð¾ÑĢÐ°": 2117,
      "ĠÐĵÑĢÐ°Ð´Ð¸ÐµÐ½ÑĤÐ½ÑĭÐ¹": 2118,
      "ĠÐ¿Ð°ÑĢÐ°Ð¼ÐµÑĤÑĢÑĭ": 2119,
      "ĠÑĥÐ¼ÐµÐ½ÑĮÑĪÐµÐ½Ð¸Ñı": 2120,
      "ĠÐ¿Ð»Ð¾ÑĤÐ½ÑĭÐ¹": 2121,
      "ĠÐ¾Ð±ÑĬÐµÐºÑĤÐ¾Ð²": 2122,
      "gration": 2123,
      "ntegration": 2124,
      "ĠÑģÐ¿ÑĥÑģÐº": 2125,
      "ĠÐ´Ð¸ÑģÐºÑĢÐµÑĤÐ½ÑĭÐ¹": 2126,
      "ĠÐ´Ð¸Ð°Ð¿Ð°Ð·Ð¾Ð½Ðµ": 2127,
      "ĠÐ¾Ð±Ð½Ð¾Ð²Ð»ÑıÐµÑĤ": 2128,
      "ĠÑģÐ»ÑĥÑĩÐ°Ð¹Ð½Ð¾Ð¹": 2129,
      "ĠÐĴÐµÑĢÐ¾ÑıÑĤÐ½Ð¾ÑģÑĤÑĮ": 2130,
      "ĠÐĶÐ¸ÑģÐ¿ÐµÑĢÑģÐ¸Ñı": 2131,
      "ĠEmbedding": 2132,
      "cal": 2133,
      "ÑĢÐ¸Ð·Ð°ÑĨÐ¸Ñı": 2134,
      "ĠÐ¼Ð°ÑģÑģ": 2135,
      "ĠÐłÐµÐ³": 2136,
      "ĠÐĵÑĢÐ°Ð²Ð¸ÑĤÐ°ÑĨÐ¸Ñı": 2137,
      "ĠRecal": 2138,
      "ÑĥÐ»ÑıÑĢÐ¸Ð·Ð°ÑĨÐ¸Ñı": 2139,
      "ĠÐ¾Ð±Ð½Ð°ÑĢÑĥÐ¶ÐµÐ½Ð¸Ñı": 2140,
      "ĠÐłÐµÐ³ÑĥÐ»ÑıÑĢÐ¸Ð·Ð°ÑĨÐ¸Ñı": 2141,
      "ĠRecall": 2142,
      "ÐµÐ¾ÑĢ": 2143,
      "ÐµÐ¾Ð¼": 2144,
      "ÑģÐ¸ÑĤÐµÐ»ÑĮÐ½Ð¾ÑģÑĤÐ¸": 2145,
      "ÐµÑĤÑĢÐ¸": 2146,
      "Ð²ÑĢÐµÐ¼": 2147,
      "ÐµÐ½ÑĨÐ¸": 2148,
      "ĠÑĤÐµÐ¾ÑĢ": 2149,
      "ĠÐ³ÐµÐ¾Ð¼": 2150,
      "ĠIntegration": 2151,
      "ĠÐŃÐ»ÐµÐºÑĤÑĢ": 2152,
      "ĠÐ¾Ð±ÑīÐµÐ¹": 2153,
      "ĠÐ¾ÑĤÐ½Ð¾ÑģÐ¸ÑĤÐµÐ»ÑĮÐ½Ð¾ÑģÑĤÐ¸": 2154,
      "ĠÐ¼ÐµÑħÐ°Ð½Ð¸Ð·Ð¼": 2155,
      "ÐµÑĤÑĢÐ¸ÐµÐ¹": 2156,
      "Ð²ÑĢÐµÐ¼ÐµÐ½Ð¸": 2157,
      "ÐµÐ½ÑĨÐ¸Ð°Ð»ÑĮ": 2158,
      "ĠÑĤÐµÐ¾ÑĢÐ¸Ð¸": 2159,
      "ĠÐ³ÐµÐ¾Ð¼ÐµÑĤÑĢÐ¸ÐµÐ¹": 2160,
      "Ð·Ð°ÑĨÐ¸Ñı": 2161,
      "ÐµÐ½Ð¸Ð·Ð°ÑĨÐ¸Ñı": 2162,
      "Ð¾ÐºÐµÐ½Ð¸Ð·Ð°ÑĨÐ¸Ñı": 2163,
      "ĠÐ¿Ð¾Ð»Ðµ": 2164,
      "ĠÐ¢Ð¾ÐºÐµÐ½Ð¸Ð·Ð°ÑĨÐ¸Ñı": 2165,
      "ĠÐ¸Ð´ÐµÐ½ÑĤÐ¸ÑĦÐ¸ÐºÐ°ÑĤÐ¾ÑĢÐ¾Ð²": 2166,
      "ew": 2167,
      "iew": 2168,
      "view": 2169,
      "Ġre": 2170,
      "ĠÑģÑĢÐµÐ´": 2171,
      "ĠÐ´Ð²": 2172,
      "ĠÐ´ÐµÑĦ": 2173,
      "ÑĪÐµÐ½Ð½ÑĭÐµ": 2174,
      "Ð°ÑĨÐ¸Ð¾Ð½Ð½Ð°Ñı": 2175,
      "ÐµÐºÑĤÑĭ": 2176,
      "ÑĦÐ¸Ð´": 2177,
      "ÑĢÐµÑĪÐµÐ½Ð½ÑĭÐµ": 2178,
      "Ð¾ÑĤÐ¾Ð½": 2179,
      "ĠÑĢÐ°Ð·ÑĢÐµÑĪÐµÐ½Ð½ÑĭÐµ": 2180,
      "ĠÐºÐ¾Ð½ÑĦÐ¸Ð´": 2181,
      "ÑĦÐ¾ÑĢÐ¼Ð°ÑĨÐ¸Ð¾Ð½Ð½Ð°Ñı": 2182,
      "ĠÐĺÐ½ÑĦÐ¾ÑĢÐ¼Ð°ÑĨÐ¸Ð¾Ð½Ð½Ð°Ñı": 2183,
      "ĠÐ´ÐµÐ¹ÑģÑĤÐ²Ð¸Ñı": 2184,
      "ĠÐ´Ð¾ÑģÑĤÑĥÐ¿Ð½Ð¾ÑģÑĤÑĮ": 2185,
      "ĠÐĲÐ²ÑĤÐ¾ÑĢÐ¸Ð·Ð°ÑĨÐ¸Ñı": 2186,
      "ĠÐ±ÐµÐ·Ð¾Ð¿Ð°ÑģÐ½Ð¾ÑģÑĤÑĮ": 2187,
      "ÐµÐ½ÑĨÐ¸Ð°Ð»ÑĮÐ½Ð¾ÑģÑĤÑĮ": 2188,
      "Ġreview": 2189,
      "ĠÐ´ÐµÑĦÐµÐºÑĤÑĭ": 2190,
      "ĠÐºÐ¾Ð½ÑĦÐ¸Ð´ÐµÐ½ÑĨÐ¸Ð°Ð»ÑĮÐ½Ð¾ÑģÑĤÑĮ": 2191,
      "Ð»ÐµÐ´": 2192,
      "ĠÐ¸ÑģÑģ": 2193,
      "Ð¾Ð´Ñĥ": 2194,
      "Ð°ÑĤÐ°Ð»Ð¸Ð·": 2195,
      "ÑĪÐ»": 2196,
      "ĠÑģÐ»Ð¾Ð²": 2197,
      "ĠÐļÐ°ÑĤÐ°Ð»Ð¸Ð·": 2198,
      "ĠÑĩÐ°ÑģÑĤÐ¸ÑĨ": 2199,
      "Ð¸Ð·Ð²Ð¾Ð´Ð½Ð°Ñı": 2200,
      "ĠÐ´ÐµÐ¹ÑģÑĤÐ²ÑĥÐµÑĤ": 2201,
      "ÑıÐ¶ÐµÐ½Ð½ÑĭÐµ": 2202,
      "ĠÐ·Ð°ÑĢÑıÐ´": 2203,
      "ĠÐ·Ð°ÑĢÑıÐ¶ÐµÐ½Ð½ÑĭÐµ": 2204,
      "ĠÐ»Ð¾ÐºÐ°Ð»ÑĮÐ½ÑĥÑİ": 2205,
      "ĠÑħÐ¸Ð¼Ð¸ÑĩÐµÑģÐºÐ¾Ð¹": 2206,
      "ĠÐŁÑĢÐ¾Ð¸Ð·Ð²Ð¾Ð´Ð½Ð°Ñı": 2207,
      "ĠÐŃÐ»ÐµÐºÑĤÑĢÐ¸ÑĩÐµÑģÐºÐ¾Ðµ": 2208,
      "ĠÐ¸ÑģÑģÐ»ÐµÐ´": 2209,
      "ĠÐļÐ°ÑĤÐ°Ð»Ð¸Ð·Ð°ÑĤÐ¾ÑĢ": 2210,
      "ĠÑĩÐ°ÑģÑĤÐ¸ÑĨÑĭ": 2211,
      "ĠÑĢÐ°Ð²": 2212,
      "ÑĥÐ¼Ð°": 2213,
      "ÑģÑĤÑĢÐµÐ¼": 2214,
      "Ð¼Ð¿": 2215,
      "ĠÐ¿ÑĢÐ¾Ð´Ñĥ": 2216,
      "ÐµÐ´ÐµÐ½Ð¸Ñİ": 2217,
      "ĠÐºÐ²Ð°Ð½": 2218,
      "ĠÐ¿ÑĢÐ¾Ð¸Ð·Ð²": 2219,
      "ÑĥÐ»ÑĮÑģ": 2220,
      "ĠÐ¿Ð¾Ð¸ÑģÐºÐ¾Ð¼": 2221,
      "ĠCode": 2222,
      "ÑĤÐ¸Ð¼Ð¸Ð·Ð°ÑĨÐ¸Ñı": 2223,
      "ĠÑĢÐµÐ°ÐºÑĨÐ¸Ñı": 2224,
      "ĠÑįÐºÑģÑĤÑĢÐµÐ¼": 2225,
      "ĠÐºÐ»Ð°ÑģÑģÐ¸ÑĩÐµÑģÐºÐ¾Ð¹": 2226,
      "ĠÐ²ÐµÑīÐµÑģÑĤÐ²Ð°": 2227,
      "ĠÐ¥Ð¸Ð¼Ð¸ÑĩÐµÑģÐºÐ°Ñı": 2228,
      "ĠÐŀÐ¿ÑĤÐ¸Ð¼Ð¸Ð·Ð°ÑĨÐ¸Ñı": 2229,
      "ĠÐ¼ÐµÑħÐ°Ð½Ð¸ÐºÐµ": 2230,
      "ĠÑįÐ»ÐµÐºÑĤÑĢÐ¾Ð¼Ð°Ð³Ð½Ð¸ÑĤÐ½Ð¾Ð³Ð¾": 2231,
      "ĠÐ¸ÑģÑħÐ¾Ð´Ð½ÑĭÐµ": 2232,
      "ÐºÑĤÑĭ": 2233,
      "ĠÐ¼Ð°ÑģÑģÑĭ": 2234,
      "ĠÑĢÐ°Ð²ÐµÐ½": 2235,
      "Ð¼Ð¿ÑĥÐ»ÑĮÑģ": 2236,
      "ĠÐ¿ÑĢÐ¾Ð´ÑĥÐºÑĤÑĭ": 2237,
      "ĠÐºÐ²Ð°Ð½ÑĤÐ¾Ð¼": 2238,
      "ĠÐ¿ÑĢÐ¾Ð¸Ð·Ð²ÐµÐ´ÐµÐ½Ð¸Ñİ": 2239,
      "ĠÑįÐºÑģÑĤÑĢÐµÐ¼ÑĥÐ¼Ð°": 2240,
      "MS": 2241,
      "Norm": 2242,
      "mp": 2243,
      "ote": 2244,
      "Ð½ÐµÐº": 2245,
      "ÑĭÑģÑĤÑĢ": 2246,
      "Ð²Ð°Ð´": 2247,
      "ÐµÐ¼ÐµÐ½Ð½Ð¾Ð¹": 2248,
      "ĠÐ½Ð¾ÑĢÐ¼": 2249,
      "Ð¸ÑĩÐ½Ð¾Ð¹": 2250,
      "Ð¸Ð½Ðµ": 2251,
      "ĠÐ±ÑĭÑģÑĤÑĢ": 2252,
      "ĠÐ¿ÐµÑĢÐµÐ¼ÐµÐ½Ð½Ð¾Ð¹": 2253,
      "ĠÐ¸Ð½ÑģÑĤ": 2254,
      "Ð°Ð»Ð¸Ð·ÑĥÐµÑĤ": 2255,
      "ĠÑģÐ²ÑıÐ·Ð¸": 2256,
      "Ð¸Ð²Ð°ÑĤÑĮ": 2257,
      "ĠÐ¿Ð¾ÑģÐ»ÐµÐ´Ð½Ð¸Ð¼": 2258,
      "ĠÐĺÐ¼Ð¿ÑĥÐ»ÑĮÑģ": 2259,
      "ĠÐ¿ÑĢÐµÐ´ÑģÑĤÐ°Ð²Ð»Ñı": 2260,
      "ĠÐ¿ÑĢÐµÐ´ÑģÑĤÐ°Ð²Ð»ÐµÐ½Ð¸Ðµ": 2261,
      "ÑĢÐ°ÑĤÐ¸ÑĩÐ½Ð¾Ð¹": 2262,
      "ĠÑĥÑĩÐ¸ÑĤÐµÐ»Ñı": 2263,
      "ĠRMS": 2264,
      "ĠÐ¤Ð¾ÑĤÐ¾Ð½": 2265,
      "demp": 2266,
      "ĠIdemp": 2267,
      "ĠÐ²ÐµÐ»Ð¸ÑĩÐ¸Ð½Ðµ": 2268,
      "ĠÐ¿Ð¾Ð²ÑĤÐ¾ÑĢÑıÑĤÑĮ": 2269,
      "ĠÐ¾Ð±Ð½Ð°ÑĢÑĥÐ¶Ð¸Ð²Ð°ÑĤÑĮ": 2270,
      "ĠÐ±ÐµÐ·Ð¾Ð¿Ð°ÑģÐ½Ð¾": 2271,
      "ĠÑģÑĢÐµÐ´Ð½ÐµÐº": 2272,
      "ĠÐ¸ÑģÑģÐ»ÐµÐ´ÑĥÐµÑĤ": 2273,
      "otency": 2274,
      "Ð²Ð°Ð´ÑĢÐ°ÑĤÐ¸ÑĩÐ½Ð¾Ð¹": 2275,
      "ĠÐ½Ð¾ÑĢÐ¼Ð°Ð»Ð¸Ð·ÑĥÐµÑĤ": 2276,
      "ĠRMSNorm": 2277,
      "ĠIdempotency": 2278,
      "ĠÑģÑĢÐµÐ´Ð½ÐµÐºÐ²Ð°Ð´ÑĢÐ°ÑĤÐ¸ÑĩÐ½Ð¾Ð¹": 2279,
      "ach": 2280,
      "ÑĤÐµÐº": 2281,
      "Ð¸Ð¼Ð¸": 2282,
      "ĠÐ¡ÑĤÐµÐº": 2283,
      "ĠÐ¿ÑĢÐ¾ÑĪÐ»": 2284,
      "ĠÐ¾Ð±ÑĬÐµÐ´Ð¸Ð½": 2285,
      "ĠÐ¿Ð¾Ð»Ñı": 2286,
      "ĠÑĩÐ°ÑģÑĤÑĭÑħ": 2287,
      "ĠÐºÐ»ÑİÑĩÐ¸": 2288,
      "ĠÐ¿ÐµÑĢÐµÐ´Ð°ÑĩÐµ": 2289,
      "ĠBPE": 2290,
      "ĠÐ¿Ð¾Ð²ÑĤÐ¾ÑĢÐ½Ð¾": 2291,
      "ĠÐ¿Ð¾Ð·Ð¸ÑĨÐ¸Ð¹": 2292,
      "ĠÐ³ÐµÐ½ÐµÑĢÐ°ÑĨÐ¸Ð¸": 2293,
      "ĠKV": 2294,
      "Ġcach": 2295,
      "ĠÑģÐ»Ð¾Ð²Ð°ÑĢÑĮ": 2296,
      "ĠÐ¿ÑĢÐ¾ÑĪÐ»ÑĭÑħ": 2297,
      "ĠÐ¾Ð±ÑĬÐµÐ´Ð¸Ð½ÐµÐ½Ð¸Ð¹": 2298,
      "Ġcache": 2299,
      "FT": 2300,
      "ÐµÐµ": 2301,
      "Ð¸Ð¾Ð´": 2302,
      "Ð¸Ð¶": 2303,
      "ÑĤÑĮ": 2304,
      "ÐºÐ°Ð·": 2305,
      "ĠÐ¸ÑģÑĤ": 2306,
      "Ð¾Ð»ÐµÐµ": 2307,
      "ĠÐ½Ð°Ð¿": 2308,
      "ĠÐ¸Ð·Ð»ÑĥÑĩ": 2309,
      "ĠÑĥÐºÐ°Ð·": 2310,
      "ĠÐ½Ð°Ð¸Ð±": 2311,
      "ÑĢÐ°Ð²Ð»ÐµÐ½Ð¸Ðµ": 2312,
      "ĠÐľÐ°ÑĤÑĢÐ¸": 2313,
      "ÑĢÑĥÐºÑĨÐ¸Ñı": 2314,
      "ĠSFT": 2315,
      "ĠÑģÐ»ÐµÐ´Ð¾Ð²Ð°ÑĤÑĮ": 2316,
      "ĠÑıÐ´ÐµÑĢ": 2317,
      "ĠÑıÐ´ÑĢÐ°": 2318,
      "ĠÐ·Ð°ÐºÐ¾Ð½": 2319,
      "ĠÐŁÐµÑĢÐ¸Ð¾Ð´": 2320,
      "ĠÑĢÐ¾ÑģÑĤÐ°": 2321,
      "ĠÐ»Ð¸Ð½ÐµÐ¹Ð½Ð¾Ðµ": 2322,
      "ĠÑĤÐµÐºÑģÑĤÐ°": 2323,
      "ĠÐ»Ð¾ÐºÐ°Ð»ÑĮÐ½Ð¾Ð³Ð¾": 2324,
      "ĠÐ´Ð²Ð¸Ð¶": 2325,
      "ĠÐ·Ð°ÑĢÑıÐ´Ð¾Ð¼": 2326,
      "ĠÐ±ÑĭÑģÑĤÑĢÐ¾Ð³Ð¾": 2327,
      "ĠÐ¸Ð½ÑģÑĤÑĢÑĥÐºÑĨÐ¸Ñı": 2328,
      "ĠÐ¿ÑĢÐµÐ´ÑģÑĤÐ°Ð²Ð»ÑıÑĤÑĮ": 2329,
      "ĠÐ½Ð°Ð¿ÑĢÐ°Ð²Ð»ÐµÐ½Ð¸Ðµ": 2330,
      "ĠÑĥÐºÐ°Ð·ÑĭÐ²Ð°ÐµÑĤ": 2331,
      "ĠÐ½Ð°Ð¸Ð±Ð¾Ð»ÐµÐµ": 2332,
      "ĠÐľÐ°ÑĤÑĢÐ¸ÑĨÐ°": 2333,
      "ĠÐŁÐµÑĢÐ¸Ð¾Ð´Ð¸ÑĩÐµÑģÐºÐ¸Ð¹": 2334,
      "ĠÐ¸Ð½ÑģÑĤÑĢÑĥÐºÑĨÐ¸ÑıÐ¼": 2335,
      "ÑĢÑħ": 2336,
      "ÑģÐµ": 2337,
      "Ð¾Ð»Ð¾ÑĩÐºÐ¸": 2338,
      "ĠÐ¾Ð±Ð¾Ð»Ð¾ÑĩÐºÐ¸": 2339,
      "ĠÐ½Ð¸Ð¼Ð¸": 2340,
      "ĠÐ³ÑĢÐ°ÑĦ": 2341,
      "ĠÐ¸Ð·Ð¼ÐµÐ½ÐµÐ½Ð¸Ð¹": 2342,
      "ĠÐĲÑĤÐ¾Ð¼": 2343,
      "ĠÑĢÐ°ÑģÐ¿ÑĢÐµÐ´ÐµÐ»": 2344,
      "ĠÐ¢ÐµÐ¾ÑĢÐ¸Ñı": 2345,
      "ĠÑįÐ»ÐµÐºÑĤÑĢÐ¾Ð½Ð½Ð¾Ð¹": 2346,
      "ĠÐ²ÐµÑĢÑĪÐ¸Ð½Ñĭ": 2347,
      "ĠÐ²ÑĭÐ¿Ð¾Ð»Ð½ÐµÐ½Ð¸Ñı": 2348,
      "ĠÐºÐ¾Ð´Ð°": 2349,
      "ĠÐ³ÑĢÐ°ÑĦÐ¾Ð²": 2350,
      "ain": 2351,
      "ĠÐ¾Ð±ÑīÐ¸Ðµ": 2352,
      "Ð¸Ð·Ð¸ÐºÐ°": 2353,
      "Ð¸Ð¼Ð¾ÑģÑĤÐ¸": 2354,
      "ĠÐºÐ¾Ð½ÐµÑĩ": 2355,
      "ĠÑĢÐµÑĪÐµÐ½Ð¸Ñı": 2356,
      "ÑĥÐ½ÐºÑĨÐ¸Ñı": 2357,
      "ĠÐ²Ð·Ð°Ð¸Ð¼Ð¾Ð´ÐµÐ¹ÑģÑĤÐ²Ð¸Ð¹": 2358,
      "Ð¾ÑĢÐ¸ÑĤÐ¼": 2359,
      "ĠÐ·Ð°Ð²Ð¸ÑģÐ¸Ð¼Ð¾ÑģÑĤÐ¸": 2360,
      "ĠÐ¤Ð¸Ð·Ð¸ÐºÐ°": 2361,
      "Ð¿ÑĥÑģÐµ": 2362,
      "ĠÐºÐ¾ÑĢÐ¿ÑĥÑģÐµ": 2363,
      "ĠÐ´ÐµÐ¹ÑģÑĤÐ²Ð¸Ð¹": 2364,
      "ĠÐ±Ð¾Ð»ÑĮÑĪÐ¾Ð¼": 2365,
      "ĠÐ¼Ð°ÑĤÐµÑĢÐ¸Ð¸": 2366,
      "train": 2367,
      "ĠÑįÐ»ÐµÐºÑĤÑĢÐ¾Ð¼Ð°Ð³Ð½Ð¸ÑĤÐ½ÑĭÐ¼": 2368,
      "ĠÐĲÐ»Ð³Ð¾ÑĢÐ¸ÑĤÐ¼": 2369,
      "ĠPretrain": 2370,
      "ĠÐ·Ð°ÐºÐ¾Ð½Ð¾Ð¼ÐµÑĢÐ½Ð¾ÑģÑĤÐ¸": 2371,
      "ĠÐ¸ÑģÑĤÐ¾ÑĢ": 2372,
      "ĠÐ¸Ð·Ð»ÑĥÑĩÐµÐ½Ð¸ÐµÐ¼": 2373,
      "ĠÐ´Ð²Ð¸Ð¶ÐµÐ½Ð¸Ñı": 2374,
      "ĠÐºÐ¾Ð½ÐµÑĩÐ½Ð¾Ð¹": 2375,
      "ĠPretraining": 2376,
      "Git": 2377,
      "dit": 2378,
      "hre": 2379,
      "ling": 2380,
      "mode": 2381,
      "ĠÑĢÐµÐ±": 2382,
      "Ġmode": 2383,
      "ÑĢÐ¾Ð·": 2384,
      "ĠÐ¿Ð¾ÑĢÑıÐ´": 2385,
      "Ð·Ð°Ð´": 2386,
      "Ð¼Ð¾Ð¶": 2387,
      "ÐµÐ»ÐµÐ¼": 2388,
      "Ð¸ÑĤÐµÐºÑĤ": 2389,
      "Ð¸Ð½Ð°Ð¼": 2390,
      "ĠÑĥÐ³": 2391,
      "ÐµÐºÑĤÐ¸ÑĢÐ¾Ð²": 2392,
      "Ð¾Ð»ÑĮÐ·ÑĥÐµÑĤ": 2393,
      "ĠÐ¿ÑĢÐ¾ÐµÐºÑĤÐ¸ÑĢÐ¾Ð²": 2394,
      "ondit": 2395,
      "ĠÑĢÐµÐ·ÑĥÐ»ÑĮÑĤÐ°ÑĤÑĭ": 2396,
      "ĠÐ¿Ð¾Ð´Ð·Ð°Ð´": 2397,
      "ĠÐĶÐ¸Ð½Ð°Ð¼": 2398,
      "ĠÐ²ÑħÐ¾Ð´Ð½ÑĭÐµ": 2399,
      "ĠÐĵÑĢÐ°ÑĦ": 2400,
      "ĠÐ°Ð½Ð°Ð»Ð¸Ð·Ð¸ÑĢÑĥÐµÑĤ": 2401,
      "ĠÐ¿ÐµÑĢÐµÐ¸ÑģÐ¿": 2402,
      "ĠThre": 2403,
      "ĠÑĥÑĩÐ¸ÑĤÐµÐ»ÐµÐ¼": 2404,
      "ĠRac": 2405,
      "ĠÑįÑĤÐ°Ð¿": 2406,
      "ĠÐ¤ÑĥÐ½ÐºÑĨÐ¸Ñı": 2407,
      "ĠÐ²Ð¾Ð·Ð¼Ð¾Ð¶": 2408,
      "ĠÑĨÐµÐ»ÐµÐ²ÑĭÐµ": 2409,
      "ĠÐ¿ÑĢÐ¾Ð³ÑĢÐ°Ð¼Ð¼Ð¸ÑĢÐ¾Ð²Ð°Ð½Ð¸Ðµ": 2410,
      "ĠÐ¾ÑĪÐ¸Ð±ÐºÑĥ": 2411,
      "ĠÐºÐ¾Ð½ÐºÑĥÑĢÐµÐ½ÑĤÐ½Ð¾Ð³Ð¾": 2412,
      "Ġcondit": 2413,
      "ĠÐ²ÐµÑĢÑĪÐ¸Ð½": 2414,
      "ÑĢÑħÐ¸ÑĤÐµÐºÑĤ": 2415,
      "ĠÑĢÐµÐ±ÐµÑĢ": 2416,
      "Ġmodeling": 2417,
      "ÑĢÐ¾Ð·Ñĭ": 2418,
      "ĠÐ¿Ð¾ÑĢÑıÐ´ÐºÐ°": 2419,
      "ĠÑĥÐ³ÑĢÐ¾Ð·Ñĭ": 2420,
      "ĠÐ¿ÑĢÐ¾ÐµÐºÑĤÐ¸ÑĢÐ¾Ð²Ð°Ð½Ð¸Ñı": 2421,
      "ĠÐ¿Ð¾Ð´Ð·Ð°Ð´Ð°Ñĩ": 2422,
      "ĠÐĶÐ¸Ð½Ð°Ð¼Ð¸ÑĩÐµÑģÐºÐ¾Ðµ": 2423,
      "ĠÐ¿ÐµÑĢÐµÐ¸ÑģÐ¿Ð¾Ð»ÑĮÐ·ÑĥÐµÑĤ": 2424,
      "ĠThreat": 2425,
      "ĠRace": 2426,
      "ĠÑįÑĤÐ°Ð¿Ðµ": 2427,
      "ĠÐ²Ð¾Ð·Ð¼Ð¾Ð¶Ð½ÑĭÐµ": 2428,
      "Ġcondition": 2429,
      "ÑĢÑħÐ¸ÑĤÐµÐºÑĤÑĥ": 2430,
      "kpro": 2431,
      "pag": 2432,
      "Ð¸Ð»Ñĥ": 2433,
      "ĠÐ¸Ñħ": 2434,
      "ĠÐ¿ÑĢÐ¾ÑĤ": 2435,
      "ÐµÐ¼Ð¿": 2436,
      "Ð¾Ð½Ð½ÑĭÐ¼": 2437,
      "Ð¸ÑģÐ»Ð¾": 2438,
      "ĠÐ³ÑĢÐ°Ð´Ð¸ÐµÐ½ÑĤ": 2439,
      "ĠÑĨÐµÐ¿": 2440,
      "ĠBac": 2441,
      "ĠÐ§Ð¸ÑģÐ»Ð¾": 2442,
      "ĠÑħÐ¸Ð¼Ð¸ÑĩÐµÑģÐºÐ¸Ð¹": 2443,
      "ĠÐ¸ÑģÑħÐ¾Ð´Ð½Ð¾Ð³Ð¾": 2444,
      "ĠÐ¿ÑĢÐ°Ð²Ð¸Ð»Ñĥ": 2445,
      "ĠÐ¸ÑģÑĤÐ¾ÑĢÐ¸Ñİ": 2446,
      "kpropag": 2447,
      "ĠÐ¿ÑĢÐ¾ÑĤÐ¾Ð½Ð¾Ð²": 2448,
      "ĠÐ³ÑĢÐ°Ð´Ð¸ÐµÐ½ÑĤÑĭ": 2449,
      "ĠÑĨÐµÐ¿Ð¾ÑĩÐºÐ¸": 2450,
      "ĠBackpropag": 2451,
      "ĠBackpropagation": 2452,
      "ĠÐ¡Ð²ÐµÑĤ": 2453,
      "ĠGit": 2454,
      "Ð½ÐµÐ½Ð¸Ñı": 2455,
      "ÑıÑİ": 2456,
      "Ð»Ð°Ð½Ð¸": 2457,
      "Ð·ÐµÐ¼Ð¿": 2458,
      "ĠÐ¾ÑģÐ½Ð¾Ð²Ð½ÑĭÐµ": 2459,
      "ÑħÑĢÐ°Ð½": 2460,
      "Ð¾Ð²Ð°Ð»": 2461,
      "Ð¾ÑĢÐ½Ð¾Ðµ": 2462,
      "Ð¾Ð´Ð°ÑĢ": 2463,
      "ÑīÐ¸Ðº": 2464,
      "ĠÑģÐ¸ÑģÑĤÐµÐ¼Ðµ": 2465,
      "Ð»ÑıÑĢ": 2466,
      "ĠÑĥÑĢÐ°Ð²": 2467,
      "ÐµÐ½ÑĤÐ½Ð°Ñı": 2468,
      "ĠÐŁÐ»Ð°Ð½Ð¸": 2469,
      "ÑĢÐ¾Ð²ÑīÐ¸Ðº": 2470,
      "ĠÐļÐ¾Ð²Ð°Ð»": 2471,
      "ÑĢÐ°ÐºÑĤÐ½ÑĭÐµ": 2472,
      "ĠÐĲÑĢÑħÐ¸ÑĤÐµÐºÑĤÑĥ": 2473,
      "ĠÑģÐ¾ÑħÑĢÐ°Ð½": 2474,
      "ĠÑįÐ»ÐµÐºÑĤÑĢÐ¾Ð½Ð½ÑĭÐ¼": 2475,
      "Ð°Ð³Ð¾Ð´Ð°ÑĢ": 2476,
      "ĠÐºÐ¾Ð¼Ð¿Ð¾Ð½ÐµÐ½ÑĤÑĭ": 2477,
      "ĠÐ±Ð»Ð°Ð³Ð¾Ð´Ð°ÑĢ": 2478,
      "ĠÐ¿ÑĢÐ¾ÑĨÐµÑģÑģÐ¾ÑĢÐ½Ð¾Ðµ": 2479,
      "ĠÐ¾Ð±ÑīÐ¸Ð¼": 2480,
      "ÑīÐ¸Ð¹ÑģÑı": 2481,
      "ĠÑįÐºÐ·ÐµÐ¼Ð¿": 2482,
      "ĠÑģÑĤÑĢÑĥÐºÑĤÑĥÑĢÑĭ": 2483,
      "ĠÐ°Ð±ÑģÑĤÑĢÐ°ÐºÑĤÐ½ÑĭÐµ": 2484,
      "ĠÐŁÑĢÐ¾ÑĨÐµÑģÑģ": 2485,
      "ĠÐ²ÑĭÐ¿Ð¾Ð»Ð½ÑıÑİ": 2486,
      "ĠÐĲÐ»Ð³ÐµÐ±ÑĢÐ°": 2487,
      "ĠÑĢÐ°ÑģÐ¿ÑĢÐµÐ´ÐµÐ»ÑıÐµÑĤ": 2488,
      "ĠÑĥÑĢÐ°Ð²Ð½ÐµÐ½Ð¸Ñı": 2489,
      "ĠÐŁÐ»Ð°Ð½Ð¸ÑĢÐ¾Ð²ÑīÐ¸Ðº": 2490,
      "ĠÐļÐ¾Ð²Ð°Ð»ÐµÐ½ÑĤÐ½Ð°Ñı": 2491,
      "ĠÐĲÑĢÑħÐ¸ÑĤÐµÐºÑĤÑĥÑĢÐ°": 2492,
      "ĠÐ±Ð»Ð°Ð³Ð¾Ð´Ð°ÑĢÑı": 2493,
      "ĠÑįÐºÐ·ÐµÐ¼Ð¿Ð»ÑıÑĢ": 2494,
      "ĠÐ²ÑĭÐ¿Ð¾Ð»Ð½ÑıÑİÑīÐ¸Ð¹ÑģÑı": 2495,
      "ci": 2496,
      "sion": 2497,
      "Ð°Ð½Ð¸Ð¹": 2498,
      "ĠÑĤÐ¾Ñĩ": 2499,
      "ĠÐ¿ÑĢÐµÐ´ÑģÐºÐ°Ð·Ð°Ð½Ð¸Ð¹": 2500,
      "ĠPreci": 2501,
      "ĠÑĤÐ¾ÑĩÐ½Ð¾ÑģÑĤÑĮ": 2502,
      "ĠPrecision": 2503,
      "ĠÐĴÐ¸ÑĢ": 2504,
      "ÑĤÑĥÐ°Ð»ÑĮ": 2505,
      "ĠÐ¿Ð°Ð¼ÑıÑĤÑĮ": 2506,
      "ĠÐ¿ÑĢÐ¾ÑĨÐµÑģÑģÐ°Ð¼": 2507,
      "ĠÐ°Ð´ÑĢÐµÑģÐ½ÑĭÐµ": 2508,
      "ĠÐĴÐ¸ÑĢÑĤÑĥÐ°Ð»ÑĮ": 2509,
      "ĠÐĴÐ¸ÑĢÑĤÑĥÐ°Ð»ÑĮÐ½Ð°Ñı": 2510,
      "oPE": 2511,
      "ra": 2512,
      "ĠÐ²ÑĢÐ°Ñī": 2513,
      "Ð¾Ð´ÑĥÐ»ÑĮ": 2514,
      "ÑĨÐ¸Ð¾Ð½": 2515,
      "ĠÐľÐ¾Ð´ÑĥÐ»ÑĮ": 2516,
      "ĠRoPE": 2517,
      "ĠÐ²ÐµÐºÑĤÐ¾ÑĢÐ¾Ð²": 2518,
      "ĠÑģÐ²ÑıÐ·Ð°Ð½Ð½Ð¾ÑģÑĤÑĮ": 2519,
      "ĠÐ¿Ð¾Ð·Ð¸ÑĨÐ¸Ð¾Ð½": 2520,
      "ĠÑĥÐ¼ÐµÐ½ÑĮÑĪÐ°ÐµÑĤ": 2521,
      "ĠÐºÐ¾Ð´Ð¸ÑĢÑĥÐµÑĤ": 2522,
      "ĠÐ²ÑĢÐ°ÑīÐµÐ½Ð¸ÐµÐ¼": 2523,
      "ĠÐľÐ¾Ð´ÑĥÐ»ÑĮÐ½Ð¾ÑģÑĤÑĮ": 2524,
      "ĠÐ¿Ð¾Ð·Ð¸ÑĨÐ¸Ð¾Ð½Ð½ÑĥÑİ": 2525,
      "ÐµÑĤÐ¾Ð¼": 2526,
      "Ð»Ð¾Ð¶": 2527,
      "Ð¾Ð²Ð°Ð½Ð¸Ñı": 2528,
      "ĠÐ¿ÑĢÐ¸Ð»Ð¾Ð¶": 2529,
      "ĠÑģÐµÑĤÐ¸": 2530,
      "ĠÐ½ÐµÐ¹ÑĢ": 2531,
      "PO": 2532,
      "Ð¾ÐµÐ²": 2533,
      "Ð¸ÑģÑĤÐµÐ¼": 2534,
      "ÑĤÐµÐ½Ð¸Ð¹": 2535,
      "ÐµÑĤÐ°Ð¼Ð¸": 2536,
      "ĠÐ²Ð½Ð¸Ð¼Ð°Ð½Ð¸Ñı": 2537,
      "Ð¾Ð½Ð½ÑĭÐµ": 2538,
      "Ð¾ÐºÐ¾Ðµ": 2539,
      "ĠÑģÐ»Ð¾ÐµÐ²": 2540,
      "Ð±Ð¾ÐºÐ¾Ðµ": 2541,
      "ĠÐĵÐ»Ñĥ": 2542,
      "Ð¾ÑĩÑĤÐµÐ½Ð¸Ð¹": 2543,
      "ĠÐ¿ÑĢÐµÐ´Ð¿Ð¾ÑĩÑĤÐµÐ½Ð¸Ð¹": 2544,
      "ĠDPO": 2545,
      "ĠÐ±Ð¾Ð»ÑĮÑĪÐ¸Ð¼": 2546,
      "ĠÐ¾ÑĤÐ²ÐµÑĤÐ°Ð¼Ð¸": 2547,
      "ĠÐ½ÐµÐ¹ÑĢÐ¾Ð½Ð½ÑĭÐµ": 2548,
      "ĠÐĵÐ»ÑĥÐ±Ð¾ÐºÐ¾Ðµ": 2549,
      "Attention": 2550,
      "as": 2551,
      "eed": 2552,
      "for": 2553,
      "form": 2554,
      "feed": 2555,
      "hAttention": 2556,
      "las": 2557,
      "ns": 2558,
      "war": 2559,
      "Ġfeed": 2560,
      "ĠÐ¸ÐµÑĢ": 2561,
      "ÑħÐ¸Ð¸": 2562,
      "Ð¿ÑĤ": 2563,
      "ÑıÐµÑĤÑģÑı": 2564,
      "Ð°ÑĢÑħÐ¸Ð¸": 2565,
      "ĠÑĥÑĩÐµÑĤÐ¾Ð¼": 2566,
      "ĠÐ²ÑĭÑĩÐ¸ÑģÐ»ÐµÐ½Ð¸Ðµ": 2567,
      "ĠÐ¿ÑĢÐµÐ¾Ð±ÑĢÐ°Ð·Ð¾Ð²Ð°Ð½Ð¸Ñı": 2568,
      "ĠTra": 2569,
      "ĠÐ±Ð»Ð¾ÐºÐ¸": 2570,
      "Ð½ÐµÑĢÐ³Ð¸Ñı": 2571,
      "ĠFlas": 2572,
      "forwar": 2573,
      "former": 2574,
      "nsformer": 2575,
      "ĠÐ¸ÐµÑĢÐ°ÑĢÑħÐ¸Ð¸": 2576,
      "ĠTransformer": 2577,
      "ĠFlashAttention": 2578,
      "forward": 2579,
      "ÑĭÑĩ": 2580,
      "ĠÐ¾Ð±ÑĭÑĩ": 2581,
      "ĠÐ¡Ð¸ÑģÑĤÐµÐ¼": 2582,
      "ÑģÐ¸Ð¼Ð¼ÐµÑĤÑĢÐ¸Ñĩ": 2583,
      "ÑĥÐ´Ñĥ": 2584,
      "ĠÐºÑĢÐ¸": 2585,
      "ĠÐ¾Ð±ÑĢÐ°ÑĤ": 2586,
      "Ð¾Ð³ÑĢÐ°ÑĦ": 2587,
      "ĠÐ±ÑĥÐ´Ñĥ": 2588,
      "ĠÐŁÐ¾ÑĤ": 2589,
      "ĠÐĲÑģÐ¸Ð¼Ð¼ÐµÑĤÑĢÐ¸Ñĩ": 2590,
      "ĠÐºÐ»ÑİÑĩÐµÐ¹": 2591,
      "Ð¸ÑĤÑĮÑģÑı": 2592,
      "ĠÑģÐ²ÑıÐ·Ð°Ð½Ð½ÑĭÑħ": 2593,
      "ĠÐŃÐ½ÐµÑĢÐ³Ð¸Ñı": 2594,
      "ĠÐ¿Ð°ÑĢÑĥ": 2595,
      "ĠÑıÐ´ÑĢÑĥ": 2596,
      "ĠÐ¿ÑĢÐ¸Ð»Ð¾Ð¶ÐµÐ½Ð¸Ñİ": 2597,
      "Ð¿ÑĤÐ¾Ð³ÑĢÐ°ÑĦ": 2598,
      "ĠÐ¡Ð¸ÑģÑĤÐµÐ¼Ð½ÑĭÐ¹": 2599,
      "ĠÐºÑĢÐ¸Ð¿ÑĤÐ¾Ð³ÑĢÐ°ÑĦ": 2600,
      "ĠÐ¾Ð±ÑĢÐ°ÑĤÐ¸ÑĤÑĮÑģÑı": 2601,
      "ĠÐ±ÑĥÐ´ÑĥÑīÐ¸Ðµ": 2602,
      "ĠÐĲÑģÐ¸Ð¼Ð¼ÐµÑĤÑĢÐ¸ÑĩÐ½Ð°Ñı": 2603,
      "ĠÐºÑĢÐ¸Ð¿ÑĤÐ¾Ð³ÑĢÐ°ÑĦÐ¸Ñı": 2604,
      "Ð¸Ð»": 2605,
      "ĠÐ¸ÑģÐ¿Ð¾Ð»Ð½": 2606,
      "ĠÐ¿ÑĢÐ¾ÑĨÐµÑģÑģÐ°": 2607,
      "Ð¸ÑĢÐ¾Ð²Ð°Ð½Ð½Ð¾Ð¹": 2608,
      "ĠÐ²Ð½ÑĥÑĤÑĢÐ¸": 2609,
      "ĠÐ¸Ð·Ð¾Ð»Ð¸ÑĢÐ¾Ð²Ð°Ð½Ð½Ð¾Ð¹": 2610,
      "ĠÑģÐ¾ÑħÑĢÐ°Ð½ÑıÐµÑĤÑģÑı": 2611,
      "ĠÐŁÐ¾ÑĤÐ¾Ðº": 2612,
      "ĠÐ¸ÑģÐ¿Ð¾Ð»Ð½ÐµÐ½Ð¸Ñı": 2613,
      "au": 2614,
      "sal": 2615,
      "¯Ð·ÑĭÐº": 2616,
      "ÐµÐ½Ñĭ": 2617,
      "ĠÐ¸ÑģÐ¿Ð¾Ð»ÑĮÐ·Ð¾Ð²Ð°ÑĤÑĮ": 2618,
      "ÑĢÐµÑīÐ°ÐµÑĤ": 2619,
      "ĠÐ·Ð°Ð¿ÑĢÐµÑīÐ°ÐµÑĤ": 2620,
      "ĠÐŀÑĩÐµÑĢÐµÐ´ÑĮ": 2621,
      "ĠCau": 2622,
      "ĠÑĤÐ¾ÐºÐµÐ½Ñĭ": 2623,
      "ĠÐ¾Ð±ÑĭÑĩÐ½Ð¾": 2624,
      "ĠCausal": 2625,
      "Ð¸Ð½Ð°": 2626,
      "ĠÐ¯Ð·ÑĭÐº": 2627,
      "ĠÑģÐµÐº": 2628,
      "ĠÐ¾ÑĨ": 2629,
      "Ð¾Ð²Ð°Ñı": 2630,
      "ÐµÑĢÑĤ": 2631,
      "ĠÐºÐ¾Ð¼": 2632,
      "ĠÐ¿Ð¾ÑģÐ»ÐµÐ´Ð¾Ð²Ð°ÑĤÐµÐ»ÑĮÐ½Ð¾ÑģÑĤÐµÐ¹": 2633,
      "ĠÐ²ÐµÑĢÐ¾ÑıÑĤ": 2634,
      "ĠÑĤÐ¾ÐºÐµÐ½Ð¾Ð²": 2635,
      "ÐµÐ½Ð¸Ð²Ð°ÐµÑĤ": 2636,
      "ĠÐ¯Ð·ÑĭÐºÐ¾Ð²Ð°Ñı": 2637,
      "ĠÐ¾ÑĨÐµÐ½Ð¸Ð²Ð°ÐµÑĤ": 2638,
      "ĠÐ²ÐµÑĢÐ¾ÑıÑĤÐ½Ð¾ÑģÑĤÐ¸": 2639,
      "ÑĥÐ»": 2640,
      "ĠÐ¾Ð±ÑīÐ¸Ð¹": 2641,
      "ĠÐ¡Ð¸Ð¼Ð¼ÐµÑĤÑĢÐ¸Ñĩ": 2642,
      "ĠÑįÐºÑģÐ¿": 2643,
      "ĠÑĪÐ¸ÑĦÑĢÐ¾Ð²": 2644,
      "ĠÑģÐµÐºÑĢÐµÑĤÐ½ÑĭÐ¹": 2645,
      "ĠÐ¡Ð¸Ð¼Ð¼ÐµÑĤÑĢÐ¸ÑĩÐ½Ð¾Ðµ": 2646,
      "ĠÑĪÐ¸ÑĦÑĢÐ¾Ð²Ð°Ð½Ð¸Ðµ": 2647,
      "ix": 2648,
      "of": 2649,
      "per": 2650,
      "ts": 2651,
      "tu": 2652,
      "xper": 2653,
      "Ġof": 2654,
      "ÐºÐ¾": 2655,
      "ĠÑĤÐ¾Ð»ÑĮ": 2656,
      "ĠÐ°ÐºÑĤ": 2657,
      "ĠÐ¼Ð¾Ð´ÑĥÐ»": 2658,
      "Ð¸Ð²Ð¸ÑĢÑĥÐµÑĤ": 2659,
      "ĠÑĩÐ°ÑģÑĤÑĮ": 2660,
      "ĠMix": 2661,
      "ĠExper": 2662,
      "ÐµÑĢÑĤÐ½ÑĭÑħ": 2663,
      "ĠÑįÐºÑģÐ¿ÐµÑĢÑĤÐ½ÑĭÑħ": 2664,
      "ture": 2665,
      "ĠÑĤÐ¾Ð»ÑĮÐºÐ¾": 2666,
      "ĠÐ°ÐºÑĤÐ¸Ð²Ð¸ÑĢÑĥÐµÑĤ": 2667,
      "ĠÐ¼Ð¾Ð´ÑĥÐ»ÐµÐ¹": 2668,
      "ĠMixture": 2669,
      "ĠExperts": 2670,
      "Ð¸ÐºÑģ": 2671,
      "ĠÑĦÐ¸ÐºÑģ": 2672,
      "Ð²ÐµÑĪ": 2673,
      "Ð´ÐµÐ½Ð¸Ñı": 2674,
      "Ð±Ð¸Ð½Ð°": 2675,
      "ĠÐ²Ð·Ð²ÐµÑĪ": 2676,
      "ĠAttention": 2677,
      "ĠÐºÐ¾Ð¼Ð±Ð¸Ð½Ð°": 2678,
      "ĠÐ²Ð·Ð²ÐµÑĪÐµÐ½Ð½ÑĥÑİ": 2679,
      "ĠÐºÐ¾Ð¼Ð±Ð¸Ð½Ð°ÑĨÐ¸Ñİ": 2680,
      "ĠÑģÐ¾Ð¾Ð±ÑīÐµÐ½Ð¸Ñı": 2681,
      "¿Ð»": 2682,
      "ĠÐ¦": 2683,
      "Ð°ÑĪ": 2684,
      "Ð½Ð°Ð»": 2685,
      "Ð½Ð°Ð³": 2686,
      "ÐºÑĢÐµÐ": 2687,
      "ĠÑģÐ¸Ð³": 2688,
      "ĠÐ¿Ð¾Ð´ÐºÑĢÐµÐ": 2689,
      "ĠÐ·Ð½Ð°ÑĩÐµÐ½Ð¸Ðµ": 2690,
      "ĠÐ²Ð¾Ð·Ð½Ð°Ð³": 2691,
      "Ð¸ÑĢÐ¾Ð²Ð°Ð½Ð½Ð¾Ð³Ð¾": 2692,
      "ĠÑĢÐ°Ð·Ð¼ÐµÑĢÐ°": 2693,
      "ÑĦÑĥÐ½ÐºÑĨÐ¸Ñı": 2694,
      "ÑĢÐ°Ð¶Ð´ÐµÐ½Ð¸Ñı": 2695,
      "ĠÑĦÐ¸ÐºÑģÐ¸ÑĢÐ¾Ð²Ð°Ð½Ð½Ð¾Ð³Ð¾": 2696,
      "¿Ð»ÐµÐ½Ð¸ÐµÐ¼": 2697,
      "ĠÑģÐ¸Ð³Ð½Ð°Ð»": 2698,
      "ĠÐ¿Ð¾Ð´ÐºÑĢÐµÐ¿Ð»ÐµÐ½Ð¸ÐµÐ¼": 2699,
      "ĠÐ²Ð¾Ð·Ð½Ð°Ð³ÑĢÐ°Ð¶Ð´ÐµÐ½Ð¸Ñı": 2700,
      "ĠÐ½ÐµÐ¾Ð±": 2701,
      "ĠÐ¿Ð¾Ð´Ð¿Ð¸Ñģ": 2702,
      "Ð¸ÑĦÑĢÐ¾Ð²Ð°Ñı": 2703,
      "ĠÐ¦Ð¸ÑĦÑĢÐ¾Ð²Ð°Ñı": 2704,
      "ĠÐ½ÐµÐ¾Ð±ÑħÐ¾Ð´": 2705,
      "ĠÐ¿Ð¾Ð´Ð¿Ð¸ÑģÑĮ": 2706,
      "ÑĥÐ¼": 2707,
      "ĠÐ½ÐµÐ¾Ð±ÑħÐ¾Ð´Ð¸Ð¼": 2708,
      "Ð¸Ð½Ð½Ð¾Ðµ": 2709,
      "Ð¸ÐºÐ°ÑĨÐ¸Ñı": 2710,
      "ĠÐľÐ°ÑĪ": 2711,
      "ĠÐ·Ð°ÐºÐ¾Ð½Ð¾Ð¼ÐµÑĢÐ½Ð¾ÑģÑĤÐµÐ¹": 2712,
      "ĠÐľÐ°ÑĪÐ¸Ð½Ð½Ð¾Ðµ": 2713,
      "ĠÐ¿ÑĢÐ¸Ð²": 2714,
      "ÐµÐ³Ð¸Ð¹": 2715,
      "Ð°Ð»ÑĮÐ½ÑĭÑħ": 2716,
      "Ð¸Ð½ÑĨÐ¸Ð¿": 2717,
      "ĠÐŁÑĢÐ¸Ð½ÑĨÐ¸Ð¿": 2718,
      "ĠÐ¿ÑĢÐ°Ð²Ð°": 2719,
      "ĠÐ¼Ð¸Ð½Ð¸Ð¼ÑĥÐ¼": 2720,
      "ĠÐ¼Ð¸Ð½Ð¸Ð¼Ð°Ð»ÑĮÐ½ÑĭÑħ": 2721,
      "Ð¸Ð»ÐµÐ³Ð¸Ð¹": 2722,
      "ĠÐ½ÐµÐ¾Ð±ÑħÐ¾Ð´Ð¸Ð¼ÑĭÐ¼": 2723,
      "ĠÐ¿ÑĢÐ¸Ð²Ð¸Ð»ÐµÐ³Ð¸Ð¹": 2724,
      "ĠÐ¼Ð¸Ð½Ð¸Ð¼ÑĥÐ¼Ð¾Ð¼": 2725,
      "ĠÐ¿Ð¾Ð»ÑĮÐ·": 2726,
      "Ð¸ÑĩÐ½Ð¾ÑģÑĤÑĮ": 2727,
      "Ð¾Ð²Ð°ÑĤÐµÐ»Ñı": 2728,
      "ĠÐ»Ð¸ÑĩÐ½Ð¾ÑģÑĤÑĮ": 2729,
      "ĠÐĲÑĥÑĤ": 2730,
      "ÐµÐ½ÑĤÐ¸ÑĦÐ¸ÐºÐ°ÑĨÐ¸Ñı": 2731,
      "ĠÐ¿Ð¾Ð»ÑĮÐ·Ð¾Ð²Ð°ÑĤÐµÐ»Ñı": 2732,
      "ĠÐĲÑĥÑĤÐµÐ½ÑĤÐ¸ÑĦÐ¸ÐºÐ°ÑĨÐ¸Ñı": 2733,
      "čĊ": 2734,
      "Ð¡": 2735,
      "Ð¾Ð»Ð¸ÑĨ": 2736,
      "Ð¾Ð»Ð¸ÑĨÐµÐ¹": 2737,
      "ĠÑĢÐ°ÑģÐ¿": 2738,
      "ĠÑģÑĤÐ¾Ð»Ð¸ÑĨÐµÐ¹": 2739,
      "ĠÐ¸Ð·Ð¼ÐµÑĢÑıÐµÑĤÑģÑı": 2740,
      "Ðĺ": 2741,
      "Ð¢": 2742,
      "ÑĢÐ¾ÑģÑĤÑĢÐ°Ð½": 2743,
      "ÐµÑĤÐ°": 2744,
      "ĠÐ¾ÐºÐµ": 2745,
      "ĠÐ¿Ð¾Ð½ÑıÑĤÐ¸Ðµ": 2746,
      "ĠÑĦÐ°ÐºÑĤ": 2747,
      "ÑģÐ½Ð¾Ð²Ð½Ð¾Ðµ": 2748,
      "ÐŀÑģÐ½Ð¾Ð²Ð½Ð¾Ðµ": 2749,
      "ĠÑĢÐ°ÑģÐ¿ÑĢÐ¾ÑģÑĤÑĢÐ°Ð½": 2750,
      "ĠÐ¾ÐºÐµÐ°Ð½": 2751,
      "ÐĲ": 2752,
      "ÐŁ": 2753,
      "ĠÑģÐ²ÐµÑĤÐ°": 2754,
      "Ð°Ñħ": 2755,
      "ĠÐ¡Ðĺ": 2756,
      "ĠÐĲÐ¼ÐµÑĢ": 2757,
      "ĠÑĩÐ°ÑģÑĤÑĮÑİ": 2758,
      "ĠÑĢÐ°ÑģÐ¿Ð¾Ð»Ð¾Ð¶": 2759,
      "ÑģÑĤÑĢÐ°Ð»": 2760,
      "Ð¿ÐµÑĢ": 2761,
      "ĠÐĲÑĦ": 2762,
      "ÐµÑģÑĤÐ²ÐµÐ½Ð½Ð¾": 2763,
      "Ð¡Ð¿ÑĢÐ°Ð²ÐºÐ°": 2764,
      "Ðľ": 2765,
      "ÐµÐµÑĤ": 2766,
      "ÑĢÐ¾Ð»": 2767,
      "ĠÐ¸Ð¼": 2768,
      "Ð»ÑıÑİÑĤ": 2769,
      "Ð¾ÐºÑĥ": 2770,
      "ĠÐ¿ÑĢÐ¾Ð³ÑĢÐ°Ð¼Ð¼Ð½Ð¾Ð³Ð¾": 2771,
      "ĠÐºÐ¾Ð½ÑĤÑĢÐ¾Ð»": 2772,
      "ĠÐ²ÐµÑĢÑģÐ¸Ð¹": 2773,
      "ĠÐ¸Ð¼ÐµÐµÑĤ": 2774,
      "ĠÐºÐ¾Ð½ÑĤÑĢÐ¾Ð»Ñı": 2775,
      "Ðł": 2776,
      "ÐŃ": 2777,
      "ÐµÐ¸Ð¼": 2778,
      "Ð¸ÐµÐ¹": 2779,
      "ÑĢÐ¾Ð¿": 2780,
      "ÑĥÐº": 2781,
      "ÑĥÑĪ": 2782,
      "ÑĥÑī": 2783,
      "Ð²ÐµÑĤ": 2784,
      "Ð²Ð°ÑĤÐ¾ÑĢ": 2785,
      "ĠÐ²Ð¾Ð»": 2786,
      "Ð¾Ð²ÑĭÐµ": 2787,
      "ÐµÑĢÐ½Ð¾Ð¼": 2788,
      "ĠÐ¿ÑĢÐµÐ¸Ð¼": 2789,
      "ĠÑģÐ¸ÑģÑĤÐµÐ¼Ð¾Ð¹": 2790,
      "ĠÐ¡ÐµÐ²": 2791,
      "ÐµÐºÐ°ÐµÑĤÑģÑı": 2792,
      "ĠÐ¾ÑĤÐ´": 2793,
      "ĠÐ¿Ð¾Ð»ÑĥÑĪ": 2794,
      "Ð°Ð´Ð¸": 2795,
      "Ð°ÑĢÐºÑĤ": 2796,
      "Ð¸ÐºÐ¾Ð¼": 2797,
      "ĠÑįÐºÐ²Ð°ÑĤÐ¾ÑĢ": 2798,
      "ĠÐĲÐ²ÑģÑĤÑĢÐ°Ð»": 2799,
      "ĠÐ¿Ð¾Ð·Ð²Ð¾Ð»Ð¸Ð»": 2800,
      "Ð½ÑĤÐ°ÑĢÐºÑĤ": 2801,
      "ĠÐ¿ÐµÑĢÐµÑģÐµÐºÐ°ÐµÑĤÑģÑı": 2802,
      "ĠÐĲÐ¼ÐµÑĢÐ¸ÐºÐ°": 2803,
      "ĠÑĢÐ°ÑģÐ¿Ð¾Ð»Ð¾Ð¶ÐµÐ½": 2804,
      "ÑĥÑīÐµÑģÑĤÐ²ÐµÐ½Ð½Ð¾": 2805,
      "ĠÐ¿ÑĢÐµÐ¸Ð¼ÑĥÑīÐµÑģÑĤÐ²ÐµÐ½Ð½Ð¾": 2806,
      "ĠÐ¡ÐµÐ²ÐµÑĢÐ½Ð¾Ð¼": 2807,
      "ĠÑįÐºÐ²Ð°ÑĤÐ¾ÑĢÐ¾Ð¼": 2808,
      "ÐµÑģÑĤÐ²": 2809,
      "Ð½Ð¾Ð¶": 2810,
      "Ð½Ð°Ð½Ð¸Ñı": 2811,
      "ÑĥÐ³": 2812,
      "Ð»Ð°": 2813,
      "ĠÐ´Ð¾ÐºÑĥ": 2814,
      "ĠÐ·Ð½Ð°Ð½Ð¸Ñı": 2815,
      "Ð°Ð½Ð¸Ð¸": 2816,
      "ĠÐ¼Ð½Ð¾Ð¶": 2817,
      "Ð¸Ð·Ð¸ÑĢÑĥÐµÑĤ": 2818,
      "ĠÑıÐ²Ð»ÑıÑİÑĤ": 2819,
      "ĠÐ³Ð¸": 2820,
      "ĠÐĲÐ·": 2821,
      "ĠÐ½Ð°Ð±Ð¾ÑĢ": 2822,
      "ĠÑĤÐµÐºÑģÑĤÐ¾Ð²": 2823,
      "ĠÐķÐ²": 2824,
      "ĠÐ®Ð¶": 2825,
      "ĠÐĲÑĦÑĢÐ¸": 2826,
      "ĠÐ´Ð¾ÐºÑĥÐ¼ÐµÐ½ÑĤÑĭ": 2827,
      "ĠÐ¼Ð½Ð¾Ð¶ÐµÑģÑĤÐ²": 2828,
      "ĠÑıÐ²Ð»ÑıÑİÑĤÑģÑı": 2829,
      "Ðĳ": 2830,
      "Ð¸Ð»Ð¸": 2831,
      "ÑĥÑĥÐ¼": 2832,
      "ÑĭÐ¹": 2833,
      "Ð¾Ð²ÑĭÑħ": 2834,
      "ÐµÐ½Ð¾Ñģ": 2835,
      "Ð°ÑĤÑĥ": 2836,
      "ĠÑĤÐµÐ¿": 2837,
      "ĠÑģÐ¸ÑģÑĤÐµÐ¼Ð°ÑĤ": 2838,
      "ÑĢÐ°Ð·Ð¸Ð»Ð¸": 2839,
      "ĠÐ¿ÐµÑĢÐµÐ½Ð¾Ñģ": 2840,
      "ĠÐ½Ð°ÑĥÑĩ": 2841,
      "Ð¸ÑĤÐµÐ»ÑĮÐ½Ð¾": 2842,
      "Ð°ÐºÑĥÑĥÐ¼": 2843,
      "ĠÐĲÐ½ÑĤÐ°ÑĢÐºÑĤ": 2844,
      "ĠÑįÐ»ÐµÐºÑĤÑĢÐ¸ÑĩÐµÑģÐºÐ¸Ð¹": 2845,
      "ĠÑıÐ·ÑĭÐºÐ°Ð¼Ð¸": 2846,
      "ĠÑįÐ½ÐµÑĢÐ³Ð¸Ñı": 2847,
      "ĠÐ¾Ð±ÐµÑģÐ¿ÐµÑĩÐµÐ½Ð¸Ñı": 2848,
      "ĠÑģÐ¾ÑħÑĢÐ°Ð½ÑıÑİÑĤ": 2849,
      "ÐŁÑĢ": 2850,
      "Bra": 2851,
      "ge": 2852,
      "mm": 2853,
      "omm": 2854,
      "§ÐµÐ»": 2855,
      "²Ð¾Ð»": 2856,
      "Ð¤": 2857,
      "Ð§ÐµÐ»": 2858,
      "ĠÑĢÐµÐ": 2859,
      "ĠÑĢÐ°Ð½": 2860,
      "ĠÑĢÐ°Ð´": 2861,
      "ĠÐĿ": 2862,
      "Ð¾ÑĥÐ»Ñı": 2863,
      "Ð¾ÑıÐ½Ð¸": 2864,
      "Ð¸ÐºÐ¸": 2865,
      "Ð°ÑĢÐ¾Ð²": 2866,
      "Ð°ÑĢÐ¸": 2867,
      "Ð°ÑĢÐ¸Ð¸": 2868,
      "ÑĤÐ»Ð°Ð½": 2869,
      "ÑĤÐ¸ÑĩÐµÑģÐºÐ¸Ð¹": 2870,
      "ÑĤÐ¾Ð»Ð¸ÑĨÐµÐ¹": 2871,
      "ÑĤÐ°Ñħ": 2872,
      "Ð½ÐµÑĤ": 2873,
      "ÑĢÑıÐ¶": 2874,
      "ÑĢÐ¾ÑģÑĤÐ¸": 2875,
      "ÑĢÐ¾Ð¿Ñĭ": 2876,
      "ÑģÑģÑĤ": 2877,
      "ÑģÑĭÐ»": 2878,
      "ÑıÐ¼": 2879,
      "ÑıÐµÐ¼": 2880,
      "ÑĥÐ±": 2881,
      "ÑĭÐ³": 2882,
      "ĠÐ¿Ð¾Ðº": 2883,
      "Ð½Ð¸Ð³": 2884,
      "ÐµÑĤÑĭ": 2885,
      "ÐµÑĤÐ¾Ðº": 2886,
      "Ð»Ð¾": 2887,
      "Ð»Ð¸Ð½": 2888,
      "Ð»ÐµÐºÑĤ": 2889,
      "ÑģÑĤÑĢÐ¸": 2890,
      "ÑĮÐ¼ÐµÐ½": 2891,
      "ÐºÐ¾Ð¹": 2892,
      "ÐºÑĢÑĥÐ¶": 2893,
      "Ð²ÑıÐ·": 2894,
      "Ð²ÐµÑĢÑĤ": 2895,
      "Ð²ÑĥÐº": 2896,
      "ĠÑģÑģÑĭÐ»": 2897,
      "ĠÑģÑĭÐ³": 2898,
      "Ð¼Ð°Ð½Ð¸Ð¸": 2899,
      "ĠÐ¾ÐºÑĢÑĥÐ¶": 2900,
      "ÑħÐµ": 2901,
      "ÐµÐ½Ð¸Ð»Ð°": 2902,
      "ĠÐ²Ð¾Ð»ÑĮ": 2903,
      "ĠÐ²Ð¾Ð»Ð½": 2904,
      "ĠÐ²ÐµÑģÑĤ": 2905,
      "ĠÐ²ÐµÑĤÐ¾Ðº": 2906,
      "Ð¾Ð²ÐµÐº": 2907,
      "Ð¾Ð²Ð¾Ðµ": 2908,
      "ÐµÑĢÐ½ÑĭÑħ": 2909,
      "ÐµÑĢÐ¾Ð³": 2910,
      "ÐµÑĢÐ»Ð¸Ð½": 2911,
      "ÐµÑĢÐ¼Ð°Ð½Ð¸Ð¸": 2912,
      "ÑĨÐ°ÑĤ": 2913,
      "ĠÐ¿ÑĢÐ¾Ð¼Ñĭ": 2914,
      "ÐµÐ»ÐµÐ³": 2915,
      "ÐµÐ»ÐµÑĦ": 2916,
      "ÐµÐ¼Ð¸ÑĢ": 2917,
      "ÑİÑģ": 2918,
      "ÑİÑĨÐ¸Ñı": 2919,
      "Ð¾Ð»Ð¾Ñģ": 2920,
      "Ð¾Ð»ÐµÐ½Ð¸ÑıÐ¼Ð¸": 2921,
      "Ð¾Ð´Ñĭ": 2922,
      "Ð°ÑĤÐ°Ð½Ð¸Ðµ": 2923,
      "ĠÐ´Ð¶": 2924,
      "ĠÐºÐ°Ðº": 2925,
      "ĠÐºÐ¸Ð»": 2926,
      "Ð¾Ð½Ð°Ñħ": 2927,
      "ÑģÐºÐ¸Ð¹": 2928,
      "Ð°Ð½Ð´": 2929,
      "Ð´Ð¸Ð¹": 2930,
      "ĠÐ¼Ð°ÑĪ": 2931,
      "ĠÐ½ÑĮÑİÑĤ": 2932,
      "Ð¸ÑģÑĮÐ¼ÐµÐ½": 2933,
      "ÑĪÐ»ÐµÐ½": 2934,
      "Ð°ÑĨÐ¸ÐµÐ¹": 2935,
      "ĠÑĤÑĢÐ°Ð½": 2936,
      "ĠÑĤÑĢÐ¾Ð¿": 2937,
      "ÐµÐ»ÑĮÐ½ÑĥÑİ": 2938,
      "ĠÐ°ÑĢÑħÐ¸ÑĤÐµÐºÑĤÑĥ": 2939,
      "ÑģÐ¿Ð¾ÑĢÑĤ": 2940,
      "ÑĭÐ²Ð°Ð½Ð¸Ðµ": 2941,
      "ĠÐ±ÑĭÑĤ": 2942,
      "ĠÐ±ÑĭÐ»": 2943,
      "Ð¸ÑıÑħ": 2944,
      "ÑĦÐ¸ÐºÐ°ÑĨÐ¸Ñı": 2945,
      "ĠÐ¸Ð·Ð¼ÐµÐ½Ð¸Ð»Ð°": 2946,
      "Ð°Ð²Ð°ÑĤÑĮ": 2947,
      "ÑĢÐ¸ÑĦÐ¸ÐºÐ°ÑĨÐ¸Ñı": 2948,
      "ĠÐļÐ°Ð½": 2949,
      "ĠÐļÐ¾Ð·": 2950,
      "ĠÐ¸Ð½Ð´Ñĥ": 2951,
      "ĠÑĢÐ°Ð·Ð½ÑĭÑħ": 2952,
      "ĠÑĢÐ°Ð·ÑĢÐ°Ð±Ð¾ÑĤÐºÐ¸": 2953,
      "ĠÑĢÐ°Ð·Ð²ÐµÑĢÑĤ": 2954,
      "ĠÐ½Ð°ÑħÐ¾Ð´Ð¸ÑĤÑĮ": 2955,
      "Ð¾Ð¿ÐµÑĩ": 2956,
      "Ð°Ð»Ð¸Ð·Ð°ÑĨÐ¸Ð¸": 2957,
      "ÐµÐ²ÐµÑĢÐ½Ð°Ñı": 2958,
      "ĠÐ¿Ð¾Ð»ÑİÑģ": 2959,
      "ĠÐ³Ð¾Ð»Ð¾Ñģ": 2960,
      "Ð°Ð´Ð½Ð¾Ð¼": 2961,
      "Ð°ÑĢÐ¸ÑıÑħ": 2962,
      "ÑĢÐ°Ð½ÑĨÐ¸Ð¸": 2963,
      "ĠÐ»Ð¸Ð½Ð¸": 2964,
      "ĠÐ²Ð°Ð¶Ð½ÑĥÑİ": 2965,
      "Ð¾Ð³ÑĢÐ°Ð¼Ð¼Ð°": 2966,
      "ÑĥÑĤÐ¸Ð½Ð°": 2967,
      "ĠÐĵÐµÑĢÐ¼Ð°Ð½Ð¸Ð¸": 2968,
      "Ð´ÑĥÑħÐµ": 2969,
      "ĠÑĨÐ²": 2970,
      "ĠÑĢÐ°ÑģÑģÑĤ": 2971,
      "ĠÑģÐµÑĤÐµÐ¹": 2972,
      "ĠÑģÐµÑĤÑıÐ¼": 2973,
      "ĠÐ¿ÐµÑĢÐµÐ´Ð°Ð²Ð°ÑĤÑĮ": 2974,
      "ĠÐ¿ÑĢÐ¾Ð¸Ð·Ð²Ð¾Ð´ÑģÑĤÐ²Ð°": 2975,
      "ĠÐ¤ÑĢÐ°Ð½ÑĨÐ¸Ð¸": 2976,
      "ĠÐºÐ¾Ð¼Ð¿ÑĮÑİÑĤ": 2977,
      "ĠÐĳÑĢÐ°Ð·Ð¸Ð»Ð¸": 2978,
      "ÑĤÐµÐºÑģÑĤÐ¾Ð²ÑĭÐµ": 2979,
      "ÑĤÐµÑĢÐ½ÐµÑĤ": 2980,
      "ĠÑģÐ¾Ð±Ð¾Ð¹": 2981,
      "ÐĴÐ¾Ð´": 2982,
      "ĠÐ¿ÐµÑĢÐµÐ´Ð°ÑĩÑĥ": 2983,
      "ĠÐ·Ð½Ð°ÑĩÐ¸ÑĤÐµÐ»ÑĮÐ½Ð¾": 2984,
      "Ð°Ð¿ÑĢÑıÐ¶": 2985,
      "Ð°Ð¿Ð°Ð´Ð½Ð¾Ð¼": 2986,
      "erge": 2987,
      "ĠÐ²Ð¾Ð·Ð´ÑĥÑħÐµ": 2988,
      "ĠÐ·Ð²ÑĥÐº": 2989,
      "ĠÑĢÐ¾Ð»ÑĮ": 2990,
      "nch": 2991,
      "Ð¸Ð´Ð¾Ð¹": 2992,
      "ĠÐ¿Ð°ÑĥÑĤÐ¸Ð½Ð°": 2993,
      "Ð¾ÑģÐ²ÑıÐ·": 2994,
      "ĠÐĹÐ°Ð¿Ð°Ð´Ð½Ð¾Ð¼": 2995,
      "ĠÐ¼Ð°ÑĤÐµÑĢÐ¸ÐºÐ¾Ð¼": 2996,
      "ĠÑĥÑģÐºÐ¾ÑĢÐ¸Ð»": 2997,
      "ĠÐ¸Ð·Ð¼ÐµÐ½ÐµÐ½Ð¸ÑıÑħ": 2998,
      "ĠÐ¼ÐµÑħÐ°Ð½Ð¸Ð·Ð°ÑĨÐ¸ÐµÐ¹": 2999,
      "ĠÐ¼ÐµÑħÐ°Ð½Ð¸ÑĩÐµÑģÐºÐ°Ñı": 3000,
      "ĠÑįÐ»ÐµÐºÑĤÑĢÐ¾Ð¼Ð°Ð³Ð½Ð¸ÑĤÐ½ÑĭÐµ": 3001,
      "Ð¾Ð¼ÑĭÑĪÐ»": 3002,
      "ĠÐ°Ð¼Ð¿ÐµÑĢ": 3003,
      "ĠÐºÑĢÑĥÐ¿Ð½ÐµÐ¹ÑĪÐ¸Ð¼": 3004,
      "Ð¸ÑħÐ¸Ð¹": 3005,
      "ĠÑĥÐ¿ÑĢÐ¾ÑģÑĤÐ¸": 3006,
      "Ð¾ÑīÐ°Ð´Ð¸": 3007,
      "ĠÐ´Ð¾ÑģÑĤÐ°Ð²ÐºÑĥ": 3008,
      "ÑĢÐ°Ð»Ð°": 3009,
      "ĠÐ°Ð²ÑĤÐ¾Ð¼Ð°ÑĤÐ¸Ð·Ð¸ÑĢÑĥÐµÑĤ": 3010,
      "ĠÐ¿Ð»Ð¾ÑīÐ°Ð´Ð¸": 3011,
      "ĠÐ¼Ð°ÑģÑģÐ¾Ð²Ð¾Ðµ": 3012,
      "ĠÑģÑĢÐµÐ´Ñĭ": 3013,
      "ĠÑģÐ»Ð¾Ð²Ð°": 3014,
      "ĠÑĢÐ°ÑģÐ¿ÑĢÐµÐ´ÐµÐ»ÐµÐ½Ð½Ð¾Ð¹": 3015,
      "ĠÑģÐ¾ÑħÑĢÐ°Ð½ÑıÑĤÑĮ": 3016,
      "ĠÐ¾Ð±ÑĭÑĩÐ½ÑĭÑħ": 3017,
      "Ð¸Ð»Ð°": 3018,
      "ĠÐºÐ¾Ð¼Ð°Ð½Ð´": 3019,
      "ĠÑĦÐ¸ÐºÑģÐ¸ÑĢÑĥÐµÑĤ": 3020,
      "ĠÐ½ÐµÐ¾Ð±ÑħÐ¾Ð´Ð¸Ð¼Ð¾Ð¹": 3021,
      "Ð¡Ð²ÐµÑĤ": 3022,
      "Ð¡ÑĤÐ¾Ð»Ð¸ÑĨÐµÐ¹": 3023,
      "Ð¡ÐµÐ²ÐµÑĢÐ½Ð°Ñı": 3024,
      "ÐĺÐ½": 3025,
      "ĠÑĢÐ°ÑģÐ¿ÑĢÐ¾ÑģÑĤÑĢÐ°Ð½ÐµÐ½Ð¸Ñı": 3026,
      "ĠÑĢÐ°ÑģÐ¿ÑĢÐ¾ÑģÑĤÑĢÐ°Ð½ÐµÐ½Ð¸Ðµ": 3027,
      "ĠÑĢÐ°ÑģÐ¿ÑĢÐ¾ÑģÑĤÑĢÐ°Ð½ÑıÑĤÑĮ": 3028,
      "ĠÑĢÐ°ÑģÐ¿ÑĢÐ¾ÑģÑĤÑĢÐ°Ð½ÑıÐµÑĤÑģÑı": 3029,
      "ĠÐ¾ÐºÐµÐ°Ð½Ð¾Ð¼": 3030,
      "ĠÐĲÐ¼ÐµÑĢÐ¸ÐºÐ¸": 3031,
      "ĠÑĢÐ°ÑģÐ¿Ð¾Ð»Ð¾Ð¶ÐµÐ½Ð½Ð¾Ð¹": 3032,
      "Ð¿ÐµÑĢÑĤÐµÐºÑģÑĤÐ¾Ð²ÑĭÐµ": 3033,
      "ĠÐĲÑĦÑĢÐ¸ÐºÐ¸": 3034,
      "ÑĢÐ¾Ð¿Ð°": 3035,
      "ĠÐ²Ð¾Ð»Ð½Ñĭ": 3036,
      "ĠÐ²Ð¾Ð»Ð½Ð°": 3037,
      "ĠÐ¾ÑĤÐ´ÐµÐ»ÑıÐµÑĤ": 3038,
      "ĠÐ¾ÑĤÐ´ÐµÐ»ÑĮÐ½ÑĥÑİ": 3039,
      "ĠÐ¿Ð¾Ð»ÑĥÑĪÐ°ÑĢÐ¸Ð¸": 3040,
      "ĠÐ¿Ð¾Ð»ÑĥÑĪÐ°ÑĢÐ¸ÑıÑħ": 3041,
      "Ð°Ð´Ð¸Ð¾ÑģÐ²ÑıÐ·": 3042,
      "ĠÐĲÐ²ÑģÑĤÑĢÐ°Ð»Ð¸ÐµÐ¹": 3043,
      "ĠÐ¿Ð¾Ð·Ð²Ð¾Ð»Ð¸Ð»Ð°": 3044,
      "ĠÑĢÐ°ÑģÐ¿Ð¾Ð»Ð¾Ð¶ÐµÐ½Ð°": 3045,
      "ÑĥÐ³Ð¸": 3046,
      "ĠÐ³Ð¸Ð¿ÐµÑĢÑĤÐµÐºÑģÑĤÐ¾Ð²ÑĭÐµ": 3047,
      "ĠÐĲÐ·Ð¸ÐµÐ¹": 3048,
      "ĠÐ½Ð°Ð±Ð¾ÑĢÐ°": 3049,
      "ĠÐķÐ²ÑĢÐ¾Ð¿Ñĭ": 3050,
      "ĠÐ®Ð¶Ð½ÑĭÐ¹": 3051,
      "ĠÐĲÑĦÑĢÐ¸ÐºÐ¾Ð¹": 3052,
      "ĠÐ¼Ð½Ð¾Ð¶ÐµÑģÑĤÐ²Ð¾": 3053,
      "ĠÐĲÐ½ÑĤÐ°ÑĢÐºÑĤÐ¸Ð´Ð¾Ð¹": 3054,
      "Branch": 3055,
      "ommit": 3056,
      "²Ð¾Ð»ÑİÑĨÐ¸Ñı": 3057,
      "Ð§ÐµÐ»Ð¾Ð²ÐµÐº": 3058,
      "ĠÑĢÐµÐ²Ð¾Ð»ÑİÑĨÐ¸Ñı": 3059,
      "ĠÑĢÐ°Ð½Ð½ÐµÐ¹": 3060,
      "ĠÑĢÐ°Ð´ÑĥÐ³Ð¸": 3061,
      "Ð¾ÑĥÐ»ÑıÑħ": 3062,
      "Ð¾ÑıÐ½Ð¸Ñı": 3063,
      "Ð°ÑĢÐ¾Ð²Ð°Ñı": 3064,
      "Ð°ÑĢÐ¸Ð¶": 3065,
      "ÑĤÐ»Ð°Ð½ÑĤÐ¸ÑĩÐµÑģÐºÐ¸Ð¹": 3066,
      "ĠÐ¿Ð¾ÐºÐ¾Ð»ÐµÐ½Ð¸ÑıÐ¼Ð¸": 3067,
      "Ð½Ð¸Ð³Ð¾Ð¿ÐµÑĩ": 3068,
      "Ð»ÐµÐºÑĤÑĢÐ¸ÑĦÐ¸ÐºÐ°ÑĨÐ¸Ñı": 3069,
      "ÑģÑĤÑĢÐ¸Ð°Ð»Ð¸Ð·Ð°ÑĨÐ¸Ð¸": 3070,
      "ĠÑģÑģÑĭÐ»ÐºÐ¸": 3071,
      "ĠÑģÑĭÐ³ÑĢÐ°Ð»Ð°": 3072,
      "ĠÐ¾ÐºÑĢÑĥÐ¶Ð°ÐµÑĤ": 3073,
      "ĠÐ²Ð¾Ð»ÑĮÑĤÐ°Ñħ": 3074,
      "ĠÐ²ÐµÑģÑĤÐ¸": 3075,
      "ÐµÑĢÐ¾Ð³Ð°": 3076,
      "ĠÐ¿ÑĢÐ¾Ð¼ÑĭÑĪÐ»ÐµÐ½": 3077,
      "ÐµÐ»ÐµÐ³ÑĢÐ°ÑĦ": 3078,
      "ÐµÐ»ÐµÑĦÐ¾Ð½": 3079,
      "ÐµÐ¼Ð¸ÑĢÐ½Ð°Ñı": 3080,
      "ĠÐ´Ð¶Ð¾ÑĥÐ»ÑıÑħ": 3081,
      "ĠÐºÐ¸Ð»Ð¾Ð³ÑĢÐ°Ð¼Ð¼Ð°": 3082,
      "Ð´Ð¸Ð¹ÑģÐºÐ¸Ð¹": 3083,
      "ĠÐ¼Ð°ÑĪÐ¸Ð½Ð°": 3084,
      "ĠÐ½ÑĮÑİÑĤÐ¾Ð½Ð°Ñħ": 3085,
      "Ð¸ÑģÑĮÐ¼ÐµÐ½Ð½Ð¾ÑģÑĤÑĮ": 3086,
      "ĠÑĤÑĢÐ°Ð½ÑģÐ¿Ð¾ÑĢÑĤ": 3087,
      "ĠÑĤÑĢÐ¾Ð¿Ð¸ÐºÐ¾Ð¼": 3088,
      "ĠÐ°ÑĢÑħÐ¸ÑĤÐµÐºÑĤÑĥÑĢ": 3089,
      "ĠÐ±ÑĭÐ»Ð°": 3090,
      "ĠÐļÐ¾Ð·ÐµÑĢÐ¾Ð³Ð°": 3091,
      "ĠÐ¸Ð½Ð´ÑĥÑģÑĤÑĢÐ¸Ð°Ð»Ð¸Ð·Ð°ÑĨÐ¸Ð¸": 3092,
      "ĠÑĢÐ°Ð·Ð²ÐµÑĢÑĤÑĭÐ²Ð°Ð½Ð¸Ðµ": 3093,
      "ĠÐ³Ð¾Ð»Ð¾ÑģÐ¾Ð²ÑĭÐµ": 3094,
      "ĠÐ»Ð¸Ð½Ð¸Ñİ": 3095,
      "ĠÑĢÐ°ÑģÑģÑĤÐ¾ÑıÐ½Ð¸Ñı": 3096,
      "ĠÐºÐ¾Ð¼Ð¿ÑĮÑİÑĤÐµÑĢÐ½ÑĭÑħ": 3097,
      "Ð°Ð¿ÑĢÑıÐ¶ÐµÐ½Ð¸Ðµ": 3098,
      "ĠÐ·Ð²ÑĥÐºÐ¾Ð²ÑĭÑħ": 3099,
      "Ð¾Ð¼ÑĭÑĪÐ»ÐµÐ½Ð½Ð°Ñı": 3100,
      "ĠÐ°Ð¼Ð¿ÐµÑĢÐ°Ñħ": 3101,
      "ĠÑĥÐ¿ÑĢÐ¾ÑģÑĤÐ¸Ð»Ð¾": 3102,
      "ĠÐºÐ¾Ð¼Ð°Ð½Ð´Ðµ": 3103,
      "Ð°Ð´Ð¸Ð¾ÑģÐ²ÑıÐ·ÑĮ": 3104,
      "Ð½Ð¸Ð³Ð¾Ð¿ÐµÑĩÐ°ÑĤÐ°Ð½Ð¸Ðµ": 3105,
      "ĠÐ¿ÑĢÐ¾Ð¼ÑĭÑĪÐ»ÐµÐ½Ð½Ð¾ÑģÑĤÑĮ": 3106,
      "ĠÐºÐ¸Ð»Ð¾Ð³ÑĢÐ°Ð¼Ð¼Ð°Ñħ": 3107,
      "CD": 3108,
      "Code": 3109,
      "Do": 3110,
      "ES": 3111,
      "Integration": 3112,
      "ON": 3113,
      "Python": 3114,
      "RES": 3115,
      "SON": 3116,
      "ck": 3117,
      "rac": 3118,
      "¯Ð¿": 3119,
      "ÐĹ": 3120,
      "ÐĽ": 3121,
      "Ð¯Ð·ÑĭÐº": 3122,
      "ÐµÐ¸": 3123,
      "ÐµÑı": 3124,
      "ÐµÑĥÐ»": 3125,
      "ĠÐ¯Ð¿": 3126,
      "Ð¾Ð½Ð¸": 3127,
      "Ð¾Ð½Ð¸ÑĤ": 3128,
      "Ð¸Ð¾Ð»": 3129,
      "Ð¸ÑĢÐ°": 3130,
      "Ð¸Ð¿ÑĤ": 3131,
      "Ð°Ñİ": 3132,
      "Ð°ÑĥÑĩ": 3133,
      "Ð°Ð¸ÑĢ": 3134,
      "ÑĤÑĤ": 3135,
      "ÑĤÐ°Ð»": 3136,
      "ÑĤÑĢÐ°Ð»": 3137,
      "Ð½ÑĨÐ¸": 3138,
      "ÑĢÑĭ": 3139,
      "ÑĢÐ¾Ð¼": 3140,
      "ÑĢÐ½ÑĭÐµ": 3141,
      "ÑģÐ¾Ð²": 3142,
      "ÑģÐ½ÑĭÑħ": 3143,
      "ÑģÐ¸ÑĤ": 3144,
      "ÑģÐ½ÑĭÐ¹": 3145,
      "ÑģÑĦÐ¾ÑĢÐ¼": 3146,
      "ÑĥÐ·": 3147,
      "ÑĥÐ½Ð¸Ðº": 3148,
      "ÑĥÑĢÐ½ÑĭÐµ": 3149,
      "ÑĥÑģÐ¾Ð²": 3150,
      "Ð½Ð¸Ð²": 3151,
      "Ð½Ð¸ÐºÐ¸": 3152,
      "Ð½Ð¸Ð¼Ð¸": 3153,
      "ÐµÑĤÐ¾Ð²": 3154,
      "ÐµÑĤÐ¸ÑĩÐµÑģÐºÐ°Ñı": 3155,
      "ÐµÑĤÑĢÐ¸ÐºÐ¸": 3156,
      "Ð»ÑĦ": 3157,
      "Ð»Ð¾Ð¿": 3158,
      "Ð»Ð¾Ð¿ÑĢÐ¾Ð²": 3159,
      "ÑģÑĤÑĢÑĥÐºÑĤÑĥ": 3160,
      "ÑĩÐ¸": 3161,
      "ÑĩÐ°ÐµÑĤ": 3162,
      "ÐºÐ¸Ð¼Ð¸": 3163,
      "ÐºÐ»Ð¾Ð¿": 3164,
      "Ð²ÑģÑĤÑĢÐ°Ð»": 3165,
      "ĠÑģÐµÐ¼": 3166,
      "ĠÑģÐ¸Ð¼": 3167,
      "Ð¼ÑĥÐ½Ð¸Ðº": 3168,
      "ĠÐ²ÑĭÐ²": 3169,
      "ĠÐ²ÐµÐ±": 3170,
      "Ð¿Ð¾ÑĤ": 3171,
      "ÐµÑĢÐ¸Ð¼": 3172,
      "ÐµÑĢÑĢÐ°": 3173,
      "ÐµÑĢÐµÐ²": 3174,
      "ÐµÑĢÐ°ÑĤÑĥ": 3175,
      "ÐµÑĢÑģÐ¸ÑĤ": 3176,
      "ÐµÐ´Ð¸Ñı": 3177,
      "ÐµÐ»Ðµ": 3178,
      "Ð¾ÑĢÐ¾Ð´": 3179,
      "Ð¾ÑĢÐµÑı": 3180,
      "ÐµÐ¼Ð¾Ð³Ð¾": 3181,
      "Ð¾Ð»Ð³": 3182,
      "Ð¾Ð´Ð½Ð¾ÑģÑĤÑĮ": 3183,
      "ĠÐ´Ð¾Ð»Ð³": 3184,
      "ĠÐºÑĥÐ»ÑĮÑĤ": 3185,
      "ĠÐ¾Ð±ÑĢÐ°Ð·": 3186,
      "Ð´ÐµÑĢÐ¶": 3187,
      "Ð¸ÑĤÑĥÑĤ": 3188,
      "Ð¸ÑģÑģÐ½ÑĭÑħ": 3189,
      "Ð¾Ð³Ð¸ÑĢÐ¾Ð²": 3190,
      "Ð¸Ð·Ð°ÑĨÐ¸Ð¸": 3191,
      "Ð¸Ð·Ð¸ÑĢÑĥÑİÑĤ": 3192,
      "Ð¸ÑĩÐµÑģÑĤÐ²ÐµÐ½Ð½Ð¾": 3193,
      "ĠÐ¸Ð·Ð´ÐµÑĢÐ¶": 3194,
      "Ð°ÑĨÐ¸Ð¾Ð½Ð½ÑĭÐ¼": 3195,
      "ĠÑĤÐµÐ»": 3196,
      "ÐµÐ»ÑĮÐ½ÑĭÐ¹": 3197,
      "ÐµÐ»ÑĮÑģÐ¸Ñı": 3198,
      "ÐµÐ¹Ñģ": 3199,
      "ÐµÐ¹ÑĤÑĢ": 3200,
      "ĠÐ¾Ð¿Ð¸ÑĢ": 3201,
      "ĠÑģÐ¸Ð»": 3202,
      "ÑģÑĤÐ²Ð¸Ñı": 3203,
      "ÑģÐ¿Ð°Ð½Ð¸Ð¸": 3204,
      "Ð¸Ð½ÐµÑĤÐ¸ÑĩÐµÑģÐºÐ°Ñı": 3205,
      "ÑĢÐ°ÑģÐ½ÑĭÐ¹": 3206,
      "ÑĢÐ°ÑģÑĤÑĢÑĥÐºÑĤÑĥ": 3207,
      "ÐµÐ½ÑĤÑĭ": 3208,
      "Ð±ÐµÑĢÑĢÐ°": 3209,
      "ĠÐŁÐ°ÑĢÐ¸Ð¶": 3210,
      "ĠÐŁÐ¸ÑģÑĮÐ¼ÐµÐ½Ð½Ð¾ÑģÑĤÑĮ": 3211,
      "ÑĦÐµÐ¹Ñģ": 3212,
      "ÑĦÑĢÐ°ÑģÑĤÑĢÑĥÐºÑĤÑĥ": 3213,
      "ĠÐ¡Ð¸Ð»Ð°": 3214,
      "Ð³Ð¸Ð¿ÑĤ": 3215,
      "ÑĢÐ¾Ð²Ð°Ð½Ð½ÑĭÐµ": 3216,
      "ĠÐ¸ÑģÐ¿Ð¾Ð»ÑĮÐ·Ð¾Ð²Ð°Ð½Ð¸Ðµ": 3217,
      "ÐµÐºÐ¸": 3218,
      "Ð¾ÑĤÐ½ÑĭÐ¼Ð¸": 3219,
      "Ð¾ÑĤÐ²ÐµÑĤ": 3220,
      "Ð¾ÑĤÐµÐºÐ¸": 3221,
      "Ð°Ð²Ð°": 3222,
      "Ð°Ð²Ð¸ÑĤ": 3223,
      "ÐµÐ·Ñĭ": 3224,
      "ĠÐĴÐ°ÐºÑĥÑĥÐ¼": 3225,
      "ÑĢÐ¸Ð´": 3226,
      "ÑĢÐ¸ÑĨÐ°ÑĤ": 3227,
      "ÑĢÐ¸ÑĢÐ¾Ð²Ð°Ð½Ð½ÑĭÐµ": 3228,
      "ĠÐļÐ¾ÑĢÐµÑı": 3229,
      "ĠÐ¸Ð½ÑĦÑĢÐ°ÑģÑĤÑĢÑĥÐºÑĤÑĥ": 3230,
      "Ð»Ð¸ÐºÐ¸": 3231,
      "Ð»Ð¸Ð¾ÑĤÐµÐºÐ¸": 3232,
      "ĠÐ¾ÑĤÑĢÐ¸ÑĨÐ°ÑĤ": 3233,
      "ÐļÐ½Ð¸Ð³Ð¾Ð¿ÐµÑĩÐ°ÑĤÐ°Ð½Ð¸Ðµ": 3234,
      "ÐļÐ¸Ð½ÐµÑĤÐ¸ÑĩÐµÑģÐºÐ°Ñı": 3235,
      "ĠÐ³ÑĢÐ°Ð´": 3236,
      "Ð°Ð´Ñĭ": 3237,
      "Ð°Ð´ÑĥÐ³": 3238,
      "Ð°Ð´ÑĢÐ¸Ð´": 3239,
      "ĠÑĢÐµÑĪÐµÐ½Ð¸Ð¹": 3240,
      "ĠÑĢÐµÑĩÐ¸": 3241,
      "ĠÑģÑĤÐ¸Ð»": 3242,
      "Ð¸Ð²Ñĭ": 3243,
      "ÑĢÐ°Ð½ÑģÑĦÐ¾ÑĢÐ¼": 3244,
      "ĠÐłÐµÑģÐ¿": 3245,
      "ĠÐ¾Ð´Ð½Ð¸Ð¼": 3246,
      "ĠÐ¿ÑĢÐ¾Ð²ÐµÑĢÑıÐµÐ¼": 3247,
      "ÐµÐ³ÑĩÐ°ÐµÑĤ": 3248,
      "ĠÐĺÑĤÐ°Ð»": 3249,
      "ĠÐĺÑģÐ¿Ð°Ð½Ð¸Ð¸": 3250,
      "ĠÐ¾Ð±Ð»ÐµÐ³ÑĩÐ°ÐµÑĤ": 3251,
      "Ð¾ÑĩÐ½Ð¸ÐºÐ¸": 3252,
      "ĠÑĤÐµÐ¼Ð¿ÐµÑĢ": 3253,
      "ĠÑģÑĤÑĢÑĥÐºÑĤÑĥÑĢÐ¸ÑĢÐ¾Ð²Ð°Ð½Ð½ÑĭÐµ": 3254,
      "ĠÑģÐ¾Ð¾ÑĤÐ²ÐµÑĤ": 3255,
      "ĠCommit": 3256,
      "ĠÑįÐ»ÐµÐºÑĤÑĢÐ¸ÑĩÐµÑģÐºÐ¸": 3257,
      "ĠÐºÐ¾Ð¼Ð¿ÑĢÐ¾Ð¼": 3258,
      "ĠÐĳÐµÑĢÐ»Ð¸Ð½": 3259,
      "ĠÐ¸Ð½ÑĤÐµÑĢÑĦÐµÐ¹Ñģ": 3260,
      "ĠÑģÐ¾Ð²ÑĢÐµÐ¼": 3261,
      "Ð»Ð¾Ð²Ð¾Ðµ": 3262,
      "ÑĩÐµÑģÐºÐ¸Ð¹": 3263,
      "ĠÐ½Ð°Ð±Ð»ÑİÐ´Ð°ÐµÑĤ": 3264,
      "ĠÐ½Ð°Ð±Ð»ÑİÐ´ÐµÐ½Ð¸Ñı": 3265,
      "ĠÑģÐ¾Ð±Ð¸ÑĢÐ°": 3266,
      "Ð¸Ð±Ð»Ð¸Ð¾ÑĤÐµÐºÐ¸": 3267,
      "Ð£ÑģÐºÐ¾ÑĢÐµÐ½Ð¸Ðµ": 3268,
      "Ð£Ð½Ð¸Ð²": 3269,
      "Ð°ÑģÑģÐ°": 3270,
      "ĠÐĺÐ½ÑĤÐµÑĢÐ½ÐµÑĤ": 3271,
      "ĠÐ¸Ð½ÑĦÐ¾ÑĢÐ¼Ð°ÑĨÐ¸Ð¾Ð½Ð½ÑĭÐ¼": 3272,
      "ĠÐ½ÐµÑģÐºÐ¾Ð»ÑĮÐºÐ¸Ð¼Ð¸": 3273,
      "Ð²Ð¾Ð»Ð¾Ð²": 3274,
      "ĠÐŃÐ»ÐµÐºÑĤÑĢÐ¸ÑĦÐ¸ÐºÐ°ÑĨÐ¸Ñı": 3275,
      "ÐµÐ¿Ð»Ð¾Ð¿ÑĢÐ¾Ð²": 3276,
      "ĠMerge": 3277,
      "ĠÐĴÑģÐµÐ¼Ð¸ÑĢÐ½Ð°Ñı": 3278,
      "ĠÐĹÐ²ÑĥÐº": 3279,
      "ĠÐ¶Ð¸Ð²Ð¾ÑĤÐ½ÑĭÐ¼Ð¸": 3280,
      "ÐĿÐ°Ð¿ÑĢÑıÐ¶ÐµÐ½Ð¸Ðµ": 3281,
      "Ð¾ÐºÐ¸Ð¾": 3282,
      "ĠÐ·Ð°Ð¿ÑĢÐ¾ÑģÐ°": 3283,
      "ĠÐ¢ÐµÐ»ÐµÑĦÐ¾Ð½": 3284,
      "ĠÐ¿ÑĢÐµÐ´Ð¾ÑģÑĤÐ°Ð²Ð»ÑıÑİÑĤ": 3285,
      "ĠÐ²ÑĭÐ·ÑĭÐ²Ð°ÐµÑĤ": 3286,
      "ĠÐ¿Ð¾Ð»Ð¾Ð¶Ð¸ÑĤÐµÐ»ÑĮÐ½ÑĭÐ¹": 3287,
      "ĠÐ½ÐµÐ¹ÑĤÑĢÐ°Ð»": 3288,
      "ĠÑģÐ¾Ð´ÐµÑĢÐ¶Ð°Ð½Ð¸Ðµ": 3289,
      "ĠÐķÐ³Ð¸Ð¿ÑĤ": 3290,
      "ĠÐ¾Ð±Ð»Ð°Ð´Ð°Ñİ": 3291,
      "ĠÐºÐ¾Ð»Ð¸ÑĩÐµÑģÑĤÐ²ÐµÐ½Ð½Ð¾": 3292,
      "ĠÐ´Ð¾Ð¼Ð°ÑĪ": 3293,
      "Ð¼ÐµÐ½ÑĤÐ°ÑĨÐ¸Ñı": 3294,
      "ĠÐ¾Ð¶Ð¸Ð´Ð°ÐµÐ¼Ð¾Ð³Ð¾": 3295,
      "ĠÑĢÐµÑģÑĥÑĢÑģÐ°Ð¼": 3296,
      "ĠÑģÐ¾ÑģÑĤÐ¾ÑıÐ½Ð¸ÐµÐ¼": 3297,
      "ĠÐºÐ¾Ð½ÑĤÐµÐ¹Ð½ÐµÑĢ": 3298,
      "ĠÐ¿ÑĢÐ¸ÑĤÑıÐ¶ÐµÐ½Ð¸Ðµ": 3299,
      "ĠÐ¾Ð±ÑĬÐµÐºÑĤÑĭ": 3300,
      "ĠÐ¼Ð°ÑģÑģÐ¾Ð¹": 3301,
      "ĠÐŃÐ»ÐµÐºÑĤÑĢÐ¸ÑĩÐµÑģÐºÐ¸Ð¹": 3302,
      "ĠÐ¼ÐµÑħÐ°Ð½Ð¸Ð·Ð¼Ð¾Ð²": 3303,
      "ÐµÐ½ÑĨÐ¸Ð°Ð»ÑĮÐ½Ð°Ñı": 3304,
      "ĠÐ´Ð²Ðµ": 3305,
      "ĠÐ¸ÑģÑģÐ»ÐµÐ´Ð¾Ð²Ð°Ð½Ð¸Ð¹": 3306,
      "ĠÐ±ÑĭÑģÑĤÑĢÑĭÑħ": 3307,
      "ĠÐ¸Ð½ÑģÑĤÐ¸ÑĤÑĥÑĤ": 3308,
      "ĠÐ¿ÑĢÐµÐ´ÑģÑĤÐ°Ð²Ð»ÑıÑİÑĤ": 3309,
      "ĠÐ¸ÑģÑĤÐ¾ÑĩÐ½Ð¸ÐºÐ¸": 3310,
      "ĠÐ¸Ð·Ð»ÑĥÑĩÐµÐ½Ð¸Ñı": 3311,
      "ĠÐ´Ð²Ð¸Ð¶ÐµÐ½Ð¸ÐµÐ¼": 3312,
      "ÑĢÑħÐ¸Ð²Ñĭ": 3313,
      "ĠÑĢÐ°ÑģÐ¿ÑĢÐµÐ´ÐµÐ»ÐµÐ½Ð½ÑĭÑħ": 3314,
      "ĠÐ¸ÑģÑĤÐ¾ÑĢÐ¸ÑĩÐµÑģÐºÐ¸Ðµ": 3315,
      "ÐµÐ¼Ð¿ÐµÑĢÐ°ÑĤÑĥ": 3316,
      "ĠÑģÐ¾ÑħÑĢÐ°Ð½ÑıÐµÑĤ": 3317,
      "ĠÐ¿ÑĢÐ¸Ð»Ð¾Ð¶ÐµÐ½Ð¸Ñı": 3318,
      "Ð¸ÑģÑĤÐµÐ¼Ð°": 3319,
      "ĠÐºÐ¾Ð¼Ð¼ÑĥÐ½Ð¸Ðº": 3320,
      "ĠÑįÐºÑģÐ¿ÐµÑĢÐ¸Ð¼": 3321,
      "ĠÐ¦ÐµÐ»ÑĮÑģÐ¸Ñı": 3322,
      "Ð¡ÐºÐ¾ÑĢÐ¾ÑģÑĤÑĮ": 3323,
      "Ð¡Ð»Ð¾Ð²Ð°ÑĢÑĮ": 3324,
      "Ð¡ÐµÑĥÐ»": 3325,
      "Ð¡Ð¸ÑģÑĤÐµÐ¼Ð°": 3326,
      "Ð¢Ð¸ÑħÐ¸Ð¹": 3327,
      "Ð¢ÐµÐ»ÐµÐ³ÑĢÐ°ÑĦ": 3328,
      "Ð¢ÑĢÐ°Ð½ÑģÑĦÐ¾ÑĢÐ¼": 3329,
      "Ð¢ÐµÐ¿Ð»Ð¾Ð¿ÑĢÐ¾Ð²": 3330,
      "Ð¢Ð¾ÐºÐ¸Ð¾": 3331,
      "ÐĲÐ½ÑĤÐ°ÑĢÐºÑĤ": 3332,
      "ÐĲÑĤÐ»Ð°Ð½ÑĤÐ¸ÑĩÐµÑģÐºÐ¸Ð¹": 3333,
      "ÐĲÐ²ÑģÑĤÑĢÐ°Ð»": 3334,
      "ÐŁÐ°ÑĢÐ¾Ð²Ð°Ñı": 3335,
      "ÐŁÐµÑĢÐµÐ²": 3336,
      "ÐľÐ¾Ð½Ð¸ÑĤ": 3337,
      "ÐľÐ°ÑģÑģÐ°": 3338,
      "Ð¾ÐºÑĥÐ¼ÐµÐ½ÑĤÐ°ÑĨÐ¸Ñı": 3339,
      "ÐłÐ°Ð´Ð¸Ð¾ÑģÐ²ÑıÐ·ÑĮ": 3340,
      "ÐłÐ°Ð´ÑĥÐ³": 3341,
      "ÐŃÐ»ÐµÐºÑĤÑĢ": 3342,
      "ÐŃÐ½ÐµÑĢÐ³Ð¸Ñı": 3343,
      "ĠÐĲÐ²ÑģÑĤÑĢÐ°Ð»Ð¸Ð¸": 3344,
      "ĠÐ³Ð¸Ð¿Ð¾ÑĤ": 3345,
      "ĠÐĲÐ·Ð¸Ñı": 3346,
      "ĠÑĤÐµÐºÑģÑĤÐ¾Ð²Ð¾Ð¼": 3347,
      "ĠÐķÐ²ÑĢÐ¾Ð¿Ð°": 3348,
      "ĠÐ®Ð¶Ð½Ð°Ñı": 3349,
      "ĠÐĲÑĦÑĢÐ¸ÐºÐ°": 3350,
      "ĠÐ¼Ð½Ð¾Ð¶ÐµÑģÑĤÐ²Ñĥ": 3351,
      "ÐĳÐ¸Ð±Ð»Ð¸Ð¾ÑĤÐµÐºÐ¸": 3352,
      "Ð°ÑĤÑĥÑĢÐµ": 3353,
      "ĠÑĤÐµÐ¿Ð»Ð°": 3354,
      "ĠÑĤÐµÐ¿Ð»Ð¾Ð²Ð¾Ðµ": 3355,
      "ĠÑģÐ¸ÑģÑĤÐµÐ¼Ð°ÑĤÐ¸Ð·Ð¸ÑĢÑĥÐµÑĤ": 3356,
      "ĠÑģÐ¸ÑģÑĤÐµÐ¼Ð°ÑĤÐ¸Ð·Ð¸ÑĢÑĥÑİÑĤ": 3357,
      "ĠÐ¿ÐµÑĢÐµÐ½Ð¾ÑģÐ°": 3358,
      "ĠÐ¿ÐµÑĢÐµÐ½Ð¾ÑģÐ¸ÑĤ": 3359,
      "ĠÐ½Ð°ÑĥÑĩÐ½ÑĭÑħ": 3360,
      "ĠÐ½Ð°ÑĥÑĩÐ½ÑĭÐµ": 3361,
      "ÐŁÑĢÐ¾ÑĤÐ¾Ð½": 3362,
      "ÐŁÑĢÐ¾Ð¼ÑĭÑĪÐ»ÐµÐ½Ð½Ð°Ñı": 3363,
      "ÑĥÐ±Ð»Ð¸ÐºÐ¸": 3364,
      "ĠÐļÐ°Ð½Ð°Ð´Ñĭ": 3365,
      "ĠÑĨÐ²ÐµÑĤÐ¾Ð¼": 3366,
      "ĠÐĳÑĢÐ°Ð·Ð¸Ð»Ð¸Ð¸": 3367,
      "ÐĴÐ¾Ð´Ð°": 3368,
      "ÐĺÐ½Ð´Ð¸Ð¹ÑģÐºÐ¸Ð¹": 3369,
      "ĠÐ°ÑĢÑħÐ¸ÑĤÐµÐºÑĤÑĥÑĢÐ½ÑĭÐ¼": 3370,
      "Dock": 3371,
      "REST": 3372,
      "racing": 3373,
      "ĠÐ¯Ð¿Ð¾Ð½Ð¸": 3374,
      "Ð¸Ð¾Ð»ÐµÑĤÐ¾Ð²": 3375,
      "Ð°ÑĥÑĩÐ½ÑĭÐ¹": 3376,
      "ÑĤÑĤÐ°Ð²Ð°": 3377,
      "Ð½ÑĨÐ¸ÐºÐ»Ð¾Ð¿": 3378,
      "ÑĥÐ·ÐµÐ¸": 3379,
      "Ð»ÑĦÐ°Ð²Ð¸ÑĤ": 3380,
      "ĠÑģÐ¸Ð¼Ð²Ð¾Ð»Ð¾Ð²": 3381,
      "ĠÐ²ÑĭÐ²Ð¾Ð´Ñĭ": 3382,
      "ÐµÑĢÑģÐ¸ÑĤÐµÑĤÑĭ": 3383,
      "ĠÐºÑĥÐ»ÑĮÑĤÑĥÑĢÐ½ÑĭÐµ": 3384,
      "ĠÐ¾Ð±ÑĢÐ°Ð·Ð¾Ð²Ð°Ð½Ð¸Ñı": 3385,
      "Ð¾Ð³Ð¸ÑĢÐ¾Ð²Ð°Ð½Ð¸Ðµ": 3386,
      "ĠÐ¸Ð·Ð´ÐµÑĢÐ¶ÐºÐ¸": 3387,
      "ÐµÐ¹ÑĤÑĢÐ¾Ð½": 3388,
      "ĠÐ¾Ð¿Ð¸ÑĢÐ°ÐµÑĤÑģÑı": 3389,
      "ĠÐ¸Ð½ÑĦÑĢÐ°ÑģÑĤÑĢÑĥÐºÑĤÑĥÑĢÑĭ": 3390,
      "ĠÐ¾ÑĤÑĢÐ¸ÑĨÐ°ÑĤÐµÐ»ÑĮÐ½ÑĭÐ¹": 3391,
      "ĠÐ³ÑĢÐ°Ð´ÑĥÑģÐ¾Ð²": 3392,
      "ĠÑģÑĤÐ¸Ð»ÐµÐ¼": 3393,
      "ĠÐłÐµÑģÐ¿ÑĥÐ±Ð»Ð¸ÐºÐ¸": 3394,
      "ĠÐ¿ÑĢÐ¾Ð²ÐµÑĢÑıÐµÐ¼ÑĭÐµ": 3395,
      "ĠÐĺÑĤÐ°Ð»Ð¸Ð¸": 3396,
      "ĠÑĤÐµÐ¼Ð¿ÐµÑĢÐ°ÑĤÑĥÑĢÐµ": 3397,
      "ĠÑģÐ¾Ð¾ÑĤÐ²ÐµÑĤÑģÑĤÐ²Ð¸Ñı": 3398,
      "ĠÐºÐ¾Ð¼Ð¿ÑĢÐ¾Ð¼Ð¸ÑģÑģÐ½ÑĭÑħ": 3399,
      "ĠÑģÐ¾Ð±Ð¸ÑĢÐ°ÑİÑĤ": 3400,
      "Ð£Ð½Ð¸Ð²ÐµÑĢÑģÐ¸ÑĤÐµÑĤÑĭ": 3401,
      "ĠÐ½ÐµÐ¹ÑĤÑĢÐ°Ð»ÐµÐ½": 3402,
      "ĠÐķÐ³Ð¸Ð¿ÑĤÐ°": 3403,
      "ĠÐ¾Ð±Ð»Ð°Ð´Ð°ÑİÑīÐ¸Ñħ": 3404,
      "ĠÐ´Ð¾Ð¼Ð°ÑĪÐ½Ð¸Ð¼Ð¸": 3405,
      "ĠÐºÐ¾Ð½ÑĤÐµÐ¹Ð½ÐµÑĢÐ¸Ð·Ð°ÑĨÐ¸Ð¸": 3406,
      "ĠÐ¸Ð½ÑģÑĤÐ¸ÑĤÑĥÑĤÐ°Ð¼Ð¸": 3407,
      "ÐµÐ¼Ð¿ÐµÑĢÐ°ÑĤÑĥÑĢÐ°": 3408,
      "ĠÐºÐ¾Ð¼Ð¼ÑĥÐ½Ð¸ÐºÐ°ÑĨÐ¸Ð¸": 3409,
      "ĠÑįÐºÑģÐ¿ÐµÑĢÐ¸Ð¼ÐµÐ½ÑĤÑĭ": 3410,
      "Ð¢ÑĢÐ°Ð½ÑģÑĦÐ¾ÑĢÐ¼ÐµÑĢ": 3411,
      "Ð¢ÐµÐ¿Ð»Ð¾Ð¿ÑĢÐ¾Ð²Ð¾Ð´Ð½Ð¾ÑģÑĤÑĮ": 3412,
      "ÐĲÐ½ÑĤÐ°ÑĢÐºÑĤÐ¸Ð´Ð°": 3413,
      "ÐĲÐ²ÑģÑĤÑĢÐ°Ð»Ð¸Ñı": 3414,
      "ÐŁÐµÑĢÐµÐ²Ð¾Ð´": 3415,
      "ÐľÐ¾Ð½Ð¸ÑĤÐ¾ÑĢÐ¸Ð½Ð³": 3416,
      "ÐłÐ°Ð´ÑĥÐ³Ð°": 3417,
      "ĠÐ³Ð¸Ð¿Ð¾ÑĤÐµÐ·Ñĭ": 3418,
      "Docker": 3419,
      "ĠÐ¯Ð¿Ð¾Ð½Ð¸Ð¸": 3420,
      "Ð¸Ð¾Ð»ÐµÑĤÐ¾Ð²ÑĭÐ¹": 3421,
      "Ð½ÑĨÐ¸ÐºÐ»Ð¾Ð¿ÐµÐ´Ð¸Ñı": 3422
    },
    "merges": [
      [
        "Ð",
        "µ"
      ],
      [
        "Ġ",
        "Ð"
      ],
      [
        "Ð",
        "¾"
      ],
      [
        "Ð",
        "¸"
      ],
      [
        "Ð",
        "°"
      ],
      [
        "Ñ",
        "Ĥ"
      ],
      [
        "Ð",
        "½"
      ],
      [
        "Ñ",
        "Ģ"
      ],
      [
        "Ñ",
        "ģ"
      ],
      [
        "Ð¾",
        "Ð"
      ],
      [
        "Ðµ",
        "Ð"
      ],
      [
        "Ñ",
        "ı"
      ],
      [
        "Ð°",
        "Ð"
      ],
      [
        "Ñ",
        "ĥ"
      ],
      [
        "Ñ",
        "ĭ"
      ],
      [
        "ĠÐ",
        "¿"
      ],
      [
        "Ð½",
        "Ð¸"
      ],
      [
        "Ðµ",
        "ÑĤ"
      ],
      [
        "Ð",
        "»"
      ],
      [
        "Ñģ",
        "ÑĤ"
      ],
      [
        "Ñ",
        "ĩ"
      ],
      [
        "Ñ",
        "Į"
      ],
      [
        "Ð",
        "º"
      ],
      [
        "Ð",
        "²"
      ],
      [
        "Ð",
        "·"
      ],
      [
        "Ġ",
        "Ñģ"
      ],
      [
        "ĠÐ",
        "¸"
      ],
      [
        "Ð",
        "¼"
      ],
      [
        "ĠÐ",
        "¾"
      ],
      [
        "Ñ",
        "ħ"
      ],
      [
        "Ð½",
        "Ñĭ"
      ],
      [
        "Ðµ",
        "Ð½Ð¸"
      ],
      [
        "ĠÐ",
        "²"
      ],
      [
        "Ð",
        "¿"
      ],
      [
        "Ð¾Ð",
        "²"
      ],
      [
        "Ðµ",
        "ÑĢ"
      ],
      [
        "Ñ",
        "Ĩ"
      ],
      [
        "ĠÐ¿",
        "ÑĢ"
      ],
      [
        "ÐµÐ",
        "´"
      ],
      [
        "ÐµÐ",
        "»"
      ],
      [
        "Ðµ",
        "Ð½"
      ],
      [
        "Ð¾",
        "ÑĢ"
      ],
      [
        "Ð¾",
        "ÑģÑĤ"
      ],
      [
        "ÐµÐ",
        "¼"
      ],
      [
        "Ñ",
        "İ"
      ],
      [
        "Ð¾Ð",
        "»"
      ],
      [
        "ĠÐ¾",
        "Ð"
      ],
      [
        "Ð¾Ð",
        "´"
      ],
      [
        "ÑĢ",
        "Ð°Ð"
      ],
      [
        "ÑĨ",
        "Ð¸"
      ],
      [
        "Ð°",
        "ÑĤ"
      ],
      [
        "ĠÐ",
        "´"
      ],
      [
        "Ð°",
        "ÐµÑĤ"
      ],
      [
        "ĠÐ",
        "º"
      ],
      [
        "ĠÐ",
        "·"
      ],
      [
        "Ð¾",
        "Ð½"
      ],
      [
        "Ñģ",
        "Ðº"
      ],
      [
        "Ð",
        "¹"
      ],
      [
        "Ð°",
        "Ð½"
      ],
      [
        "Ð½Ñĭ",
        "Ñħ"
      ],
      [
        "Ð°",
        "Ð½Ð¸"
      ],
      [
        "Ñı",
        "ÐµÑĤ"
      ],
      [
        "ĠÐ¾Ð",
        "±"
      ],
      [
        "Ð",
        "´"
      ],
      [
        "º",
        "ÑĤ"
      ],
      [
        "ĠÐ",
        "¼"
      ],
      [
        "Ð¸",
        "ÑĤ"
      ],
      [
        "Ð¾Ð",
        "¹"
      ],
      [
        "ĠÐ",
        "½"
      ],
      [
        "Ð½",
        "Ð°"
      ],
      [
        "Ð¸",
        "Ñģ"
      ],
      [
        "Ð¾Ð",
        "¼"
      ],
      [
        "Ð½",
        "Ð¾ÑģÑĤ"
      ],
      [
        "Ñĥ",
        "ÐµÑĤ"
      ],
      [
        "ÐµÐ½Ð¸",
        "Ñı"
      ],
      [
        "ÑĢ",
        "ÐµÐ"
      ],
      [
        "ĠÐ¿",
        "Ð¾"
      ],
      [
        "Ð¾Ð",
        "³"
      ],
      [
        "Ð¸",
        "Ð·"
      ],
      [
        "Ð¸",
        "Ñĩ"
      ],
      [
        "ÐµÐ½Ð¸",
        "Ðµ"
      ],
      [
        "Ñ",
        "Ī"
      ],
      [
        "ĠÐ¸",
        "Ð·"
      ],
      [
        "Ñĥ",
        "Ñĩ"
      ],
      [
        "ĠÐ·",
        "Ð°Ð"
      ],
      [
        "Ðµ",
        "ÑģÐº"
      ],
      [
        "Ð°",
        "ÑĨÐ¸"
      ],
      [
        "Ġ",
        "ÑĤ"
      ],
      [
        "Ñ",
        "ī"
      ],
      [
        "Ð¸",
        "Ð¼"
      ],
      [
        "ÐµÐ»",
        "ÑĮ"
      ],
      [
        "Ð½",
        "Ð¾"
      ],
      [
        "Ñģ",
        "Ñı"
      ],
      [
        "Ð¾Ð»",
        "ÑĮ"
      ],
      [
        "Ð½Ñĭ",
        "Ðµ"
      ],
      [
        "ÐµÐ",
        "¹"
      ],
      [
        "Ð¾Ð",
        "¶"
      ],
      [
        "ĠÐ¾",
        "Ð¿"
      ],
      [
        "Ð°Ð",
        "»"
      ],
      [
        "Ġ",
        "Ñ"
      ],
      [
        "ĠÑģ",
        "Ð¸"
      ],
      [
        "Ð¸Ñĩ",
        "ÐµÑģÐº"
      ],
      [
        "ĠÐ´",
        "Ð°Ð½"
      ],
      [
        "Ð½Ð¾ÑģÑĤ",
        "ÑĮ"
      ],
      [
        "ÑģÑĤ",
        "ÐµÐ¼"
      ],
      [
        "ÑģÑĤ",
        "Ð²"
      ],
      [
        "ĠÐ",
        "°"
      ],
      [
        "Ñģ",
        "Ð¿"
      ],
      [
        "ĠÑģÐ¸",
        "ÑģÑĤÐµÐ¼"
      ],
      [
        "ÑĢ",
        "Ñĥ"
      ],
      [
        "Ðº",
        "Ð¸"
      ],
      [
        "Ð½Ð°",
        "Ñı"
      ],
      [
        "Ð¸",
        "Ð½"
      ],
      [
        "Ð»",
        "ÑıÐµÑĤ"
      ],
      [
        "Ð»",
        "Ñı"
      ],
      [
        "Ñĭ",
        "Ð²"
      ],
      [
        "ĠÐ",
        "±"
      ],
      [
        "ĠÑģ",
        "Ð²"
      ],
      [
        "Ð°Ð",
        "¼"
      ],
      [
        "Ġ",
        "Ñĥ"
      ],
      [
        "ÑĢ",
        "Ð°"
      ],
      [
        "Ð¾Ð",
        "º"
      ],
      [
        "ÑĢ",
        "Ð°Ð½Ð¸"
      ],
      [
        "ÑĢÐ°Ð",
        "·"
      ],
      [
        "ÐµÐ½",
        "ÑĤ"
      ],
      [
        "Ð½",
        "Ð¾Ð¹"
      ],
      [
        "Ð¸",
        "Ñı"
      ],
      [
        "Ñı",
        "ÑĤ"
      ],
      [
        "ĠÑģ",
        "Ð»"
      ],
      [
        "Ñħ",
        "Ð¾Ð´"
      ],
      [
        "ĠÑ",
        "į"
      ],
      [
        "ÐµÐ",
        "ºÑĤ"
      ],
      [
        "Ð",
        "±"
      ],
      [
        "Ñİ",
        "ÑĤ"
      ],
      [
        "ĠÐ´Ð°Ð½",
        "Ð½ÑĭÑħ"
      ],
      [
        "ĠÐ¿ÑĢ",
        "ÐµÐ´"
      ],
      [
        "ĠÐ²",
        "Ñĭ"
      ],
      [
        "ĠÐ",
        "Ł"
      ],
      [
        "Ñ",
        "Ħ"
      ],
      [
        "Ġ",
        "Ñı"
      ],
      [
        "Ð¾Ð»ÑĮ",
        "Ð·"
      ],
      [
        "ÐµÐ½Ð¸",
        "Ð¹"
      ],
      [
        "ÑĢÐµÐ",
        "±"
      ],
      [
        "ĠÐ¸",
        "ÑģÐ¿"
      ],
      [
        "ĠÐ",
        "¡"
      ],
      [
        "Ñĥ",
        "Ñİ"
      ],
      [
        "Ð",
        "³"
      ],
      [
        "ÑĢ",
        "Ð¾Ð²"
      ],
      [
        "Ð¾Ð",
        "±"
      ],
      [
        "ĠÐ¸ÑģÐ¿",
        "Ð¾Ð»ÑĮÐ·"
      ],
      [
        "ĠÐ¸Ð·",
        "Ð¼"
      ],
      [
        "ÐµÐ",
        "º"
      ],
      [
        "ÑĢ",
        "Ðµ"
      ],
      [
        "Ð¾",
        "ÑĤ"
      ],
      [
        "Ñģ",
        "Ñģ"
      ],
      [
        "Ð",
        "¶"
      ],
      [
        "Ð°Ð",
        "²"
      ],
      [
        "ÐµÐ",
        "·"
      ],
      [
        "ĠÐ",
        "Ĵ"
      ],
      [
        "ÑĢ",
        "Ð¸"
      ],
      [
        "Ð°ÑĨÐ¸",
        "Ñı"
      ],
      [
        "Ġ",
        "Ñħ"
      ],
      [
        "Ñı",
        "Ð·"
      ],
      [
        "ĠÐ¿",
        "ÐµÑĢ"
      ],
      [
        "³",
        "ÑĢÐ°Ð½Ð¸"
      ],
      [
        "³ÑĢÐ°Ð½Ð¸",
        "Ñĩ"
      ],
      [
        "Ð¾Ð³",
        "Ð¾"
      ],
      [
        "ĠÐ¸ÑģÐ¿Ð¾Ð»ÑĮÐ·",
        "ÑĥÐµÑĤ"
      ],
      [
        "ĠÐ",
        "ļ"
      ],
      [
        "Ðº",
        "Ð°"
      ],
      [
        "Ð¼",
        "Ð¸"
      ],
      [
        "ĠÐ¸",
        "Ð½"
      ],
      [
        "Ð½Ð°",
        "Ñĩ"
      ],
      [
        "Ð»",
        "ÑĮ"
      ],
      [
        "Ġ",
        "ÑĢÐ°Ð·"
      ],
      [
        "ĠÐ½",
        "Ð°"
      ],
      [
        "Ð¸Ñģ",
        "Ð»"
      ],
      [
        "ÑĭÐ²",
        "Ð°ÐµÑĤ"
      ],
      [
        "Ð°",
        "Ñĩ"
      ],
      [
        "ĠÐ¿ÑĢ",
        "Ð¾"
      ],
      [
        "Ð¾Ð",
        "·"
      ],
      [
        "ĠÑı",
        "Ð²"
      ],
      [
        "Ð»ÑıÐµÑĤ",
        "ÑģÑı"
      ],
      [
        "ĠÑıÐ²",
        "Ð»ÑıÐµÑĤÑģÑı"
      ],
      [
        "Ð»",
        "Ð¸"
      ],
      [
        "Ð°",
        "ÑİÑĤ"
      ],
      [
        "Ñģ",
        "Ð»"
      ],
      [
        "Ð°Ð",
        "±"
      ],
      [
        "ÐµÐ",
        "¶"
      ],
      [
        "Ð¾Ð",
        "¿"
      ],
      [
        "Ð°",
        "ÑģÑĤ"
      ],
      [
        "Ð°Ð»",
        "Ð¸Ð·"
      ],
      [
        "Ð¾ÑģÑĤ",
        "ÑĮ"
      ],
      [
        "ĠÐ´",
        "Ð»Ñı"
      ],
      [
        "ĠÐ¾",
        "ÑĤ"
      ],
      [
        "Ð¸ÑĤ",
        "ÐµÐ»ÑĮ"
      ],
      [
        "Ð°",
        "Ñı"
      ],
      [
        "Ð½Ð¾ÑģÑĤ",
        "Ð¸"
      ],
      [
        "ĠÐ¼",
        "Ð¾Ð´"
      ],
      [
        "Ð½Ñĭ",
        "Ð¹"
      ],
      [
        "Ð½",
        "ÑĥÑİ"
      ],
      [
        "Ñ",
        "Ĭ"
      ],
      [
        "ĠÐ¾Ð±",
        "ÑĬ"
      ],
      [
        "ĠÑĤ",
        "ÑĢÐµÐ±"
      ],
      [
        "Ð½Ð¸",
        "ÑĤ"
      ],
      [
        "Ð»",
        "Ñİ"
      ],
      [
        "Ġ",
        "Ñĩ"
      ],
      [
        "ÐµÐ",
        "²"
      ],
      [
        "Ñĥ",
        "Ð»ÑĮ"
      ],
      [
        "Ð¾Ð²",
        "Ð°ÑĤ"
      ],
      [
        "ĠÐº",
        "Ð¾Ð½"
      ],
      [
        "ÑĢ",
        "ÐµÐ´"
      ],
      [
        "Ð½",
        "Ð¾Ð³Ð¾"
      ],
      [
        "o",
        "n"
      ],
      [
        "ÑģÐ»",
        "ÐµÐ´"
      ],
      [
        "ĠÐ¸Ð·",
        "ÑĥÑĩ"
      ],
      [
        "Ð°Ð½Ð¸",
        "Ñı"
      ],
      [
        "ÑĢÐµÐ",
        "·"
      ],
      [
        "Ðº",
        "Ñĥ"
      ],
      [
        "ÑģÑĤÐ²",
        "Ð°"
      ],
      [
        "ÑĢÐ°Ð",
        "¼"
      ],
      [
        "ĠÐ¿",
        "Ð¾Ð»"
      ],
      [
        "ÑĢÐµÐ´",
        "ÐµÐ»"
      ],
      [
        "ĠÐ¾Ð",
        "³ÑĢÐ°Ð½Ð¸Ñĩ"
      ],
      [
        "a",
        "t"
      ],
      [
        "ĠÑģÐ²",
        "ÑıÐ·"
      ],
      [
        "Ð",
        "ļ"
      ],
      [
        "ĠÑģÐ¸ÑģÑĤÐµÐ¼",
        "Ñĭ"
      ],
      [
        "ĠÐ",
        "³"
      ],
      [
        "Ð°Ð",
        "º"
      ],
      [
        "Ð°Ð",
        "´"
      ],
      [
        "ĠÐ¼",
        "ÐµÑĤ"
      ],
      [
        "Ð°Ð",
        "ºÑĤ"
      ],
      [
        "Ð°Ð",
        "·"
      ],
      [
        "Ð°",
        "ÑĢ"
      ],
      [
        "ÑĢÐ°Ð",
        "²"
      ],
      [
        "Ð¸ÑĩÐµÑģÐº",
        "Ð¸"
      ],
      [
        "ÑĥÐ»ÑĮ",
        "ÑĤ"
      ],
      [
        "Ġ",
        "ÑĢÐµÐ·"
      ],
      [
        "ÑĥÐ»ÑĮÑĤ",
        "Ð°ÑĤ"
      ],
      [
        "ĠÑĢÐµÐ·",
        "ÑĥÐ»ÑĮÑĤÐ°ÑĤ"
      ],
      [
        "ÑĢ",
        "ÐµÑĤ"
      ],
      [
        "Ġ",
        "ÑĢÐµ"
      ],
      [
        "ĠÑģÐ»",
        "Ð¾Ð¶"
      ],
      [
        "ĠÐ¿",
        "Ð¾Ð²"
      ],
      [
        "Ġ",
        "ÑģÑĤ"
      ],
      [
        "ĠÐ²Ñĭ",
        "Ñĩ"
      ],
      [
        "ĠÐ·Ð°Ð",
        "´"
      ],
      [
        "ÐµÑĢ",
        "Ð°ÑĨÐ¸"
      ],
      [
        "Ð¸",
        "Ð²"
      ],
      [
        "Ð¸",
        "Ðº"
      ],
      [
        "ĠÑį",
        "Ð»"
      ],
      [
        "Ð¾ÑĢ",
        "ÑĢÐµÐ"
      ],
      [
        "ĠÐ¼ÐµÑĤ",
        "Ð¾Ð´"
      ],
      [
        "Ð¾ÑĢÑĢÐµÐ",
        "ºÑĤ"
      ],
      [
        "ĠÐ¸Ð·Ð¼",
        "ÐµÐ½"
      ],
      [
        "ÐµÐ´",
        "ÐµÐ½Ð¸Ðµ"
      ],
      [
        "ĠÐ¿Ð¾",
        "ÑģÐ»ÐµÐ´"
      ],
      [
        "¢",
        "Ðµ"
      ],
      [
        "ĠÐ¾Ð¿",
        "Ð¸Ñģ"
      ],
      [
        "Ġ",
        "ÑĥÑĩ"
      ],
      [
        "Ð°",
        "Ñģ"
      ],
      [
        "ÑĢ",
        "Ð°Ð½"
      ],
      [
        "ĠÐ¿Ð¾",
        "ÑĤ"
      ],
      [
        "ÑĢÐ°Ð",
        "ºÑĤ"
      ],
      [
        "ĠÐ·Ð°Ð´",
        "Ð°Ñĩ"
      ],
      [
        "ÑĢÐ°Ð",
        "±"
      ],
      [
        "ÑĨÐ¸",
        "Ð¸"
      ],
      [
        "ÑĢ",
        "ÐµÐ¼"
      ],
      [
        "ĠÐ¾Ð¿",
        "ÑĢÐµÐ´ÐµÐ»"
      ],
      [
        "ĠÐ",
        "»"
      ],
      [
        "ÐµÐ¹",
        "ÑģÑĤÐ²"
      ],
      [
        "ĠÐ",
        "Ĳ"
      ],
      [
        "Ñī",
        "Ð¸"
      ],
      [
        "Ðµ",
        "Ð¾Ð±"
      ],
      [
        "t",
        "e"
      ],
      [
        "i",
        "on"
      ],
      [
        "ĠÐ¿",
        "Ð¾Ð´"
      ],
      [
        "Ðµ",
        "Ñĩ"
      ],
      [
        "Ð¾Ð»",
        "Ð½"
      ],
      [
        "ÐµÐ´",
        "Ð¸Ð½"
      ],
      [
        "ĠÑĤÑĢÐµÐ±",
        "ÑĥÐµÑĤ"
      ],
      [
        "ÐµÐ¼",
        "Ð¾ÑģÑĤÑĮ"
      ],
      [
        "Ð¾Ð²Ð°ÑĤ",
        "ÐµÐ»ÑĮ"
      ],
      [
        "ĠÐ¿Ð¾ÑģÐ»ÐµÐ´",
        "Ð¾Ð²Ð°ÑĤÐµÐ»ÑĮ"
      ],
      [
        "ĠÐ¿",
        "Ð¾Ð½"
      ],
      [
        "ĠÐ¿Ð¾Ð½",
        "ÑıÑĤ"
      ],
      [
        "ĠÐ",
        "Ķ"
      ],
      [
        "ĠÐ",
        "ľ"
      ],
      [
        "ĠÑĩ",
        "Ð°ÑģÑĤ"
      ],
      [
        "Ñī",
        "Ð°ÐµÑĤ"
      ],
      [
        "Ð°Ð",
        "¶"
      ],
      [
        "ĠÐ²",
        "Ð°Ð¶"
      ],
      [
        "Ð¾Ð¹",
        "ÑģÑĤÐ²Ð°"
      ],
      [
        "Ð°Ð¼",
        "Ð¸"
      ],
      [
        "Ð±",
        "Ð¾ÑĢ"
      ],
      [
        "ĠÐ¿ÑĢ",
        "Ð°ÐºÑĤ"
      ],
      [
        "ÐµÐ",
        "±"
      ],
      [
        "Ð¾Ð³",
        "ÑĢÐ°Ð¼"
      ],
      [
        "Ð»Ñİ",
        "Ñĩ"
      ],
      [
        "ĠÑ",
        "Ħ"
      ],
      [
        "ÑĤ",
        "Ñĥ"
      ],
      [
        "ĠÐ²",
        "ÑħÐ¾Ð´"
      ],
      [
        "ĠÐ¼Ð¾Ð´",
        "ÐµÐ»"
      ],
      [
        "ĠÐ¼Ð¾Ð´ÐµÐ»",
        "Ð¸"
      ],
      [
        "Ð½Ð¸",
        "Ð¼"
      ],
      [
        "ĠÐ²",
        "Ð·"
      ],
      [
        "ÑĢ",
        "Ð¾"
      ],
      [
        "Ñĥ",
        "Ð½"
      ],
      [
        "ÑĥÐ½",
        "Ðº"
      ],
      [
        "Ð½",
        "Ð¾Ð²"
      ],
      [
        "r",
        "e"
      ],
      [
        "ĠÐ",
        "ł"
      ],
      [
        "ĠÐ¸Ð·ÑĥÑĩ",
        "Ð°ÐµÑĤ"
      ],
      [
        "ĠÐ¸",
        "Ð»Ð¸"
      ],
      [
        "Ð¾ÑĢ",
        "Ð¼"
      ],
      [
        "ĠÐ¾Ð",
        "´"
      ],
      [
        "Ñĥ",
        "ÑĤ"
      ],
      [
        "Ð½Ñĭ",
        "Ð¼Ð¸"
      ],
      [
        "Ð¸",
        "ÑģÐº"
      ],
      [
        "ĠÑģÐ²",
        "Ð¾Ð¹ÑģÑĤÐ²Ð°"
      ],
      [
        "ĠÐ·Ð°Ð",
        "¿"
      ],
      [
        "ĠÐ",
        "ĵ"
      ],
      [
        "ĠÐ°",
        "Ð½"
      ],
      [
        "ÐµÐ½",
        "ÐµÑĢ"
      ],
      [
        "ĠÑģÐ¸ÑģÑĤÐµÐ¼",
        "Ð°"
      ],
      [
        "ĠÐ¿",
        "Ð¾Ð¼"
      ],
      [
        "ĠÐ²ÑĭÑĩ",
        "Ð¸ÑģÐ»"
      ],
      [
        "Ð¸Ð·",
        "Ð²"
      ],
      [
        "Ð¾Ð²",
        "ÐµÑĢ"
      ],
      [
        "ĠÐ¿ÑĢ",
        "Ð¾Ð²ÐµÑĢ"
      ],
      [
        "ĠÐ¿ÑĢ",
        "Ð¾Ð³ÑĢÐ°Ð¼"
      ],
      [
        "i",
        "t"
      ],
      [
        "Ð´",
        "Ñĥ"
      ],
      [
        "Ð»",
        "Ð³"
      ],
      [
        "ĠÐ¾Ð¿",
        "ÐµÑĢÐ°ÑĨÐ¸"
      ],
      [
        "ÑĢÐ°Ð±",
        "Ð¾ÑĤ"
      ],
      [
        "ĠÐ¸Ð·Ð¼",
        "ÐµÑĢ"
      ],
      [
        "Ð°",
        "Ð¸Ð¼"
      ],
      [
        "ĠÐ²Ð·",
        "Ð°Ð¸Ð¼"
      ],
      [
        "ÐµÐ",
        "³"
      ],
      [
        "ĠÐ",
        "ĺ"
      ],
      [
        "Ð»",
        "ÐµÐ½Ð¸Ðµ"
      ],
      [
        "ÑģÑĤ",
        "Ð°Ð²"
      ],
      [
        "ĠÐ¿ÑĢÐµÐ´",
        "ÑģÑĤÐ°Ð²"
      ],
      [
        "ĠÐ¿",
        "Ð°Ð¼"
      ],
      [
        "ĠÐ¿Ð°Ð¼",
        "ÑıÑĤ"
      ],
      [
        "Ð¸",
        "ÑĢ"
      ],
      [
        "Ñģ",
        "Ð½Ð¾Ð²"
      ],
      [
        "ĠÐ¿ÑĢ",
        "Ð¸"
      ],
      [
        "ĠÐ¿ÑĢ",
        "ÐµÐ¾Ð±"
      ],
      [
        "ĠÐ¿ÑĢÐµÐ¾Ð±",
        "ÑĢÐ°Ð·"
      ],
      [
        "Ġ",
        "ÑĨ"
      ],
      [
        "ĠÐ",
        "ŀ"
      ],
      [
        "n",
        "t"
      ],
      [
        "Ðµ",
        "ÑģÑĤ"
      ],
      [
        "Ð¿",
        "ÑĢÐ°Ð²"
      ],
      [
        "ÐµÐ´Ð¸Ð½",
        "ÑıÐµÑĤ"
      ],
      [
        "Ð¸",
        "ÑĢÑĥ"
      ],
      [
        "Ð¼",
        "ÐµÐ½"
      ],
      [
        "Ð°ÑĤ",
        "Ð¾ÑĢ"
      ],
      [
        "ĠÐ½",
        "Ð°Ð´"
      ],
      [
        "ĠÐ½Ð°Ð´",
        "ÐµÐ¶"
      ],
      [
        "ÐµÐº",
        "ÑģÑĤ"
      ],
      [
        "Ð¾Ð»",
        "Ð½Ð¸ÑĤ"
      ],
      [
        "ĠÐ´",
        "Ð¾Ð¿"
      ],
      [
        "Ð¾Ð»Ð½Ð¸ÑĤ",
        "ÐµÐ»ÑĮ"
      ],
      [
        "ĠÐ´Ð¾Ð¿",
        "Ð¾Ð»Ð½Ð¸ÑĤÐµÐ»ÑĮ"
      ],
      [
        "ĠÐ¾Ð±",
        "Ð»"
      ],
      [
        "Ð¼",
        "Ð°"
      ],
      [
        "ĠÑģ",
        "Ð¾ÑģÑĤ"
      ],
      [
        "Ð°ÑĤ",
        "ÑĢÐ¸"
      ],
      [
        "ÑĤ",
        "Ð°Ð±"
      ],
      [
        "ĠÐ²ÑĭÑĩÐ¸ÑģÐ»",
        "Ð¸ÑĤÐµÐ»ÑĮ"
      ],
      [
        "ÑĢ",
        "Ð°ÑĤ"
      ],
      [
        "ĠÐ°Ð½",
        "Ð°Ð»Ð¸Ð·"
      ],
      [
        "ĠÐ¿ÐµÑĢ",
        "Ðµ"
      ],
      [
        "ÑĢÐ°Ð½Ð¸",
        "ÑĤ"
      ],
      [
        "ĠÑħ",
        "ÑĢÐ°Ð½Ð¸ÑĤ"
      ],
      [
        "Ð¸Ð·Ð²",
        "Ð¾Ð´"
      ],
      [
        "ÐµÐºÑĤ",
        "Ð¾ÑĢ"
      ],
      [
        "ĠÐ¿Ð¾Ð¼",
        "Ð¾Ð³"
      ],
      [
        "ÑĤ",
        "Ð¾Ð¼"
      ],
      [
        "ĠÐ·Ð°Ð",
        "²"
      ],
      [
        "ĠÑģÐ»Ð¾Ð¶",
        "Ð½Ð¾ÑģÑĤÑĮ"
      ],
      [
        "ĠÐº",
        "Ð»ÑİÑĩ"
      ],
      [
        "ÑĢÑĥ",
        "Ðº"
      ],
      [
        "ĠÐ²",
        "ÑĢÐµÐ¼"
      ],
      [
        "Ð¾Ð²",
        "Ð°Ð½Ð¸"
      ],
      [
        "ÐµÐ´",
        "ÐµÐ½Ð¸Ñı"
      ],
      [
        "Ð¶",
        "ÐµÐ½ÐµÑĢ"
      ],
      [
        "Ð¸",
        "Ð¸"
      ],
      [
        "Ġ",
        "T"
      ],
      [
        "Ð¾Ð´",
        "ÐµÐ¹ÑģÑĤÐ²"
      ],
      [
        "ĠÐ²Ð·Ð°Ð¸Ð¼",
        "Ð¾Ð´ÐµÐ¹ÑģÑĤÐ²"
      ],
      [
        "ĠÐ¿Ð°Ð¼ÑıÑĤ",
        "Ð¸"
      ],
      [
        "ÑĨ",
        "Ðµ"
      ],
      [
        "ĠÑĥÑĩ",
        "Ð¸ÑĤ"
      ],
      [
        "ĠÐ±",
        "ÐµÐ·"
      ],
      [
        "Ð¾",
        "Ñĩ"
      ],
      [
        "Ġ",
        "R"
      ],
      [
        "i",
        "n"
      ],
      [
        "ÐµÐºÑĤ",
        "ÑĢ"
      ],
      [
        "ÑĨÐ¸",
        "Ñı"
      ],
      [
        "Ð¾Ð¼",
        "Ð¿"
      ],
      [
        "Ð¸",
        "ÑĦ"
      ],
      [
        "ÑĥÑĩ",
        "ÐµÐ½Ð¸Ðµ"
      ],
      [
        "ĠÐ¡",
        "Ð¾Ð»Ð½"
      ],
      [
        "ĠÐ¾Ð±ÑĬ",
        "ÐµÐ´Ð¸Ð½ÑıÐµÑĤ"
      ],
      [
        "Ð°ÑĨÐ¸",
        "Ñİ"
      ],
      [
        "ĠÐ¿Ð¾ÑģÐ»ÐµÐ´Ð¾Ð²Ð°ÑĤÐµÐ»ÑĮ",
        "Ð½Ð¾ÑģÑĤÑĮ"
      ],
      [
        "ĠÑĤ",
        "ÐµÐ¼"
      ],
      [
        "ĠÑĥ",
        "ÑĢÐ¾Ð²"
      ],
      [
        "ĠÐ·",
        "Ð°"
      ],
      [
        "ÑĦ",
        "Ð¾ÑĢÐ¼"
      ],
      [
        "ÐµÐ»",
        "Ð°"
      ],
      [
        "Ġ",
        "ÑĢÐ°"
      ],
      [
        "ĠÑĢÐµÐ·ÑĥÐ»ÑĮÑĤÐ°ÑĤ",
        "Ð°"
      ],
      [
        "Ð´",
        "Ð°"
      ],
      [
        "ĠÐ¾Ð´",
        "Ð½Ð¾Ð¹"
      ],
      [
        "ĠÐ¿ÑĢÐµÐ´",
        "Ð¿"
      ],
      [
        "Ð½Ð¸Ð¼",
        "Ð°Ð½Ð¸Ñı"
      ],
      [
        "Ð°ÑİÑĤ",
        "ÑģÑı"
      ],
      [
        "ĠÑĢÐµ",
        "Ð°Ð»Ð¸Ð·"
      ],
      [
        "ĠÐ¿Ð¾Ð²",
        "ÐµÐ´ÐµÐ½Ð¸Ðµ"
      ],
      [
        "ĠÐ°Ð½Ð°Ð»Ð¸Ð·",
        "Ð°"
      ],
      [
        "ĠÑģ",
        "ÐµÑĤ"
      ],
      [
        "ĠÐ¡",
        "Ð²"
      ],
      [
        "Ð½Ñĭ",
        "Ð¼"
      ],
      [
        "ĠÐ¿Ð¾",
        "Ð¸ÑģÐº"
      ],
      [
        "ÐµÑĤ",
        "ÐºÐ°"
      ],
      [
        "ĠÐ¼",
        "Ð°Ñģ"
      ],
      [
        "ÑĪ",
        "ÑĤÐ°Ð±"
      ],
      [
        "ĠÐ¼Ð°Ñģ",
        "ÑĪÑĤÐ°Ð±"
      ],
      [
        "Ð°Ð½Ð¸",
        "Ð·"
      ],
      [
        "ĠÑĢÐ°Ð·",
        "Ð´"
      ],
      [
        "Ð¸ÑĩÐµÑģÐºÐ¸",
        "Ðµ"
      ],
      [
        "Ġ",
        "P"
      ],
      [
        "ĠÑģÐ¾ÑģÑĤ",
        "Ð¾"
      ],
      [
        "Ñĭ",
        "Ðµ"
      ],
      [
        "ĠÐ¿ÐµÑĢ",
        "ÐµÐ´"
      ],
      [
        "ĠÐ¿ÑĢÐ¾",
        "Ð¸Ð·Ð²Ð¾Ð´"
      ],
      [
        "ĠÐº",
        "Ð¾ÑĢÑĢÐµÐºÑĤ"
      ],
      [
        "ĠÐ°",
        "Ð»Ð³"
      ],
      [
        "ÑĥÑĩ",
        "Ð°"
      ],
      [
        "ĠÐ¼",
        "ÐµÐ¶"
      ],
      [
        "ĠÐ¾Ð±Ð»",
        "Ð°ÑģÑĤ"
      ],
      [
        "ĠÐ¼ÐµÐ¶",
        "Ð´Ñĥ"
      ],
      [
        "ĠÐ",
        "¢Ðµ"
      ],
      [
        "Ð¸",
        "Ð½Ð¸"
      ],
      [
        "ĠÐ¿ÑĢÐ¾Ð²ÐµÑĢ",
        "ÐºÐ¸"
      ],
      [
        "Ġ",
        "D"
      ],
      [
        "ĠÐ¢Ðµ",
        "Ð¾ÑĢ"
      ],
      [
        "Ġ",
        "S"
      ],
      [
        "Ð¾ÑĢ",
        "Ð¸ÑĤ"
      ],
      [
        "ĠÐ¿Ð¾ÑĤ",
        "ÑĢÐµÐ±"
      ],
      [
        "Ġ",
        "ÐµÐ´"
      ],
      [
        "Ð¸Ð½Ð¸",
        "ÑĨ"
      ],
      [
        "ĠÐµÐ´",
        "Ð¸Ð½Ð¸ÑĨ"
      ],
      [
        "Ð¸ÑĤÐµÐ»ÑĮ",
        "Ð½Ð¾ÑģÑĤÐ¸"
      ],
      [
        "Ð¸ÑĩÐµÑģÐº",
        "Ð°Ñı"
      ],
      [
        "Ð¸ÑĩÐµÑģÐº",
        "Ð¸Ð¼"
      ],
      [
        "ÑĢÑĥÐº",
        "ÑĤÑĥ"
      ],
      [
        "ĠÐ¾Ð¿Ð¸Ñģ",
        "ÑĭÐ²Ð°ÐµÑĤ"
      ],
      [
        "ĠÑģÑĤ",
        "ÑĢÑĥÐºÑĤÑĥ"
      ],
      [
        "Ð¾Ð½",
        "Ð½Ð°Ñı"
      ],
      [
        "ĠÐ²",
        "ÐµÐºÑĤÐ¾ÑĢ"
      ],
      [
        "ĠÐ¸Ð½",
        "Ð¶ÐµÐ½ÐµÑĢ"
      ],
      [
        "ĠÐ¿ÑĢÐ¾Ð³ÑĢÐ°Ð¼",
        "Ð¼"
      ],
      [
        "Ð¸",
        "Ð¹"
      ],
      [
        "ĠÑį",
        "ÑĤ"
      ],
      [
        "Ð°ÑĤ",
        "ÑĮ"
      ],
      [
        "Ð¸ÑĤ",
        "ÑĮ"
      ],
      [
        "ĠÑģ",
        "Ð¾"
      ],
      [
        "ĠÐ·Ð°Ð²",
        "Ð¸Ñģ"
      ],
      [
        "ĠÐ",
        "¤"
      ],
      [
        "ĠÑĦ",
        "ÑĥÐ½Ðº"
      ],
      [
        "ĠÑĦÑĥÐ½Ðº",
        "ÑĨÐ¸Ð¸"
      ],
      [
        "ĠÐ·Ð°Ð´Ð°Ñĩ",
        "Ð¸"
      ],
      [
        "r",
        "o"
      ],
      [
        "Ðº",
        "Ð¾ÑĢ"
      ],
      [
        "ÑģÐ½Ð¾Ð²",
        "Ð½ÑĭÐµ"
      ],
      [
        "ĠÐ¾Ð¿ÑĢÐµÐ´ÐµÐ»",
        "ÑıÐµÑĤ"
      ],
      [
        "in",
        "g"
      ],
      [
        "ĠÐ´Ð°Ð½",
        "Ð½ÑĭÐµ"
      ],
      [
        "ÑĤ",
        "Ð¾ÑĢ"
      ],
      [
        "Ġ",
        "C"
      ],
      [
        "ÑĨÐµ",
        "ÑģÑģ"
      ],
      [
        "ÐµÐ¼",
        "ÐµÐ½ÑĤ"
      ],
      [
        "ĠÑįÐ»",
        "ÐµÐ¼ÐµÐ½ÑĤ"
      ],
      [
        "ĠÑįÐ»",
        "ÐµÐºÑĤÑĢ"
      ],
      [
        "ĠÐ¿",
        "Ð¾Ð·"
      ],
      [
        "Ð¸ÑĢ",
        "ÑĥÐµÑĤ"
      ],
      [
        "Ð°Ð",
        "³"
      ],
      [
        "ĠÐº",
        "Ð¾Ð¼Ð¿"
      ],
      [
        "Ð¾Ð½",
        "ÐµÐ½ÑĤ"
      ],
      [
        "ĠÐºÐ¾Ð¼Ð¿",
        "Ð¾Ð½ÐµÐ½ÑĤ"
      ],
      [
        "Ð¸",
        "ÑĢÐ¾Ð²"
      ],
      [
        "ÐµÐ½Ð¸",
        "ÐµÐ¼"
      ],
      [
        "Ñĭ",
        "Ð¼"
      ],
      [
        "ĠÑĨ",
        "ÐµÐ»"
      ],
      [
        "Ð½Ð¾",
        "Ðµ"
      ],
      [
        "Ð°Ð»",
        "ÑĮ"
      ],
      [
        "ĠÑĤ",
        "Ð¾Ðº"
      ],
      [
        "te",
        "nt"
      ],
      [
        "tent",
        "ion"
      ],
      [
        "ĠÐ",
        "ĳ"
      ],
      [
        "ÐµÐ¼",
        "Ð¾Ð¹"
      ],
      [
        "ÑĤ",
        "ÐµÐºÑģÑĤ"
      ],
      [
        "ÑĢÐ°",
        "ÑīÐ°ÐµÑĤ"
      ],
      [
        "Ð¾Ð»",
        "Ð¾Ð¶"
      ],
      [
        "ÑĤ",
        "ÐµÑĢ"
      ],
      [
        "ÐµÐ½",
        "Ð½ÑĭÑħ"
      ],
      [
        "ĠÐ¸Ð½",
        "ÑĤÐµÑĢ"
      ],
      [
        "Ð¿",
        "ÑĢÐµÑĤ"
      ],
      [
        "ĠÐ¸Ð½ÑĤÐµÑĢ",
        "Ð¿ÑĢÐµÑĤ"
      ],
      [
        "»",
        "Ð¾Ð¶"
      ],
      [
        "ĠÐ¿Ð¾",
        "Ð½Ð¸Ð¼Ð°Ð½Ð¸Ñı"
      ],
      [
        "ĠÐ·Ð°Ð",
        "»Ð¾Ð¶"
      ],
      [
        "ĠÐļ",
        "Ð¾ÑĢÑĢÐµÐºÑĤ"
      ],
      [
        "ĠÐ¿ÑĢÐµÐ´Ð¿",
        "Ð¾Ð»Ð¾Ð¶"
      ],
      [
        "ĠÐ¸Ð½ÑĤÐµÑĢÐ¿ÑĢÐµÑĤ",
        "Ð°ÑĨÐ¸Ñı"
      ],
      [
        "ĠÐ·Ð°Ð»Ð¾Ð¶",
        "ÐµÐ½Ð½ÑĭÑħ"
      ],
      [
        "ĠÐļÐ¾ÑĢÑĢÐµÐºÑĤ",
        "Ð½Ð°Ñı"
      ],
      [
        "ĠÐ¿ÑĢÐµÐ´Ð¿Ð¾Ð»Ð¾Ð¶",
        "ÐµÐ½Ð¸Ð¹"
      ],
      [
        "ĠÐ¸ÑģÐ¿Ð¾Ð»ÑĮÐ·ÑĥÐµÑĤ",
        "ÑģÑı"
      ],
      [
        "ÐºÐ¸",
        "Ð¹"
      ],
      [
        "Ðļ",
        "ÑĢÐ°ÑĤ"
      ],
      [
        "ÐļÑĢÐ°ÑĤ",
        "ÐºÐ¸Ð¹"
      ],
      [
        "H",
        "T"
      ],
      [
        "T",
        "P"
      ],
      [
        "Ġ",
        "HT"
      ],
      [
        "Ð¿ÑĢÐ°Ð²",
        "ÐºÐ°"
      ],
      [
        "ĠHT",
        "TP"
      ],
      [
        "ĠÑģ",
        "Ð¾Ð²"
      ],
      [
        "Ð°Ð½",
        "Ð½ÑĭÐµ"
      ],
      [
        "ÐºÐ¸",
        "Ñħ"
      ],
      [
        "ÑĭÐ²",
        "Ð°ÑİÑĤ"
      ],
      [
        "ĠÐ¾Ð¿Ð¸Ñģ",
        "ÑĭÐ²Ð°ÑİÑĤ"
      ],
      [
        "Ð»",
        "Ð¾Ð²"
      ],
      [
        "Ñĩ",
        "ÐµÑģÐº"
      ],
      [
        "Ð²",
        "Ð°ÑİÑĤÑģÑı"
      ],
      [
        "Ð·",
        "Ð¾ÑĢ"
      ],
      [
        "Ð¼",
        "ÐµÑģÑĤ"
      ],
      [
        "Ð¼",
        "Ð°ÑĤÑĢÐ¸"
      ],
      [
        "ĠÐ¾",
        "Ð½Ð¸"
      ],
      [
        "ÑģÐº",
        "Ð¾Ð»ÑĮ"
      ],
      [
        "ĠÐ¾Ð±",
        "Ð·Ð¾ÑĢ"
      ],
      [
        "ĠÐ¿Ð¾",
        "ÑģÐºÐ¾Ð»ÑĮ"
      ],
      [
        "ÑģÑģ",
        "Ð¼Ð°ÑĤÑĢÐ¸"
      ],
      [
        "ÑıÐ·",
        "Ð°Ð½Ð½ÑĭÐµ"
      ],
      [
        "ĠÑĢÐ°Ð·",
        "Ð½ÑĭÐµ"
      ],
      [
        "ĠÐ¿Ð¾Ð½ÑıÑĤ",
        "Ð¸Ñı"
      ],
      [
        "ĠÑĩÐ°ÑģÑĤ",
        "Ð¾"
      ],
      [
        "ĠÑĥÑĢÐ¾Ð²",
        "Ð½Ð¸"
      ],
      [
        "ĠÑĢÐ°",
        "ÑģÑģÐ¼Ð°ÑĤÑĢÐ¸"
      ],
      [
        "ĠÐ¡Ð²",
        "ÑıÐ·Ð°Ð½Ð½ÑĭÐµ"
      ],
      [
        "ĠÑģÐ¾Ð²",
        "Ð¼ÐµÑģÑĤ"
      ],
      [
        "ĠÐ¿Ð¾ÑģÐºÐ¾Ð»ÑĮ",
        "ÐºÑĥ"
      ],
      [
        "ĠÑĢÐ°ÑģÑģÐ¼Ð°ÑĤÑĢÐ¸",
        "Ð²Ð°ÑİÑĤÑģÑı"
      ],
      [
        "ĠÑģÐ¾Ð²Ð¼ÐµÑģÑĤ",
        "Ð½Ð¾"
      ],
      [
        "ÑĩÐµÑģÐº",
        "Ð°Ñı"
      ],
      [
        "Ñħ",
        "Ð½Ð¸"
      ],
      [
        "Ð",
        "¢Ðµ"
      ],
      [
        "Ð¢Ðµ",
        "ÑħÐ½Ð¸"
      ],
      [
        "ĠÑģ",
        "Ð¿ÑĢÐ°Ð²ÐºÐ°"
      ],
      [
        "Ð¢ÐµÑħÐ½Ð¸",
        "ÑĩÐµÑģÐºÐ°Ñı"
      ],
      [
        "ĠÐ½",
        "Ð°Ð±"
      ],
      [
        "ĠÐ½Ð°Ð±",
        "Ð»Ñİ"
      ],
      [
        "ĠÑģÐ»Ð¾Ð¶",
        "Ð½ÑĭÑħ"
      ],
      [
        "ĠÐĶ",
        "Ð»Ñı"
      ],
      [
        "ĠÐ²Ð°Ð¶",
        "Ð½Ñĭ"
      ],
      [
        "Ð¸ÑĢÑĥ",
        "ÐµÐ¼Ð¾ÑģÑĤÑĮ"
      ],
      [
        "ĠÐ½Ð°Ð´ÐµÐ¶",
        "Ð½Ð¾ÑģÑĤÑĮ"
      ],
      [
        "ĠÐ´Ð¾Ð¿Ð¾Ð»Ð½Ð¸ÑĤÐµÐ»ÑĮ",
        "Ð½Ð¾"
      ],
      [
        "Ð´Ð°",
        "ÐµÐ¼Ð¾ÑģÑĤÑĮ"
      ],
      [
        "ĠÐ¼Ð°ÑģÑĪÑĤÐ°Ð±",
        "Ð¸ÑĢÑĥÐµÐ¼Ð¾ÑģÑĤÑĮ"
      ],
      [
        "ĠÐ½Ð°Ð±Ð»Ñİ",
        "Ð´Ð°ÐµÐ¼Ð¾ÑģÑĤÑĮ"
      ],
      [
        "ĠÑģ",
        "Ð¾Ð±"
      ],
      [
        "Ñĭ",
        "ÑĤ"
      ],
      [
        "ĠÑģÐ¾Ð±",
        "ÑĭÑĤ"
      ],
      [
        "Ð",
        "Ĵ"
      ],
      [
        "Ð°Ð",
        "¹"
      ],
      [
        "Ð²",
        "ÐµÐ´ÐµÐ½Ð¸Ðµ"
      ],
      [
        "ĠÑĤÐµÐ¼",
        "Ñĥ"
      ],
      [
        "ÐĴ",
        "Ð²ÐµÐ´ÐµÐ½Ð¸Ðµ"
      ],
      [
        "Ñģ",
        "Ð½Ð¸ÑĤ"
      ],
      [
        "Ñı",
        "ÑģÐ½Ð¸ÑĤ"
      ],
      [
        "ÐµÑĤ",
        "Ð¸ÑĩÐµÑģÐºÐ¸Ðµ"
      ],
      [
        "ĠÐ¾Ð±ÑĬ",
        "ÑıÑģÐ½Ð¸ÑĤ"
      ],
      [
        "Ð¸Ðº",
        "Ðµ"
      ],
      [
        "ĠÐ¿ÑĢÐ°ÐºÑĤ",
        "Ð¸ÐºÐµ"
      ],
      [
        "ĠÐ¿Ð¾Ð¼Ð¾Ð³",
        "Ð°ÑİÑĤ"
      ],
      [
        "ĠÐ°Ð»Ð³",
        "Ð¾ÑĢÐ¸ÑĤ"
      ],
      [
        "ĠÐ¢ÐµÐ¾ÑĢ",
        "ÐµÑĤÐ¸ÑĩÐµÑģÐºÐ¸Ðµ"
      ],
      [
        "ĠÐ¾Ð±ÑĬÑıÑģÐ½Ð¸ÑĤ",
        "ÑĮ"
      ],
      [
        "ĠÐ°Ð»Ð³Ð¾ÑĢÐ¸ÑĤ",
        "Ð¼Ð°"
      ],
      [
        "Ðļ",
        "Ð¾Ð½"
      ],
      [
        "ÑģÐ¿",
        "ÐµÐºÑĤ"
      ],
      [
        "ĠÑĢÐ°Ð·Ð´",
        "ÐµÐ»Ð°"
      ],
      [
        "ÐļÐ¾Ð½",
        "ÑģÐ¿ÐµÐºÑĤ"
      ],
      [
        "ĠÑģÐ²ÑıÐ·",
        "ÑĭÐ²Ð°ÐµÑĤ"
      ],
      [
        "ĠÐ¿ÐµÑĢÐµÐ´",
        "Ð°Ñĩ"
      ],
      [
        "Ð¸",
        "Ð±"
      ],
      [
        "ĠÐ",
        "³ÑĢÐ°Ð½Ð¸Ñĩ"
      ],
      [
        "ĠÑģÐ»",
        "ÑĥÑĩÐ°"
      ],
      [
        "ĠÐŁ",
        "ÑĢÐ°ÐºÑĤ"
      ],
      [
        "ĠÐ¸Ð·Ð¼ÐµÑĢ",
        "ÐµÐ½Ð¸Ñı"
      ],
      [
        "ĠÑĢÐµÐ°Ð»Ð¸Ð·",
        "Ð°ÑĨÐ¸Ñı"
      ],
      [
        "ĠÐ¿ÑĢÐ¾Ð¸Ð·Ð²Ð¾Ð´",
        "Ð¸ÑĤÐµÐ»ÑĮÐ½Ð¾ÑģÑĤÐ¸"
      ],
      [
        "ĠÐºÐ¾ÑĢÑĢÐµÐºÑĤ",
        "Ð½Ð¾ÑģÑĤÐ¸"
      ],
      [
        "ĠÐ³ÑĢÐ°Ð½Ð¸Ñĩ",
        "Ð½ÑĭÑħ"
      ],
      [
        "ĠÑģÐ»ÑĥÑĩÐ°",
        "ÐµÐ²"
      ],
      [
        "ĠÐŁÑĢÐ°ÐºÑĤ",
        "Ð¸ÑĩÐµÑģÐºÐ°Ñı"
      ],
      [
        "Ð",
        "£"
      ],
      [
        "ÑħÐ¾Ð´",
        "Ð¸ÑĤÑĮ"
      ],
      [
        "ĠÐ·Ð°Ð",
        "¼"
      ],
      [
        "ĠÐ¾Ð±Ð»Ð°ÑģÑĤ",
        "Ð¸"
      ],
      [
        "s",
        "s"
      ],
      [
        "Ñĩ",
        "ÐµÐ±"
      ],
      [
        "ĠÑģ",
        "Ð½Ð°Ñĩ"
      ],
      [
        "ÐµÐ½Ð¸",
        "Ð¸"
      ],
      [
        "Ð°ÑĤ",
        "ÐµÐ¼"
      ],
      [
        "ĠÐ·",
        "Ð°ÑĤÐµÐ¼"
      ],
      [
        "Ð°Ð»",
        "Ð°"
      ],
      [
        "ĠÐŁ",
        "ÑĢÐ¸"
      ],
      [
        "ÐµÐ·",
        "Ð½Ð¾"
      ],
      [
        "ĠÐ¸Ð·ÑĥÑĩ",
        "ÐµÐ½Ð¸Ð¸"
      ],
      [
        "ĠÐ¿Ð¾Ð»",
        "ÐµÐ·Ð½Ð¾"
      ],
      [
        "ĠÐ·Ð°Ð´Ð°Ñĩ",
        "Ð°Ð¼"
      ],
      [
        "ĠÐ¾Ð¿ÑĢÐµÐ´ÐµÐ»",
        "ÐµÐ½Ð¸Ñı"
      ],
      [
        "ĠÐ¿Ð¾Ð½ÑıÑĤ",
        "ÑĮ"
      ],
      [
        "ĠÐ¿ÑĢÐ°ÐºÑĤ",
        "Ð¸ÑĩÐµÑģÐºÐ¸Ð¼"
      ],
      [
        "ĠÐ¿ÐµÑĢÐµ",
        "ÑħÐ¾Ð´Ð¸ÑĤÑĮ"
      ],
      [
        "ĠÑįÑĤ",
        "Ð¾Ð¹"
      ],
      [
        "Ð£",
        "ÑĩÐµÐ±"
      ],
      [
        "ĠÐ·Ð°Ð¼",
        "ÐµÑĤÐºÐ°"
      ],
      [
        "ĠÑģÐ½Ð°Ñĩ",
        "Ð°Ð»Ð°"
      ],
      [
        "Ð£ÑĩÐµÐ±",
        "Ð½Ð°Ñı"
      ],
      [
        "Ġ",
        "A"
      ],
      [
        "Ð°",
        "ÑģÑģ"
      ],
      [
        "Ð",
        "ŀ"
      ],
      [
        "Ð¾Ð²Ð°Ð½Ð¸",
        "Ð¹"
      ],
      [
        "ĠÐ·Ð°Ð²Ð¸Ñģ",
        "Ð¸ÑĤ"
      ],
      [
        "ÑĭÐ²",
        "Ð°ÑĤÑĮ"
      ],
      [
        "ĠÐ¾Ð³ÑĢÐ°Ð½Ð¸Ñĩ",
        "ÐµÐ½Ð¸Ñı"
      ],
      [
        "ĠÐ¼ÐµÑĤÐ¾Ð´",
        "Ð°"
      ],
      [
        "ĠÐ²Ð°Ð¶",
        "Ð½Ð¾"
      ],
      [
        "ĠÑģÐ¸ÑģÑĤÐµÐ¼Ð°",
        "Ñħ"
      ],
      [
        "ĠÐ²ÑĭÑĩÐ¸ÑģÐ»Ð¸ÑĤÐµÐ»ÑĮ",
        "Ð½ÑĥÑİ"
      ],
      [
        "ĠÑĥÑĩÐ¸ÑĤ",
        "ÑĭÐ²Ð°ÑĤÑĮ"
      ],
      [
        "ĠÐ¿Ð¾ÑĤÑĢÐµÐ±",
        "Ð»ÐµÐ½Ð¸Ðµ"
      ],
      [
        "ĠÐ¸Ð½Ð¶ÐµÐ½ÐµÑĢ",
        "Ð½ÑĭÑħ"
      ],
      [
        "Ñĭ",
        "Ð±Ð¾ÑĢ"
      ],
      [
        "Ðº",
        "ÑĢÐµÑĤ"
      ],
      [
        "ÑħÐ¾Ð´",
        "Ð°"
      ],
      [
        "ĠÐĴ",
        "ÑĭÐ±Ð¾ÑĢ"
      ],
      [
        "ĠÑĤÑĢÐµÐ±",
        "Ð¾Ð²Ð°Ð½Ð¸Ð¹"
      ],
      [
        "ĠÐºÐ¾Ð½",
        "ÐºÑĢÐµÑĤ"
      ],
      [
        "ĠÐ¾Ð³ÑĢÐ°Ð½Ð¸Ñĩ",
        "ÐµÐ½Ð¸Ð¹"
      ],
      [
        "ĠÑĢÐµÐ·ÑĥÐ»ÑĮÑĤÐ°ÑĤ",
        "Ñĥ"
      ],
      [
        "ĠÐ¿Ð¾Ð´",
        "ÑħÐ¾Ð´Ð°"
      ],
      [
        "ĠÐ²ÑħÐ¾Ð´",
        "Ð½ÑĭÑħ"
      ],
      [
        "ĠÐºÐ¾Ð½ÐºÑĢÐµÑĤ",
        "Ð½Ð¾Ð³Ð¾"
      ],
      [
        "ÑĤ",
        "Ð¸Ð¼"
      ],
      [
        "ĠÐ¾Ð¿ÐµÑĢÐ°ÑĨÐ¸",
        "Ð¸"
      ],
      [
        "ÑĤÐ¸Ð¼",
        "Ð¸Ð·"
      ],
      [
        "ÐµÑĢ",
        "Ð¶"
      ],
      [
        "Ðŀ",
        "ÑģÐ½Ð¾Ð²Ð½ÑĭÐµ"
      ],
      [
        "ĠÑģÐ²",
        "ÐµÐ´ÐµÐ½Ð¸Ñı"
      ],
      [
        "ĠÐĺ",
        "Ð½"
      ],
      [
        "Ġ",
        "ÑĢÐ°Ð±Ð¾ÑĤ"
      ],
      [
        "ĠÐ·",
        "Ð½Ð°Ñĩ"
      ],
      [
        "ĠÐ±",
        "Ð»"
      ],
      [
        "ÐµÐ»",
        "Ñı"
      ],
      [
        "ĠÐ¼",
        "Ðµ"
      ],
      [
        "ĠÐ¼Ðµ",
        "Ñħ"
      ],
      [
        "Ð°Ð",
        "¿"
      ],
      [
        "d",
        "e"
      ],
      [
        "ÐµÐ»",
        "Ð¸Ñĩ"
      ],
      [
        "ĠÐ¿ÑĢÐ¾",
        "ÑĨÐµÑģÑģ"
      ],
      [
        "ÐºÐ¾ÑĢ",
        "Ð¾ÑģÑĤÑĮ"
      ],
      [
        "ĠÐ",
        "¥"
      ],
      [
        "Ð¾",
        "Ðµ"
      ],
      [
        "Ð¾Ð»ÑĮ",
        "ÑĪ"
      ],
      [
        "ÐµÐ½ÑĤ",
        "Ð¸ÑĦ"
      ],
      [
        "Ð¸Ð²",
        "Ð°ÐµÑĤ"
      ],
      [
        "ĠÑģÐ²ÑıÐ·",
        "Ð°Ð½"
      ],
      [
        "e",
        "r"
      ],
      [
        "ĠÐ²",
        "ÐµÑĢ"
      ],
      [
        "ĠÐ¿ÑĢÐµÐ¾Ð±ÑĢÐ°Ð·",
        "ÑĥÐµÑĤ"
      ],
      [
        "Ð¿",
        "Ñĥ"
      ],
      [
        "ĠÐ¼Ð¾Ð´",
        "ÐµÐ»ÑĮ"
      ],
      [
        "ĠÑĤÐ¾Ðº",
        "ÐµÐ½"
      ],
      [
        "ÑĪ",
        "ÐµÐ»"
      ],
      [
        "ĠÐ²",
        "Ð¾Ð·"
      ],
      [
        "ĠÐ¡Ð¾Ð»Ð½",
        "ÐµÑĩ"
      ],
      [
        "ÑģÑĤÐ²",
        "ÐµÐ½"
      ],
      [
        "Ð¾Ð»",
        "Ð¾Ð³"
      ],
      [
        "ĠÐ·",
        "Ð²"
      ],
      [
        "ÐµÐ·",
        "Ð´"
      ],
      [
        "ĠÐ·Ð²",
        "ÐµÐ·Ð´"
      ],
      [
        "Ð°ÑĨÐ¸",
        "Ð¸"
      ],
      [
        "Ð¸",
        "ÐºÐ°"
      ],
      [
        "ĠÐĳ",
        "Ð¸"
      ],
      [
        "ĠÐº",
        "Ð»"
      ],
      [
        "ĠÐ¿Ð¾ÑģÐ»ÐµÐ´Ð¾Ð²Ð°ÑĤÐµÐ»ÑĮÐ½Ð¾ÑģÑĤÑĮ",
        "Ñİ"
      ],
      [
        "ĠÐ±",
        "Ð°Ð·"
      ],
      [
        "ĠÐ·Ð°Ð¿",
        "Ð¸Ñģ"
      ],
      [
        "u",
        "e"
      ],
      [
        "Ð¾Ð²",
        "Ð¾Ð¹"
      ],
      [
        "Ð»Ð¸",
        "ÑĨ"
      ],
      [
        "ĠÐ¸Ð½",
        "ÑĦÐ¾ÑĢÐ¼"
      ],
      [
        "ĠÐºÐ¾Ð½",
        "ÑĤÐµÐºÑģÑĤ"
      ],
      [
        "P",
        "I"
      ],
      [
        "ÑĢ",
        "Ð³"
      ],
      [
        "ĠÐ¾",
        "ÑĢÐ³"
      ],
      [
        "ĠÐ¾ÑĢÐ³",
        "Ð°Ð½Ð¸Ð·"
      ],
      [
        "ĠÐ½",
        "ÐµÑģÐº"
      ],
      [
        "ĠÐ½ÐµÑģÐº",
        "Ð¾Ð»ÑĮ"
      ],
      [
        "ÐµÐ½",
        "Ð½Ð¾Ð¹"
      ],
      [
        "ĠÐ½ÐµÑģÐºÐ¾Ð»ÑĮ",
        "ÐºÐ¸Ñħ"
      ],
      [
        "ÐµÑĢ",
        "Ð²"
      ],
      [
        "Ð½",
        "ÐµÑĢ"
      ],
      [
        "ĠÐ³",
        "ÐµÐ½"
      ],
      [
        "ĠÐ¿ÑĢ",
        "Ð¸Ð¼"
      ],
      [
        "ĠÐļ",
        "Ð¾Ð½"
      ],
      [
        "Ð¸Ð½",
        "Ñĥ"
      ],
      [
        "Ð·",
        "Ð½Ð°Ñĩ"
      ],
      [
        "ÐµÐ³",
        "Ð¾"
      ],
      [
        "ĠÐ¿ÐµÑĢÐµÐ´Ð°Ñĩ",
        "Ð¸"
      ],
      [
        "Ñĭ",
        "Ñħ"
      ],
      [
        "ĠÐ°",
        "Ð´"
      ],
      [
        "ÑģÑĤ",
        "ÑĢ"
      ],
      [
        "ĠÑħ",
        "ÑĢÐ°Ð½"
      ],
      [
        "Ð²",
        "Ð¾Ð»"
      ],
      [
        "ÑĨÐ¸",
        "Ñİ"
      ],
      [
        "s",
        "t"
      ],
      [
        "Ġ",
        "I"
      ],
      [
        "Ð·",
        "Ð°Ðº"
      ],
      [
        "ÑģÐº",
        "Ð¾ÑĢ"
      ],
      [
        "ÑĢÐ°Ð½",
        "Ð·Ð°Ðº"
      ],
      [
        "Ġ",
        "ÑĢ"
      ],
      [
        "Ð´",
        "ÐµÐ½Ð¸Ðµ"
      ],
      [
        "Ð¾Ð¶",
        "Ð´ÐµÐ½Ð¸Ðµ"
      ],
      [
        "Ð½Ð¸",
        "Ðº"
      ],
      [
        "Ð¸ÑĩÐµÑģÐº",
        "Ð¾Ð¹"
      ],
      [
        "at",
        "a"
      ],
      [
        "ĠD",
        "ata"
      ],
      [
        "ĠÐ",
        "Ń"
      ],
      [
        "e",
        "ss"
      ],
      [
        "Ñĭ",
        "Ðº"
      ],
      [
        "Ð·",
        "ÑĭÐº"
      ],
      [
        "n",
        "c"
      ],
      [
        "Ð¸",
        "Ð´"
      ],
      [
        "Ð¾ÑģÑĤ",
        "Ð°Ð²"
      ],
      [
        "ĠÐº",
        "Ð¾ÑĢ"
      ],
      [
        "ÑĢÐ¾",
        "Ñģ"
      ],
      [
        "ÐµÐ",
        "¿"
      ],
      [
        "ĠÐ¸",
        "Ð´"
      ],
      [
        "ĠÐ¸Ð´",
        "ÐµÐ½ÑĤÐ¸ÑĦ"
      ],
      [
        "ĠÐ¾Ð¿",
        "ÑĤÐ¸Ð¼Ð¸Ð·"
      ],
      [
        "a",
        "r"
      ],
      [
        "Ð¾Ð±",
        "Ñī"
      ],
      [
        "ĠÑģÐ¾",
        "Ð¾Ð±Ñī"
      ],
      [
        "ÐµÐ½",
        "Ð½ÑĭÐµ"
      ],
      [
        "ÑĨÐ¸",
        "Ð¹"
      ],
      [
        "ÐµÐº",
        "Ñģ"
      ],
      [
        "Ð°ÑĤ",
        "ÑĭÐ²Ð°ÐµÑĤ"
      ],
      [
        "Ð°",
        "ÑĢÐ°ÐºÑĤ"
      ],
      [
        "ÐµÑĢ",
        "Ð¸Ð·"
      ],
      [
        "ĠÑħ",
        "Ð°ÑĢÐ°ÐºÑĤ"
      ],
      [
        "ÐµÑĢÐ¸Ð·",
        "ÑĥÐµÑĤ"
      ],
      [
        "ĠÑħÐ°ÑĢÐ°ÐºÑĤ",
        "ÐµÑĢÐ¸Ð·ÑĥÐµÑĤ"
      ],
      [
        "ĠÐ¾Ð±",
        "Ñī"
      ],
      [
        "Ðµ",
        "ÑĪ"
      ],
      [
        "c",
        "h"
      ],
      [
        "Ð»",
        "ÐµÐ½Ð¸Ð¹"
      ],
      [
        "Ð¸Ñģ",
        "Ð»ÑıÐµÑĤ"
      ],
      [
        "ÑĪ",
        "ÐµÐ½Ð¸Ñı"
      ],
      [
        "ĠÐ²ÑĭÑĩ",
        "Ð¸ÑģÐ»ÑıÐµÑĤ"
      ],
      [
        "ĠÐ¿ÑĢÐµÐ´ÑģÑĤÐ°Ð²",
        "Ð»ÐµÐ½Ð¸Ð¹"
      ],
      [
        "Ñĥ",
        "Ð¿"
      ],
      [
        "Ð¾ÑģÑĤ",
        "ÑĥÐ¿"
      ],
      [
        "ÑĢÐ°",
        "Ñī"
      ],
      [
        "ĠÑĢÐµ",
        "Ð°Ðº"
      ],
      [
        "ÑīÐ¸",
        "ÑīÐ°ÐµÑĤ"
      ],
      [
        "ĠÐ·Ð°",
        "ÑīÐ¸ÑīÐ°ÐµÑĤ"
      ],
      [
        "Ñı",
        "Ð´"
      ],
      [
        "ĠÐ²Ð·Ð°Ð¸Ð¼Ð¾Ð´ÐµÐ¹ÑģÑĤÐ²",
        "Ð¸Ñı"
      ],
      [
        "ĠÐ²",
        "Ð½"
      ],
      [
        "Ð¾Ð½",
        "Ð¾Ð¼"
      ],
      [
        "ĠÑģÐ¾ÑģÑĤÐ¾",
        "Ð¸ÑĤ"
      ],
      [
        "Ð¼",
        "ÐµÑĢ"
      ],
      [
        "p",
        "ro"
      ],
      [
        "Ð¸Ð½",
        "ÐµÐ¹"
      ],
      [
        "Ġ",
        "M"
      ],
      [
        "a",
        "l"
      ],
      [
        "ĠÐ¿Ð¾Ð»",
        "Ð¾Ð¶"
      ],
      [
        "ĠÐ²",
        "ÐµÐ»Ð¸Ñĩ"
      ],
      [
        "ĠÑģÐ»",
        "ÐµÐ´"
      ],
      [
        "Ð¾Ð½",
        "Ð¾Ð²"
      ],
      [
        "ĠÑĩ",
        "Ð¸ÑģÐ»"
      ],
      [
        "Ð¸",
        "Ð½Ñĭ"
      ],
      [
        "Ġ",
        "B"
      ],
      [
        "ĠÐ¿Ð¾Ð²",
        "ÑĤÐ¾ÑĢ"
      ],
      [
        "ÑģÐº",
        "Ð°Ð·"
      ],
      [
        "ĠÐ¿ÑĢÐµÐ´",
        "ÑģÐºÐ°Ð·"
      ],
      [
        "Ñ",
        "į"
      ],
      [
        "ĠÐ¸Ð·Ð¼ÐµÑĢ",
        "ÑıÐµÑĤ"
      ],
      [
        "Ñį",
        "ÑĪ"
      ],
      [
        "Ġ",
        "E"
      ],
      [
        "ĠÑģ",
        "ÐºÐ¾ÑĢÐ¾ÑģÑĤÑĮ"
      ],
      [
        "ÑĢÐ°Ð",
        "´"
      ],
      [
        "ĠÐ¿Ð¾Ð·",
        "Ð¸"
      ],
      [
        "ĠÐ´",
        "ÐµÐ¹ÑģÑĤÐ²"
      ],
      [
        "Ð¸",
        "ÐµÐ½ÑĤ"
      ],
      [
        "ÑĢÐ°Ð´",
        "Ð¸ÐµÐ½ÑĤ"
      ],
      [
        "ĠÐ±",
        "Ð¾Ð»ÑĮÑĪ"
      ],
      [
        "ĠÐ¾Ð³ÑĢÐ°Ð½Ð¸Ñĩ",
        "Ð¸Ð²Ð°ÐµÑĤ"
      ],
      [
        "ĠÑĨÐµÐ»",
        "ÐµÐ²"
      ],
      [
        "ĠÑģÑĤ",
        "ÑĢÐ¾"
      ],
      [
        "ĠÑĢÐ°Ð±Ð¾ÑĤ",
        "Ð°ÐµÑĤ"
      ],
      [
        "Ð¾Ð²Ð°ÑĤ",
        "ÑĮ"
      ],
      [
        "ĠÐ¿",
        "Ð°"
      ],
      [
        "at",
        "tention"
      ],
      [
        "ĠÑı",
        "Ð´"
      ],
      [
        "ÑīÐ¸",
        "Ð¹"
      ],
      [
        "ÑĢÐ°",
        "ÑĦ"
      ],
      [
        "ĠÑį",
        "Ðº"
      ],
      [
        "Ð´",
        "Ð°ÐµÑĤ"
      ],
      [
        "Ð¸ÑĢÐ¾Ð²",
        "Ð°Ð½"
      ],
      [
        "o",
        "r"
      ],
      [
        "ÐµÑĤ",
        "ÑĢ"
      ],
      [
        "Ð±",
        "ÑĥÑĩÐµÐ½Ð¸Ðµ"
      ],
      [
        "ĠÐŀ",
        "Ð±ÑĥÑĩÐµÐ½Ð¸Ðµ"
      ],
      [
        "Ð²",
        "ÑĭÐ¼"
      ],
      [
        "ĠÐ¿ÐµÑĢ",
        "Ð²ÑĭÐ¼"
      ],
      [
        "ĠÐ·Ð°Ð",
        "º"
      ],
      [
        "Ð¸Ð½",
        "ÑĨÐ¸"
      ],
      [
        "Ð¾",
        "Ñģ"
      ],
      [
        "Ðµ",
        "ÑģÑĤÐ²ÐµÐ½"
      ],
      [
        "ĠÐ·Ð²ÐµÐ·Ð´",
        "Ñĭ"
      ],
      [
        "Ð°",
        "ÑģÑĤÐ²"
      ],
      [
        "ÐµÐ»",
        "ÐºÐ¸"
      ],
      [
        "ĠÑĥÑĩ",
        "Ð°ÑģÑĤÐ²"
      ],
      [
        "ĠÐĴ",
        "Ñģ"
      ],
      [
        "ĠÐ",
        "Ĺ"
      ],
      [
        "ĠÐĴÑģ",
        "ÐµÐ»"
      ],
      [
        "Ð¾Ð»Ð¾Ð³",
        "Ð¸Ñı"
      ],
      [
        "ĠÐĹ",
        "ÐµÐ¼"
      ],
      [
        "Ð»",
        "Ð°Ð½"
      ],
      [
        "ĠÐ¡Ð¾Ð»Ð½ÐµÑĩ",
        "Ð½Ð¾Ð¹"
      ],
      [
        "Ð»Ð°Ð½",
        "ÐµÑĤ"
      ],
      [
        "Ñı",
        "ÐµÐ¼Ð¾Ð¹"
      ],
      [
        "ĠÐ²",
        "Ð¾Ðº"
      ],
      [
        "ĠÐ¾Ð±",
        "ÑĢÐ°ÑīÐ°ÐµÑĤ"
      ],
      [
        "ÑĢÑĥ",
        "Ð³"
      ],
      [
        "ĠÐ²Ð¾Ðº",
        "ÑĢÑĥÐ³"
      ],
      [
        "ĠÐ¾Ð±ÑĢÐ°ÑīÐ°ÐµÑĤ",
        "ÑģÑı"
      ],
      [
        "ÑĤ",
        "Ð¸Ð·"
      ],
      [
        "ĠÐ¿",
        "Ð°Ðº"
      ],
      [
        "ÑĪ",
        "ÑĢÑĥ"
      ],
      [
        "ĠÐ½Ð°",
        "ÑģÐ»ÐµÐ´"
      ],
      [
        "Ð°ÑĢ",
        "ÑĪÑĢÑĥ"
      ],
      [
        "ĠÐ¿Ð°Ðº",
        "ÐµÑĤ"
      ],
      [
        "Ð°ÑĢÑĪÑĢÑĥ",
        "ÑĤÐ¸Ð·"
      ],
      [
        "¶",
        "Ð¸Ð²"
      ],
      [
        "ĠÐ",
        "¶Ð¸Ð²"
      ],
      [
        "Ð",
        "Ŀ"
      ],
      [
        "Ð¾",
        "Ñħ"
      ],
      [
        "ÐĿ",
        "Ðļ"
      ],
      [
        "ĠÐ¾Ð±",
        "Ð¼ÐµÐ½"
      ],
      [
        "Ñĥ",
        "ÑİÑĤ"
      ],
      [
        "Ð»",
        "ÐµÑĩ"
      ],
      [
        "ĠÐºÐ¾Ð½ÑĤÐµÐºÑģÑĤ",
        "Ð°"
      ],
      [
        "Ñı",
        "Ð¼Ð¸"
      ],
      [
        "h",
        "on"
      ],
      [
        "t",
        "hon"
      ],
      [
        "y",
        "thon"
      ],
      [
        "ĠP",
        "ython"
      ],
      [
        "ĠÑĥ",
        "Ð¿ÑĢÐ°Ð²"
      ],
      [
        "ĠÑĤ",
        "Ð°Ð±"
      ],
      [
        "ĠÑģÐ¾Ð±ÑĭÑĤ",
        "Ð¸Ð¹"
      ],
      [
        "ĠÑĥÐ¿ÑĢÐ°Ð²",
        "Ð»ÑıÐµÑĤ"
      ],
      [
        "ĠÑĤÐ°Ð±",
        "Ð»Ð¸ÑĨ"
      ],
      [
        "ĠÐ",
        "Ľ"
      ],
      [
        "ÐµÑĢ",
        "Ð½Ð°Ñı"
      ],
      [
        "Ð°ÑĤ",
        "ÐµÑĢ"
      ],
      [
        "ĠÐº",
        "ÑĢÑĥ"
      ],
      [
        "ĠÐ¼",
        "Ð°ÑĤÐµÑĢ"
      ],
      [
        "ĠÐºÑĢÑĥ",
        "Ð¿"
      ],
      [
        "ĠÑģ",
        "Ð¾Ð·"
      ],
      [
        "Ð¸",
        "Ñİ"
      ],
      [
        "ĠÐ±",
        "Ð¸"
      ],
      [
        "ĠÐ½",
        "ÐµÐ±"
      ],
      [
        "ĠÑı",
        "Ð·ÑĭÐº"
      ],
      [
        "Ð½ÐµÑĢ",
        "Ð³"
      ],
      [
        "ĠÐ¸Ð·Ð¼ÐµÐ½",
        "ÑıÐµÑĤ"
      ],
      [
        "Ð¸ÑĩÐµÑģÐºÐ¸",
        "Ñħ"
      ],
      [
        "q",
        "ue"
      ],
      [
        "ÐµÐ»Ñı",
        "ÑĨÐ¸"
      ],
      [
        "ĠÑģÐ¾Ð¾Ð±Ñī",
        "ÐµÐ½Ð¸Ð¹"
      ],
      [
        "ĠÐ±Ð°Ð·",
        "Ð°"
      ],
      [
        "ÐµÐ»",
        "ÐµÐ¹"
      ],
      [
        "Ð¸ÑĤ",
        "ÐµÐ»ÐµÐ¹"
      ],
      [
        "Ð¾Ð·",
        "Ð½Ð°Ñĩ"
      ],
      [
        "ĠÑģÐµÑĤ",
        "ÐµÐ²"
      ],
      [
        "ĠÐ",
        "§"
      ],
      [
        "Ġ",
        "a"
      ],
      [
        "ÐµÐ½",
        "ÑıÐµÑĤ"
      ],
      [
        "ÑĥÑĤ",
        "Ð¸Ð½Ñĥ"
      ],
      [
        "ĠÐ¿ÑĢÐ¸Ð¼",
        "ÐµÐ½ÑıÐµÑĤ"
      ],
      [
        "ĠÐºÐ¾ÑĢ",
        "ÑĥÑĤÐ¸Ð½Ñĥ"
      ],
      [
        "ĠÐ²ÐµÐºÑĤÐ¾ÑĢ",
        "Ð½ÑĭÑħ"
      ],
      [
        "ĠÐ±Ð»",
        "Ð¸Ð·"
      ],
      [
        "ĠÐ¾Ð",
        "¶"
      ],
      [
        "ĠÐ´Ð°Ð½",
        "Ð½ÑĭÐ¼Ð¸"
      ],
      [
        "ÑĨ",
        "Ð°"
      ],
      [
        "Ð°Ð¹",
        "Ð»Ð¾Ð²"
      ],
      [
        "ÑĢÐµ",
        "Ñģ"
      ],
      [
        "ĠÐ°Ð´",
        "ÑĢÐµÑģ"
      ],
      [
        "ĠA",
        "PI"
      ],
      [
        "ÐµÐ½",
        "Ð½Ð°Ñı"
      ],
      [
        "w",
        "a"
      ],
      [
        "ĠÐ¾ÑĤ",
        "Ð²"
      ],
      [
        "ĠÑģ",
        "ÐµÑĢÐ²"
      ],
      [
        "ĠÐ¿Ð¾ÑĤ",
        "Ð¾Ðº"
      ],
      [
        "ĠÑģÐµÑĢÐ²",
        "Ð¸Ñģ"
      ],
      [
        "ĠÑĥ",
        "ÑģÐºÐ¾ÑĢ"
      ],
      [
        "Ñħ",
        "Ð¾Ð¶Ð´ÐµÐ½Ð¸Ðµ"
      ],
      [
        "Ð¸Ñģ",
        "ÑħÐ¾Ð¶Ð´ÐµÐ½Ð¸Ðµ"
      ],
      [
        "ĠÐ¿ÑĢÐ¾",
        "Ð¸ÑģÑħÐ¾Ð¶Ð´ÐµÐ½Ð¸Ðµ"
      ],
      [
        "ĠÐ¿Ð¾ÑģÐ»ÐµÐ´Ð¾Ð²Ð°ÑĤÐµÐ»ÑĮ",
        "Ð½Ð¾ÑģÑĤÐ¸"
      ],
      [
        "ÑıÑĤ",
        "ÑĮ"
      ],
      [
        "ĠÑģÑĤÑĢÑĥÐºÑĤÑĥ",
        "ÑĢ"
      ],
      [
        "ĠÑħÑĢÐ°Ð½",
        "ÐµÐ½Ð¸Ñı"
      ],
      [
        "ÐµÐ½Ð¸",
        "Ð²"
      ],
      [
        "o",
        "u"
      ],
      [
        "Ġ",
        "U"
      ],
      [
        "ĠÑĤ",
        "ÑĢÐ°Ð½Ð·Ð°Ðº"
      ],
      [
        "ĠÑĤÑĢÐ°Ð½Ð·Ð°Ðº",
        "ÑĨÐ¸Ð¹"
      ],
      [
        "Ð¾Ðº",
        "Ð¸"
      ],
      [
        "ĠÐ·Ð°Ð¿",
        "ÑĢÐ¾Ñģ"
      ],
      [
        "ĠÐºÐ»",
        "Ð°ÑģÑģ"
      ],
      [
        "ÑĤ",
        "Ð¾Ð²"
      ],
      [
        "ĠÐ¾",
        "Ð·Ð½Ð°Ñĩ"
      ],
      [
        "Ð¿",
        "Ð¸Ñģ"
      ],
      [
        "ĠÑĥ",
        "Ð·"
      ],
      [
        "Ð°ÑĢ",
        "ÑĮ"
      ],
      [
        "ÑĢÐ°Ñī",
        "ÐµÐ½Ð¸Ñı"
      ],
      [
        "ĠÐ¾Ð·Ð½Ð°Ñĩ",
        "Ð°ÐµÑĤ"
      ],
      [
        "Ð»",
        "Ð°Ñģ"
      ],
      [
        "ĠÑģ",
        "Ð¾Ð³"
      ],
      [
        "it",
        "y"
      ],
      [
        "ĠÑģÐ¾Ð³",
        "Ð»Ð°Ñģ"
      ],
      [
        "Ð¼",
        "Ñĭ"
      ],
      [
        "ĠÐ¼",
        "Ð¾Ð¶"
      ],
      [
        "ĠÐ¸Ð½ÑĦÐ¾ÑĢÐ¼",
        "Ð°ÑĨÐ¸Ñİ"
      ],
      [
        "ĠÐ¼Ð¾Ð¶",
        "ÐµÑĤ"
      ],
      [
        "s",
        "e"
      ],
      [
        "ĠÐ´",
        "Ð¾"
      ],
      [
        "ĠÐµÐ´Ð¸Ð½Ð¸ÑĨ",
        "Ñĥ"
      ],
      [
        "ĠÐµÐ´Ð¸Ð½Ð¸ÑĨ",
        "ÐµÐ¹"
      ],
      [
        "ÐµÐ½",
        "Ð½ÑĥÑİ"
      ],
      [
        "Ð¼Ð¸",
        "ÑĢÐ¾Ð²"
      ],
      [
        "ĠÐ¿ÑĢÐ¾Ð³ÑĢÐ°Ð¼",
        "Ð¼Ð¸ÑĢÐ¾Ð²"
      ],
      [
        "Ð½Ð¾",
        "ÑĤÑĥ"
      ],
      [
        "ĠÐ¿Ð¾Ð»",
        "Ð½Ð¾ÑĤÑĥ"
      ],
      [
        "ÑĢÐ°Ð±Ð¾ÑĤ",
        "ÐºÐ¸"
      ],
      [
        "Ñģ",
        "Ñĥ"
      ],
      [
        "Ðº",
        "Ðµ"
      ],
      [
        "ĠS",
        "e"
      ],
      [
        "Ð¸",
        "Ðµ"
      ],
      [
        "ĠÐ²",
        "Ð¾"
      ],
      [
        "ĠÐ²ÑĢÐµÐ¼",
        "ÐµÐ½Ð¸"
      ],
      [
        "ĠÐ¾Ð±",
        "ÑĢÐ°Ð±Ð¾ÑĤÐºÐ¸"
      ],
      [
        "Ð´",
        "ÐµÐºÑģ"
      ],
      [
        "ĠÐ»",
        "Ð¾Ð³"
      ],
      [
        "Ġ",
        "F"
      ],
      [
        "ĠÐ",
        "¢"
      ],
      [
        "ĠÐ¿Ð¾Ð²",
        "ÐµÐ´ÐµÐ½Ð¸Ñı"
      ],
      [
        "ĠÐ¸Ð·Ð¼ÐµÐ½",
        "ÐµÐ½Ð¸Ðµ"
      ],
      [
        "ÑĮ",
        "ÑİÑĤ"
      ],
      [
        "Ñī",
        "Ðµ"
      ],
      [
        "ÑģÐ¿",
        "ÑĢÐµÐ´ÐµÐ»"
      ],
      [
        "ĠÐ¾ÑĤ",
        "Ð½Ð¾"
      ],
      [
        "ĠÑĢÐµÐ°Ðº",
        "ÑĨÐ¸Ð¸"
      ],
      [
        "Ðµ",
        "ÑīÐµ"
      ],
      [
        "ĠÐ²",
        "ÐµÑīÐµ"
      ],
      [
        "ĠÐ¥",
        "Ð¸Ð¼"
      ],
      [
        "ĠÐ³ÐµÐ½",
        "ÐµÑĢÐ°ÑĨÐ¸"
      ],
      [
        "L",
        "S"
      ],
      [
        "c",
        "ess"
      ],
      [
        "Ġ",
        "pro"
      ],
      [
        "Ð¾ÑĢ",
        "ÑıÐ´"
      ],
      [
        "ĠÐ¾Ð±",
        "ÑĢÐ°Ð±"
      ],
      [
        "ĠT",
        "LS"
      ],
      [
        "ĠÐ¾Ð¿ÑĤÐ¸Ð¼Ð¸Ð·",
        "Ð¸ÑĢÑĥÐµÑĤ"
      ],
      [
        "cess",
        "ing"
      ],
      [
        "Ġpro",
        "cessing"
      ],
      [
        "ĠÐ¾Ð±ÑĢÐ°Ð±",
        "Ð°ÑĤÑĭÐ²Ð°ÐµÑĤ"
      ],
      [
        "a",
        "g"
      ],
      [
        "a",
        "k"
      ],
      [
        "nc",
        "y"
      ],
      [
        "ĠÐ¿ÑĢÐµÐ´",
        "Ð¾ÑģÑĤÐ°Ð²"
      ],
      [
        "ĠÐŀ",
        "Ð¿"
      ],
      [
        "Ġ",
        "te"
      ],
      [
        "Ðº",
        "Ð¸ÑģÐ»"
      ],
      [
        "ĠÐ¿ÑĢÐ¾Ð²ÐµÑĢ",
        "ÑıÐµÑĤ"
      ],
      [
        "ĠÐ¿ÑĢÐµÐ´ÑģÑĤÐ°Ð²",
        "Ð»ÑıÐµÑĤ"
      ],
      [
        "Ġte",
        "st"
      ],
      [
        "ĠÐ¸Ð·Ð¼ÐµÐ½",
        "ÐµÐ½Ð¸Ñı"
      ],
      [
        "ĠÐ¿ÑĢÐµÐ´Ð¾ÑģÑĤÐ°Ð²",
        "Ð»ÑıÐµÑĤ"
      ],
      [
        "ĠÐ´",
        "Ð¾ÑģÑĤÑĥÐ¿"
      ],
      [
        "Ðµ",
        "ÑĦ"
      ],
      [
        "Ð¾ÑĢ",
        "ÑĭÐµ"
      ],
      [
        "ĠÐ½",
        "ÐµÐº"
      ],
      [
        "Ð¾ÑĤ",
        "Ð¾ÑĢÑĭÐµ"
      ],
      [
        "Ð¾Ð²Ð°Ð½Ð¸",
        "Ðµ"
      ],
      [
        "ĠÐ½ÐµÐº",
        "Ð¾ÑĤÐ¾ÑĢÑĭÐµ"
      ],
      [
        "ĠÐŁ",
        "ÐµÑĢ"
      ],
      [
        "Ġ",
        "K"
      ],
      [
        "ĠÐ¿ÑĢÐµÐ¾Ð±ÑĢÐ°Ð·",
        "Ð¾Ð²Ð°Ð½Ð¸Ðµ"
      ],
      [
        "ĠÑģÐ¾Ð±ÑĭÑĤ",
        "Ð¸Ñı"
      ],
      [
        "ĠÐ¼ÐµÑħ",
        "Ð°Ð½Ð¸Ð·"
      ],
      [
        "Ñı",
        "Ð¶"
      ],
      [
        "ĠÐ°",
        "Ð±"
      ],
      [
        "ĠÐĲ",
        "Ð²"
      ],
      [
        "ĠÐ°Ð±",
        "ÑģÑĤ"
      ],
      [
        "ĠÐ²ÑĢÐµÐ¼",
        "Ñı"
      ],
      [
        "ĠR",
        "e"
      ],
      [
        "ĠÑĢ",
        "Ð¾ÑģÑĤ"
      ],
      [
        "ĠÑģÐ»ÐµÐ´",
        "ÑĥÑİ"
      ],
      [
        "Ñĥ",
        "Ð»Ñı"
      ],
      [
        "ĠÑģ",
        "Ð±Ð¾ÑĢ"
      ],
      [
        "Ð°ÐµÑĤ",
        "ÑģÑı"
      ],
      [
        "Ð¾ÑģÑĤ",
        "Ð¸"
      ],
      [
        "ĠÑģÑĤÑĢÑĥÐºÑĤÑĥ",
        "ÑĢÑĥ"
      ],
      [
        "ĠÐ²ÐµÐ»Ð¸Ñĩ",
        "Ð¸Ð½Ñĭ"
      ],
      [
        "ĠÐ¼ÐµÑħ",
        "Ð°Ð½Ð¸"
      ],
      [
        "Ð»",
        "ÑĥÑĩ"
      ],
      [
        "ĠÐ¿Ð¾Ð¼Ð¾Ð³",
        "Ð°ÐµÑĤ"
      ],
      [
        "ĠÐĲÐ²",
        "ÑĤÐ¾ÑĢ"
      ],
      [
        "Ð²",
        "Ð°Ð½"
      ],
      [
        "ĠÐ²Ñĭ",
        "Ð·"
      ],
      [
        "Ð¸Ðº",
        "Ð°ÑĤÐ¾ÑĢ"
      ],
      [
        "ĠÐ¸Ð´ÐµÐ½ÑĤÐ¸ÑĦ",
        "Ð¸ÐºÐ°ÑĤÐ¾ÑĢ"
      ],
      [
        "Ð¾Ð½",
        "Ð½Ð¾Ð¹"
      ],
      [
        "ĠÐ»",
        "Ð¸Ð½ÐµÐ¹"
      ],
      [
        "Ð¸Ð·",
        "Ð°ÑĨÐ¸Ñı"
      ],
      [
        "ÑĢÑĥ",
        "Ð¶"
      ],
      [
        "ĠÐ¿ÑĢÐ¾Ð³ÑĢÐ°Ð¼Ð¼",
        "Ñĭ"
      ],
      [
        "ĠÐ²ÑĭÐ·",
        "Ð¾Ð²"
      ],
      [
        "Ð¼",
        "Ð°ÐµÑĤÑģÑı"
      ],
      [
        "ĠÐ·",
        "Ð°Ð½Ð¸"
      ],
      [
        "ĠÐ°",
        "ÑĤÐ¾Ð¼"
      ],
      [
        "ĠÐ·Ð°Ð½Ð¸",
        "Ð¼Ð°ÐµÑĤÑģÑı"
      ],
      [
        "ĠÐ°ÑĤÐ¾Ð¼",
        "Ð½ÑĭÑħ"
      ],
      [
        "t",
        "r"
      ],
      [
        "Ð¾ÑģÑĤ",
        "ÑĢÐ°Ð½"
      ],
      [
        "ĠÑĤ",
        "ÐµÐºÑģÑĤ"
      ],
      [
        "Ñĩ",
        "ÐµÑĢ"
      ],
      [
        "ĠÐ¾",
        "ÑĪ"
      ],
      [
        "ÐµÐ´",
        "ÑĮ"
      ],
      [
        "ĠÐ¾Ð±",
        "Ð½Ð°"
      ],
      [
        "ÑĩÐµÑĢ",
        "ÐµÐ´ÑĮ"
      ],
      [
        "ĠÐ¾ÑĪ",
        "Ð¸Ð±"
      ],
      [
        "ĠÐ¾Ð±Ð½Ð°",
        "ÑĢÑĥÐ¶"
      ],
      [
        "ĠÐĵ",
        "ÑĢÐ°Ð´Ð¸ÐµÐ½ÑĤ"
      ],
      [
        "Ġ",
        "ÑĪ"
      ],
      [
        "ÑĢ",
        "ÐµÐ½ÑĤ"
      ],
      [
        "ĠÐ·",
        "Ð°ÑĢ"
      ],
      [
        "ÑĪ",
        "Ð°ÐµÑĤ"
      ],
      [
        "ĠÐºÐ¾Ð½",
        "ÐºÑĥ"
      ],
      [
        "ÐµÐ±",
        "ÑĢÐ°"
      ],
      [
        "ĠÐºÐ¾Ð½ÐºÑĥ",
        "ÑĢÐµÐ½ÑĤ"
      ],
      [
        "Ð¾Ð¿",
        "Ð°Ñģ"
      ],
      [
        "ĠÑģÐ²ÑıÐ·",
        "ÑĮ"
      ],
      [
        "ĠÐ±ÐµÐ·",
        "Ð¾Ð¿Ð°Ñģ"
      ],
      [
        "ÐµÑĢ",
        "ÑĮ"
      ],
      [
        "Ð¸Ñģ",
        "Ð¿"
      ],
      [
        "Ð¸ÑĩÐµÑģÐºÐ¸",
        "Ð¹"
      ],
      [
        "ĠÐ¿Ð¾ÑĤ",
        "ÐµÑĢÑĮ"
      ],
      [
        "at",
        "ion"
      ],
      [
        "ĠÑĨÐµÐ»ÐµÐ²",
        "Ð¾Ð¹"
      ],
      [
        "Ð¾Ð¼",
        "Ð°Ð³"
      ],
      [
        "Ð¾Ðº",
        "Ð°Ð»ÑĮ"
      ],
      [
        "ĠÐ»",
        "Ð¾ÐºÐ°Ð»ÑĮ"
      ],
      [
        "ĠÑįÐ»ÐµÐºÑĤÑĢ",
        "Ð¾Ð¼Ð°Ð³"
      ],
      [
        "ĠÑįÐ»ÐµÐºÑĤÑĢÐ¾Ð¼Ð°Ð³",
        "Ð½Ð¸ÑĤ"
      ],
      [
        "ĠÐ¿Ð¾Ð»Ð¾Ð¶",
        "Ð¸ÑĤÐµÐ»ÑĮ"
      ],
      [
        "ĠÐ¿Ð°",
        "ÑĢÐ°Ð¼"
      ],
      [
        "o",
        "de"
      ],
      [
        "ĠÐ½",
        "ÐµÐ¹"
      ],
      [
        "Ð¸ÑĩÐµÑģÐº",
        "Ð¾Ðµ"
      ],
      [
        "ĠÐ²Ð½",
        "ÑĥÑĤ"
      ],
      [
        "ĠÑħ",
        "Ð¸Ð¼"
      ],
      [
        "ĠÑįÐ»ÐµÐ¼ÐµÐ½ÑĤ",
        "Ð¾Ð²"
      ],
      [
        "ĠÐ¿Ð¾Ð»Ð¾Ð¶Ð¸ÑĤÐµÐ»ÑĮ",
        "Ð½ÑĭÑħ"
      ],
      [
        "ĠÑĥ",
        "Ð¼ÐµÐ½"
      ],
      [
        "ĠÐºÐ¾Ð¼Ð¿Ð¾Ð½ÐµÐ½ÑĤ",
        "Ð¾Ð²"
      ],
      [
        "ĠÐ·Ð½Ð°Ñĩ",
        "ÐµÐ½Ð¸Ñı"
      ],
      [
        "ĠÑĥÐ¼ÐµÐ½",
        "ÑĮ"
      ],
      [
        "Ñģ",
        "ÑħÐ¾Ð´"
      ],
      [
        "ĠÐ¸",
        "ÑģÑħÐ¾Ð´"
      ],
      [
        "ĠÐ¿ÑĢ",
        "Ð¾ÑģÑĤÑĢÐ°Ð½"
      ],
      [
        "ĠÐ¾Ð±",
        "ÑĥÑĩ"
      ],
      [
        "ĠÑĩÐ¸ÑģÐ»",
        "Ð¾Ð¼"
      ],
      [
        "ĠÐ¿ÑĢÐ¾ÑģÑĤÑĢÐ°Ð½",
        "ÑģÑĤÐ²Ð°"
      ],
      [
        "Ġ",
        "c"
      ],
      [
        "ĠÐ¸Ð·",
        "Ð¾Ð»"
      ],
      [
        "ĠÐŁ",
        "ÑĢÐ¾"
      ],
      [
        "ĠÐ¾Ð±ÑĥÑĩ",
        "Ð°ÐµÑĤ"
      ],
      [
        "e",
        "d"
      ],
      [
        "ĠÐ¿Ð¾Ð·",
        "Ð²Ð¾Ð»"
      ],
      [
        "ĠÑĢÐ°Ð·",
        "Ð¼ÐµÑĢ"
      ],
      [
        "ĠÐ²ÐµÑĢ",
        "ÑĪ"
      ],
      [
        "a",
        "c"
      ],
      [
        "Ð¾Ñĩ",
        "ÐºÐ¸"
      ],
      [
        "ÑĦ",
        "ÑĥÐ½Ðº"
      ],
      [
        "ĠÐ¥",
        "ÑįÑĪ"
      ],
      [
        "Ð¿",
        "Ð¾Ð»Ð½"
      ],
      [
        "ĠÐ²Ñĭ",
        "Ð¿Ð¾Ð»Ð½"
      ],
      [
        "P",
        "E"
      ],
      [
        "ĠÐĲ",
        "Ð»Ð³"
      ],
      [
        "Ð¾",
        "ÑıÑĤ"
      ],
      [
        "ĠP",
        "re"
      ],
      [
        "ĠÐ²Ð¾Ð·",
        "Ð½Ð¸Ðº"
      ],
      [
        "ĠÐ¿Ð¾Ð·Ð²Ð¾Ð»",
        "ÑıÐµÑĤ"
      ],
      [
        "ĠÐ²Ð¾Ð·Ð½Ð¸Ðº",
        "Ð°ÐµÑĤ"
      ],
      [
        "ÑĢÐ°Ð",
        "¶"
      ],
      [
        "ĠÐº",
        "Ð¾Ð´"
      ],
      [
        "ÑĢÐµÑĤ",
        "Ð½ÑĭÐ¹"
      ],
      [
        "or",
        "m"
      ],
      [
        "ÐµÐ½Ð¸",
        "Ñİ"
      ],
      [
        "ĠÑĤÐ¾ÐºÐµÐ½",
        "Ð°"
      ],
      [
        "Ðº",
        "ÑĤ"
      ],
      [
        "Ð°Ð½Ð¸",
        "Ðµ"
      ],
      [
        "â",
        "Ģ"
      ],
      [
        "Ġ",
        "âĢ"
      ],
      [
        "Ð»",
        "Ñĥ"
      ],
      [
        "ĠÐ¿ÑĢ",
        "Ð¸Ð½ÑĨÐ¸"
      ],
      [
        "ĠÐ²Ñĭ",
        "ÑĪÐµÐ»"
      ],
      [
        "ĠÐŁ",
        "ÑĢ"
      ],
      [
        "ĠÐ¿ÑĢÐ¸",
        "ÑĪÐµÐ»"
      ],
      [
        "ĠâĢ",
        "Ķ"
      ],
      [
        "ĠÐ¿ÑĢÐ¸Ð½ÑĨÐ¸",
        "Ð¿Ñĥ"
      ],
      [
        "ÑīÐ¸",
        "Ðµ"
      ],
      [
        "Ð¾ÑģÑĤ",
        "Ð½Ð¾ÑģÑĤÑĮ"
      ],
      [
        "ĠÑĨÐµÐ»",
        "Ð¾ÑģÑĤÐ½Ð¾ÑģÑĤÑĮ"
      ],
      [
        "Ġ",
        "attention"
      ],
      [
        "ĠÐ¾",
        "ÑģÐ½Ð¾Ð²"
      ],
      [
        "ĠÑģÑĤÑĢÐ¾",
        "Ð¸ÑĤ"
      ],
      [
        "ĠÐ¾ÑģÐ½Ð¾Ð²",
        "Ðµ"
      ],
      [
        "Ð¾Ð½Ð¾Ð¼",
        "ÐµÑĢ"
      ],
      [
        "ĠÐ·Ð°Ðº",
        "Ð¾Ð½Ð¾Ð¼ÐµÑĢ"
      ],
      [
        "Ð¼",
        "ÐµÑĤÑĢ"
      ],
      [
        "Ð¸Ð¼",
        "Ð¼ÐµÑĤÑĢ"
      ],
      [
        "Ð¸Ð¼Ð¼ÐµÑĤÑĢ",
        "Ð¸Ñĩ"
      ],
      [
        "t",
        "tention"
      ],
      [
        "ĠÐ¿ÑĢ",
        "Ð°Ð²"
      ],
      [
        "ĠÐ¾Ð±",
        "ÑĥÑĩÐµÐ½Ð¸Ðµ"
      ],
      [
        "Ð¸ÑĦ",
        "ÑĢÐ¾Ð²"
      ],
      [
        "Ð½Ð¾ÑģÑĤ",
        "ÐµÐ¹"
      ],
      [
        "ÑĤ",
        "Ð²"
      ],
      [
        "ĠÐ¿Ð¾Ð´",
        "ÑĤÐ²"
      ],
      [
        "ÐµÑĢÐ¶",
        "Ð´Ð°ÐµÑĤ"
      ],
      [
        "ĠÐ¿Ð¾Ð´ÑĤÐ²",
        "ÐµÑĢÐ¶Ð´Ð°ÐµÑĤ"
      ],
      [
        "Ð¸",
        "Ð½Ð¸Ð¼"
      ],
      [
        "ĠÐ¼",
        "Ð¸Ð½Ð¸Ð¼"
      ],
      [
        "ĠÑį",
        "Ð½ÐµÑĢÐ³"
      ],
      [
        "ÑĢÐ¸",
        "Ð¸"
      ],
      [
        "Ñĭ",
        "Ð»ÑĮ"
      ],
      [
        "ĠÐ¿",
        "ÑĭÐ»ÑĮ"
      ],
      [
        "Ð°Ð»",
        "Ð°ÐºÑĤ"
      ],
      [
        "ĠÐ³",
        "Ð°Ð·"
      ],
      [
        "ĠÐĵ",
        "Ð°Ð»Ð°ÐºÑĤ"
      ],
      [
        "ĠÑĤÐµÐ¼",
        "Ð½ÑĥÑİ"
      ],
      [
        "ĠÐ¼Ð°ÑĤÐµÑĢ",
        "Ð¸Ñİ"
      ],
      [
        "ĠÐĵÐ°Ð»Ð°ÐºÑĤ",
        "Ð¸ÐºÐ°"
      ],
      [
        "ÐµÑĤ",
        "Ð¸ÑĩÐµÑģÐº"
      ],
      [
        "ÐµÑĤ",
        "ÐºÐ¸"
      ],
      [
        "Ð¾Ð½",
        "Ð´"
      ],
      [
        "Ð¸ÑĤ",
        "Ð¾Ñħ"
      ],
      [
        "ĠÐľ",
        "Ð¸ÑĤÐ¾Ñħ"
      ],
      [
        "ĠÐºÐ»",
        "ÐµÑĤÐºÐ¸"
      ],
      [
        "ĠÑĥÑĩÐ°ÑģÑĤÐ²",
        "ÑĥÑİÑĤ"
      ],
      [
        "ĠÐ¾Ð±Ð¼ÐµÐ½",
        "Ðµ"
      ],
      [
        "ĠÑįÐ½ÐµÑĢÐ³",
        "ÐµÑĤÐ¸ÑĩÐµÑģÐº"
      ],
      [
        "Ð¾Ð½Ð´",
        "ÑĢÐ¸Ð¸"
      ],
      [
        "ĠÐľÐ¸ÑĤÐ¾Ñħ",
        "Ð¾Ð½Ð´ÑĢÐ¸Ð¸"
      ],
      [
        "ĠÑįÐ½ÐµÑĢÐ³ÐµÑĤÐ¸ÑĩÐµÑģÐº",
        "Ð¾Ð¼"
      ],
      [
        "ĠÑģ",
        "Ð¾Ð´"
      ],
      [
        "ĠÑģÐ¾Ð´",
        "ÐµÑĢÐ¶"
      ],
      [
        "Ð½",
        "ÑĤ"
      ],
      [
        "Ð¾Ð¼",
        "Ñĭ"
      ],
      [
        "ĠÐ",
        "ķ"
      ],
      [
        "ĠÑģÐ¾Ð´ÐµÑĢÐ¶",
        "Ð¸ÑĤ"
      ],
      [
        "Ð¼",
        "Ð¾Ð»Ð¾Ð³Ð¸Ñı"
      ],
      [
        "Ñİ",
        "ÑĨÐ¸Ñİ"
      ],
      [
        "ĠÑį",
        "Ð²Ð¾Ð»"
      ],
      [
        "ĠÐļ",
        "Ð¾Ñģ"
      ],
      [
        "ĠÐĴÑģÐµÐ»",
        "ÐµÐ½Ð½Ð¾Ð¹"
      ],
      [
        "ĠÑįÐ²Ð¾Ð»",
        "ÑİÑĨÐ¸Ñİ"
      ],
      [
        "ĠÐļÐ¾Ñģ",
        "Ð¼Ð¾Ð»Ð¾Ð³Ð¸Ñı"
      ],
      [
        "ĠÐĹÐµÐ¼",
        "Ð»Ð¸"
      ],
      [
        "Ð¸ÑĢÑĥ",
        "ÑİÑĤ"
      ],
      [
        "ĠÑģÐ¸ÑģÑĤÐµÐ¼",
        "Ñĥ"
      ],
      [
        "ĠÐŁ",
        "ÑĥÑĤ"
      ],
      [
        "ĠÐľ",
        "Ð»ÐµÑĩ"
      ],
      [
        "ĠÐ¡Ð¾Ð»Ð½ÐµÑĩ",
        "Ð½ÑĥÑİ"
      ],
      [
        "ĠÐŁÑĥÑĤ",
        "ÑĮ"
      ],
      [
        "ĠÐľÐ»ÐµÑĩ",
        "Ð½ÑĭÐ¹"
      ],
      [
        "Ġ",
        "ÐµÑģÑĤ"
      ],
      [
        "Ñĥ",
        "Ð½Ð°"
      ],
      [
        "ĠÑģ",
        "Ð¿"
      ],
      [
        "ĠÑģÐ¸",
        "Ð½ÑĤ"
      ],
      [
        "ĠÐ°",
        "Ð¼"
      ],
      [
        "ĠÐ±",
        "ÐµÐ»ÐºÐ¸"
      ],
      [
        "ÐµÐ·",
        "Ð¸ÑĢÑĥÑİÑĤ"
      ],
      [
        "ĠÐł",
        "Ð¸Ð±"
      ],
      [
        "ÑĥÑĤ",
        "Ð½Ð¸Ðº"
      ],
      [
        "Ð¾Ñģ",
        "Ð¾Ð¼Ñĭ"
      ],
      [
        "ÐµÑģÑĤÐ²ÐµÐ½",
        "Ð½ÑĭÐ¼"
      ],
      [
        "ĠÐµÑģÑĤ",
        "ÐµÑģÑĤÐ²ÐµÐ½Ð½ÑĭÐ¼"
      ],
      [
        "ĠÑģÐ¿",
        "ÑĥÑĤÐ½Ð¸Ðº"
      ],
      [
        "ĠÑģÐ¸Ð½ÑĤ",
        "ÐµÐ·Ð¸ÑĢÑĥÑİÑĤ"
      ],
      [
        "ĠÐłÐ¸Ð±",
        "Ð¾ÑģÐ¾Ð¼Ñĭ"
      ],
      [
        "ĠÑģÐ¿ÑĥÑĤÐ½Ð¸Ðº",
        "Ð¾Ð¼"
      ],
      [
        "ĠÐĽ",
        "ÑĥÐ½Ð°"
      ],
      [
        "Ð½",
        "Ð°Ðº"
      ],
      [
        "Ñĥ",
        "ÐµÐ¼"
      ],
      [
        "ÑģÑĤ",
        "ÐµÑģÑĤÐ²ÐµÐ½"
      ],
      [
        "ĠÐ¿ÑĢ",
        "Ð¸Ð·"
      ],
      [
        "Ð¾ÑĤ",
        "Ñĭ"
      ],
      [
        "ĠÐ¾ÑĤ",
        "Ð±Ð¾ÑĢ"
      ],
      [
        "ĠÑĩÐ°ÑģÑĤ",
        "Ð¾ÑĤÑĭ"
      ],
      [
        "ĠÑģÐ¾ÑģÑĤÐ¾",
        "ÑıÑĤ"
      ],
      [
        "ĠÐ½Ð°ÑģÐ»ÐµÐ´",
        "ÑĥÐµÐ¼"
      ],
      [
        "ĠÐķ",
        "ÑģÑĤÐµÑģÑĤÐ²ÐµÐ½"
      ],
      [
        "Ð½Ð°Ðº",
        "Ð¾Ð²"
      ],
      [
        "ĠÐ¿ÑĢÐ¸Ð·",
        "Ð½Ð°ÐºÐ¾Ð²"
      ],
      [
        "ĠÐ½Ð°ÑģÐ»ÐµÐ´ÑĥÐµÐ¼",
        "ÑĭÑħ"
      ],
      [
        "ĠÐķÑģÑĤÐµÑģÑĤÐ²ÐµÐ½",
        "Ð½ÑĭÐ¹"
      ],
      [
        "Ð½",
        "ÐµÐ¹"
      ],
      [
        "Ð¸Ð½",
        "Ð¾Ðº"
      ],
      [
        "Ð¸ÑģÐ»",
        "Ð¾ÑĤ"
      ],
      [
        "ĠÐĳ",
        "ÐµÐ»ÐºÐ¸"
      ],
      [
        "ĠÐ°Ð¼",
        "Ð¸Ð½Ð¾Ðº"
      ],
      [
        "ĠÐ°Ð¼Ð¸Ð½Ð¾Ðº",
        "Ð¸ÑģÐ»Ð¾ÑĤ"
      ],
      [
        "ĠÐ¾Ð±Ð»",
        "Ð°Ð´"
      ],
      [
        "Ð¿Ð¸Ñģ",
        "Ð¾Ðº"
      ],
      [
        "ĠÑĤ",
        "ÐµÐ»Ð°"
      ],
      [
        "ĠÐ¡",
        "Ð¿Ð¸ÑģÐ¾Ðº"
      ],
      [
        "ĠÐ¸Ð·Ð¼ÐµÐ½",
        "ÑıÐµÐ¼Ð¾Ð¹"
      ],
      [
        "Ñĭ",
        "ÑĢÐ°"
      ],
      [
        "Ðº",
        "Ð·"
      ],
      [
        "ÐµÐ»",
        "Ð°Ð¼Ð¸"
      ],
      [
        "Ð¾ÑĢ",
        "Ð¸Ð·"
      ],
      [
        "ĠÐ´",
        "ÑĭÑĢÐ°"
      ],
      [
        "Ð¾Ð½",
        "ÑĤÐ¾Ð¼"
      ],
      [
        "ĠÐ¿ÑĢÐµÐ´",
        "ÐµÐ»Ð°Ð¼Ð¸"
      ],
      [
        "Ð¾Ð¿",
        "Ð»Ð°Ð½ÐµÑĤ"
      ],
      [
        "ĠÐ³",
        "Ð¾ÑĢÐ¸Ð·"
      ],
      [
        "ĠÐŃ",
        "ÐºÐ·"
      ],
      [
        "ĠÐ§",
        "ÐµÑĢÐ½Ð°Ñı"
      ],
      [
        "ĠÐ¾Ð±Ð»Ð°Ð´",
        "Ð°ÐµÑĤ"
      ],
      [
        "Ð¾Ð¿Ð»Ð°Ð½ÐµÑĤ",
        "Ð°"
      ],
      [
        "ĠÐ³Ð¾ÑĢÐ¸Ð·",
        "Ð¾Ð½ÑĤÐ¾Ð¼"
      ],
      [
        "ĠÐŃÐºÐ·",
        "Ð¾Ð¿Ð»Ð°Ð½ÐµÑĤÐ°"
      ],
      [
        "ĠÐºÑĢÑĥÐ¿",
        "Ð½ÐµÐ¹"
      ],
      [
        "ĠÐºÑĢÑĥÐ¿Ð½ÐµÐ¹",
        "ÑĪ"
      ],
      [
        "ĠÐ",
        "®"
      ],
      [
        "ĠÐ¼",
        "Ð°ÑĢÑĪÑĢÑĥÑĤÐ¸Ð·"
      ],
      [
        "ĠÐ»",
        "ÐµÐ½Ð¸Ð²"
      ],
      [
        "ÐµÑĩ",
        "Ð°ÐµÑĤ"
      ],
      [
        "ĠÐĵ",
        "ÐµÐ½ÐµÑĢ"
      ],
      [
        "ĠÐ·Ð½Ð°Ñĩ",
        "ÐµÐ½Ð¸Ð¹"
      ],
      [
        "ĠI",
        "P"
      ],
      [
        "ĠÐ¿Ð°ÐºÐµÑĤ",
        "Ð¾Ð²"
      ],
      [
        "ĠÐ°Ð´ÑĢÐµÑģ",
        "Ð°ÑĨÐ¸Ñİ"
      ],
      [
        "ĠÐ¾ÑĤÐ²",
        "ÐµÑĩÐ°ÐµÑĤ"
      ],
      [
        "ĠÐ¼Ð°ÑĢÑĪÑĢÑĥÑĤÐ¸Ð·",
        "Ð°ÑĨÐ¸Ñİ"
      ],
      [
        "ĠÐ»ÐµÐ½Ð¸Ð²",
        "Ð¾"
      ],
      [
        "ĠÐĵÐµÐ½ÐµÑĢ",
        "Ð°ÑĤÐ¾ÑĢ"
      ],
      [
        "ÐµÐ´",
        "Ð¶"
      ],
      [
        "ÐµÐ½",
        "ÐµÐ´Ð¶"
      ],
      [
        "ĠÐ¼",
        "ÐµÐ½ÐµÐ´Ð¶"
      ],
      [
        "ÑħÐ¾Ð´",
        "Ð¾Ð¼"
      ],
      [
        "ĠÐ²Ñĭ",
        "ÑħÐ¾Ð´Ð¾Ð¼"
      ],
      [
        "ĠÐ²ÑħÐ¾Ð´",
        "Ð¾Ð¼"
      ],
      [
        "ÑĤÐµÐºÑģÑĤ",
        "Ð½ÑĭÐ¹"
      ],
      [
        "ĠÐļÐ¾Ð½",
        "ÑĤÐµÐºÑģÑĤÐ½ÑĭÐ¹"
      ],
      [
        "ĠÐºÑĢÑĥÐ¿Ð½ÐµÐ¹ÑĪ",
        "ÐµÐ¹"
      ],
      [
        "ĠÐ¼ÐµÐ½ÐµÐ´Ð¶",
        "ÐµÑĢ"
      ],
      [
        "Ð¸",
        "Ñħ"
      ],
      [
        "Ðµ",
        "Ñģ"
      ],
      [
        "ĠÐ¿",
        "Ð»Ð°Ð½ÐµÑĤ"
      ],
      [
        "Ð¿",
        "Ð¸ÑĤ"
      ],
      [
        "ĠÐĲ",
        "ÑģÑĤÑĢ"
      ],
      [
        "Ð¾Ð½Ð¾Ð¼",
        "Ð¸Ñı"
      ],
      [
        "ĠÐĴÑģÐµÐ»",
        "ÐµÐ½Ð½ÑĥÑİ"
      ],
      [
        "ĠÐ½ÐµÐ±",
        "ÐµÑģ"
      ],
      [
        "ĠÐ¿Ð»Ð°Ð½ÐµÑĤ",
        "Ð¾Ð¹"
      ],
      [
        "ĠÐĲÑģÑĤÑĢ",
        "Ð¾Ð½Ð¾Ð¼Ð¸Ñı"
      ],
      [
        "ĠÐ½ÐµÐ±ÐµÑģ",
        "Ð½ÑĭÐµ"
      ],
      [
        "ĠÐ®",
        "Ð¿Ð¸ÑĤ"
      ],
      [
        "ĠÐ®Ð¿Ð¸ÑĤ",
        "ÐµÑĢ"
      ],
      [
        "Ñĭ",
        "Ð»"
      ],
      [
        "ÐµÑĤ",
        "Ð¸ÑĩÐµÑģÐºÐ¾Ð¹"
      ],
      [
        "Ð¾ÑĢ",
        "ÑĤ"
      ],
      [
        "ĠÐ½",
        "Ðµ"
      ],
      [
        "ĠÐ½",
        "Ð¸Ñħ"
      ],
      [
        "ĠÐł",
        "ÐĿÐļ"
      ],
      [
        "ĠÐ¿ÐµÑĢÐµ",
        "Ñģ"
      ],
      [
        "ĠÑĢÐµÐ°Ð»Ð¸Ð·",
        "Ð°ÑĨÐ¸Ð¸"
      ],
      [
        "ĠÐ¿ÑĢÐ¾ÑĨÐµÑģÑģ",
        "Ñĭ"
      ],
      [
        "ĠÐĳÐ¸",
        "Ð¾Ð»Ð¾Ð³Ð¸Ñı"
      ],
      [
        "ĠÐ¸Ð½ÑĦÐ¾ÑĢÐ¼",
        "Ð°ÑĨÐ¸Ð¸"
      ],
      [
        "ĠÐ³ÐµÐ½",
        "ÐµÑĤÐ¸ÑĩÐµÑģÐºÐ¾Ð¹"
      ],
      [
        "ĠÑĥÑĩÐ°ÑģÑĤÐ²",
        "ÑĥÐµÑĤ"
      ],
      [
        "ĠÐ¶Ð¸Ð²",
        "ÑĭÐµ"
      ],
      [
        "ĠÐ¡Ð¾Ð»Ð½",
        "ÑĨÐ°"
      ],
      [
        "ĠÐĹÐµÐ¼",
        "Ð»Ñı"
      ],
      [
        "Ð¸Ð·",
        "Ð¼ÐµÐ½"
      ],
      [
        "ĠÐļ",
        "Ð¾ÑĢÑĤ"
      ],
      [
        "ĠÐ½Ðµ",
        "Ð¸Ð·Ð¼ÐµÐ½"
      ],
      [
        "ĠÐļÐ¾ÑĢÑĤ",
        "ÐµÐ¶"
      ],
      [
        "ĠÐ½ÐµÐ¸Ð·Ð¼ÐµÐ½",
        "ÑıÐµÐ¼Ð¾Ð¹"
      ],
      [
        "Ġ",
        "J"
      ],
      [
        "Ð»",
        "ÐµÑĤÐºÐ°"
      ],
      [
        "ĠÐļ",
        "Ð»ÐµÑĤÐºÐ°"
      ],
      [
        "ĠÐ±Ð°Ð·",
        "Ð¾Ð²Ð¾Ð¹"
      ],
      [
        "ĠÐ¾ÑĢÐ³Ð°Ð½Ð¸Ð·",
        "Ð¼Ð°"
      ],
      [
        "ĠÐ¶Ð¸Ð²",
        "Ð¾Ð³Ð¾"
      ],
      [
        "ĠÑģÑĤÑĢÑĥÐºÑĤÑĥÑĢ",
        "Ð½Ð¾Ð¹"
      ],
      [
        "I",
        "N"
      ],
      [
        "O",
        "IN"
      ],
      [
        "ÑĢ",
        "Ð¾ÐºÐ¸"
      ],
      [
        "ĠÑģÑĤ",
        "ÑĢÐ¾ÐºÐ¸"
      ],
      [
        "ĠÐľ",
        "Ð°ÑĢÑĪÑĢÑĥÑĤÐ¸Ð·"
      ],
      [
        "ĠÑģÐµÑĤ",
        "ÑıÐ¼Ð¸"
      ],
      [
        "ĠÐ¿Ð°ÐºÐµÑĤ",
        "Ñĭ"
      ],
      [
        "ÑĭÐ»",
        "Ð°ÐµÑĤ"
      ],
      [
        "ĠÐ¿ÐµÑĢÐµÑģ",
        "ÑĭÐ»Ð°ÐµÑĤ"
      ],
      [
        "ĠJ",
        "OIN"
      ],
      [
        "ĠÐľÐ°ÑĢÑĪÑĢÑĥÑĤÐ¸Ð·",
        "Ð°ÑĤÐ¾ÑĢ"
      ],
      [
        "Ð¾",
        "Ð¸Ð½"
      ],
      [
        "Ð°ÑĤ",
        "Ð¸ÐºÐ°"
      ],
      [
        "ĠÐ¼ÐµÑĤÐ¾Ð´",
        "Ñĭ"
      ],
      [
        "ĠÐ²ÑĭÑĩÐ¸ÑģÐ»Ð¸ÑĤÐµÐ»ÑĮ",
        "Ð½ÑĭÐµ"
      ],
      [
        "ÑĦÐ¾ÑĢÐ¼",
        "Ð°ÑĤÐ¸ÐºÐ°"
      ],
      [
        "Ð¾Ð»Ð¾Ð³",
        "Ð¸ÑĩÐµÑģÐºÐ¸Ñħ"
      ],
      [
        "ĠÐĳÐ¸",
        "Ð¾Ð¸Ð½"
      ],
      [
        "ĠÐ±Ð¸",
        "Ð¾Ð»Ð¾Ð³Ð¸ÑĩÐµÑģÐºÐ¸Ñħ"
      ],
      [
        "ĠÐĳÐ¸Ð¾Ð¸Ð½",
        "ÑĦÐ¾ÑĢÐ¼Ð°ÑĤÐ¸ÐºÐ°"
      ],
      [
        "ĠÐĶ",
        "ÐĿÐļ"
      ],
      [
        "ÑģÑĤÐ²ÐµÐ½",
        "Ð½ÑĥÑİ"
      ],
      [
        "ĠÐ½Ð°ÑģÐ»ÐµÐ´",
        "ÑģÑĤÐ²ÐµÐ½Ð½ÑĥÑİ"
      ],
      [
        "A",
        "PI"
      ],
      [
        "Q",
        "L"
      ],
      [
        "a",
        "st"
      ],
      [
        "ĠÑĢ",
        "ÐµÐ»ÑıÑĨÐ¸"
      ],
      [
        "ast",
        "API"
      ],
      [
        "Ð¾Ð½",
        "Ð½ÑĭÐ¼Ð¸"
      ],
      [
        "Ð´",
        "Ð°Ð½Ð¸Ñı"
      ],
      [
        "ĠS",
        "QL"
      ],
      [
        "ĠÑĢÐ°Ð±Ð¾ÑĤ",
        "Ñĭ"
      ],
      [
        "ĠÑģÐ¾Ð·",
        "Ð´Ð°Ð½Ð¸Ñı"
      ],
      [
        "ĠF",
        "astAPI"
      ],
      [
        "ĠÑĢÐµÐ»ÑıÑĨÐ¸",
        "Ð¾Ð½Ð½ÑĭÐ¼Ð¸"
      ],
      [
        "ĠÐº",
        "Ð¾Ð»"
      ],
      [
        "Ð¾Ðº",
        "Ð¾"
      ],
      [
        "Ð»Ð¾Ð²",
        "Ð°ÑĢÑĮ"
      ],
      [
        "ĠÑıÐ·ÑĭÐº",
        "Ð¾Ð¼"
      ],
      [
        "ĠÐ¿ÑĢÐ¾Ð³ÑĢÐ°Ð¼Ð¼Ð¸ÑĢÐ¾Ð²",
        "Ð°Ð½Ð¸Ñı"
      ],
      [
        "Ð½",
        "ÐµÐ²"
      ],
      [
        "Ñģ",
        "Ð¾ÐºÐ¾"
      ],
      [
        "Ñĥ",
        "ÑĢÐ¾Ð²"
      ],
      [
        "Ð¾ÑĢ",
        "Ð°ÑĤÐ¾ÑĢ"
      ],
      [
        "ĠÐ½",
        "Ð°Ð·"
      ],
      [
        "ĠÐ²Ñĭ",
        "ÑģÐ¾ÐºÐ¾"
      ],
      [
        "ÐµÐº",
        "Ð¾ÑĢÐ°ÑĤÐ¾ÑĢ"
      ],
      [
        "Ð½Ð°Ñĩ",
        "ÐµÐ½Ð¸Ñı"
      ],
      [
        "ĠÐ¸Ð·Ð¼ÐµÐ½",
        "ÑıÑĤÑĮ"
      ],
      [
        "ĠÐĶ",
        "ÐµÐºÐ¾ÑĢÐ°ÑĤÐ¾ÑĢ"
      ],
      [
        "ĠÐ¾Ð±Ñī",
        "ÐµÐ³Ð¾"
      ],
      [
        "ĠÐºÐ»Ð°ÑģÑģ",
        "Ð°"
      ],
      [
        "Ð½ÐµÐ²",
        "ÑĭÐ¼"
      ],
      [
        "ÑĥÑĢÐ¾Ð²",
        "Ð½ÐµÐ²ÑĭÐ¼"
      ],
      [
        "ĠÐ½Ð°Ð·",
        "Ð½Ð°ÑĩÐµÐ½Ð¸Ñı"
      ],
      [
        "ĠÐ²ÑĭÑģÐ¾ÐºÐ¾",
        "ÑĥÑĢÐ¾Ð²Ð½ÐµÐ²ÑĭÐ¼"
      ],
      [
        "ĠÐ¿",
        "Ð°ÑĢ"
      ],
      [
        "ĠÐ¡",
        "Ð»Ð¾Ð²Ð°ÑĢÑĮ"
      ],
      [
        "ĠÐĴ",
        "ÐµÐºÑĤÐ¾ÑĢ"
      ],
      [
        "Ð·Ð½Ð°Ñĩ",
        "ÐµÐ½Ð¸Ðµ"
      ],
      [
        "ĠÐ±Ð»Ð¸Ð·",
        "ÐºÐ¸Ñħ"
      ],
      [
        "ĠÐ¿Ð°ÑĢ",
        "Ñĭ"
      ],
      [
        "ĠÐĴÐµÐºÑĤÐ¾ÑĢ",
        "Ð½Ð°Ñı"
      ],
      [
        "Ð°ÑĤ",
        "Ð¾Ð¼"
      ],
      [
        "ĠÐ´",
        "Ð¾Ð¼"
      ],
      [
        "Ð¾Ð½",
        "Ð¾Ñĩ"
      ],
      [
        "ĠÑĦ",
        "Ð¾ÑĢÐ¼"
      ],
      [
        "ĠP",
        "ar"
      ],
      [
        "que",
        "t"
      ],
      [
        "ĠÐºÐ¾Ð»",
        "Ð¾Ð½Ð¾Ñĩ"
      ],
      [
        "ĠÑĦÐ¾ÑĢÐ¼",
        "Ð°ÑĤÐ¾Ð¼"
      ],
      [
        "ĠPar",
        "quet"
      ],
      [
        "ĠÐºÐ¾Ð»Ð¾Ð½Ð¾Ñĩ",
        "Ð½ÑĭÐ¼"
      ],
      [
        "N",
        "S"
      ],
      [
        "Ð¸",
        "ÑĨÐ¸"
      ],
      [
        "Ð½",
        "Ð¾Ð·Ð½Ð°Ñĩ"
      ],
      [
        "ÑĢ",
        "ÑĥÐµÑĤ"
      ],
      [
        "Ñĭ",
        "Ð¼Ð¸"
      ],
      [
        "ÑĮ",
        "Ñİ"
      ],
      [
        "ĠÐ¸",
        "Ð¼ÐµÐ½"
      ],
      [
        "Ð¸Ñĩ",
        "Ð½ÑĭÐ¹"
      ],
      [
        "ĠÐŁ",
        "ÐµÑĢÐ²"
      ],
      [
        "ĠÐ¾Ð´",
        "Ð½Ð¾Ð·Ð½Ð°Ñĩ"
      ],
      [
        "ĠD",
        "NS"
      ],
      [
        "ĠÐ·Ð°Ð¿Ð¸Ñģ",
        "ÑĮ"
      ],
      [
        "ĠÐ·Ð°Ð¿Ð¸Ñģ",
        "ÑıÐ¼Ð¸"
      ],
      [
        "ĠÐ¸Ð´ÐµÐ½ÑĤÐ¸ÑĦ",
        "Ð¸ÑĨÐ¸"
      ],
      [
        "ĠÑģÐ¾Ð·",
        "Ð´Ð°ÐµÑĤ"
      ],
      [
        "ĠÑģÐµÑĤÐµÐ²",
        "ÑĭÐ¼Ð¸"
      ],
      [
        "ĠÐ´Ð¾Ð¼",
        "ÐµÐ½Ð½ÑĭÐµ"
      ],
      [
        "ĠÐ¸Ð¼ÐµÐ½",
        "Ð°"
      ],
      [
        "ĠÐŁÐµÑĢÐ²",
        "Ð¸ÑĩÐ½ÑĭÐ¹"
      ],
      [
        "ĠÐ¾Ð´Ð½Ð¾Ð·Ð½Ð°Ñĩ",
        "Ð½Ð¾"
      ],
      [
        "ĠÐ¸Ð´ÐµÐ½ÑĤÐ¸ÑĦÐ¸ÑĨÐ¸",
        "ÑĢÑĥÐµÑĤ"
      ],
      [
        "Ð¸",
        "Ð´Ð°"
      ],
      [
        "Ðº",
        "Ð°ÑĨÐ¸Ñı"
      ],
      [
        "ĠÐº",
        "Ð¾Ð¿"
      ],
      [
        "Ð»Ð¸",
        "ÐºÐ°ÑĨÐ¸Ñı"
      ],
      [
        "ĠÐł",
        "ÐµÐ¿"
      ],
      [
        "ĠÐ´Ð¾Ð¿Ð¾Ð»Ð½Ð¸ÑĤÐµÐ»ÑĮ",
        "Ð½ÑĭÐµ"
      ],
      [
        "ĠÑģÐµÑĢÐ²Ð¸Ñģ",
        "Ð¾Ð²"
      ],
      [
        "ĠÐºÐ¾Ð¿",
        "Ð¸Ð¸"
      ],
      [
        "ĠÐłÐµÐ¿",
        "Ð»Ð¸ÐºÐ°ÑĨÐ¸Ñı"
      ],
      [
        "C",
        "I"
      ],
      [
        "ÐµÐ»",
        "ÑıÐµÑĤ"
      ],
      [
        "ĠÑĥ",
        "Ð¿"
      ],
      [
        "ĠÐ½Ð°Ð´ÐµÐ¶",
        "Ð½ÑĭÑħ"
      ],
      [
        "ĠA",
        "CI"
      ],
      [
        "ĠÐ·Ð°Ð¿Ð¸Ñģ",
        "Ð¸"
      ],
      [
        "ĠACI",
        "D"
      ],
      [
        "Ð½",
        "Ñı"
      ],
      [
        "Ð»",
        "Ð°Ð´"
      ],
      [
        "Ð¼",
        "ÐµÐ½ÑĤ"
      ],
      [
        "ĠÐ¿ÑĢ",
        "Ð¸Ðº"
      ],
      [
        "ĠÐ³",
        "Ð»"
      ],
      [
        "ÑīÐ¸",
        "Ñħ"
      ],
      [
        "ĠÑĥÑĢÐ¾Ð²",
        "Ð½Ñı"
      ],
      [
        "ĠÐ·Ð²ÐµÐ·Ð´",
        "Ð¾Ð¹"
      ],
      [
        "ĠÐ¾Ð¶",
        "Ð¸Ð´Ð°"
      ],
      [
        "Ð»Ð°Ð´",
        "Ð½Ð¾Ð³Ð¾"
      ],
      [
        "ĠÐ¿ÑĢÐ¸Ðº",
        "Ð»Ð°Ð´Ð½Ð¾Ð³Ð¾"
      ],
      [
        "Ð½",
        "ÐµÑĪ"
      ],
      [
        "Ð½Ð¸",
        "Ð¹"
      ],
      [
        "Ð°Ð²",
        "Ð½Ð¾Ð¹"
      ],
      [
        "ĠÐĴ",
        "Ð½ÐµÑĪ"
      ],
      [
        "ĠÐ¡Ð¾Ð»Ð½",
        "ÑĨÐµ"
      ],
      [
        "ĠÑĤÐ°Ð±Ð»Ð¸ÑĨ",
        "Ð°Ð¼Ð¸"
      ],
      [
        "ĠÐ³Ð»",
        "Ð°Ð²Ð½Ð¾Ð¹"
      ],
      [
        "ĠÐĴÐ½ÐµÑĪ",
        "Ð½Ð¸Ð¹"
      ],
      [
        "C",
        "P"
      ],
      [
        "Ġ",
        "que"
      ],
      [
        "Ð¾",
        "Ñī"
      ],
      [
        "Ð°",
        "ÑģÐ¿ÑĢÐµÐ´ÐµÐ»"
      ],
      [
        "Ð²",
        "Ð°ÐµÑĤ"
      ],
      [
        "ÐµÑĢ",
        "ÑĪÐµÐ½Ð¸Ñı"
      ],
      [
        "ÐµÐ½",
        "Ð½ÑĭÐ¹"
      ],
      [
        "Ð¾ÑģÑĤ",
        "Ð°Ð½"
      ],
      [
        "ĠÐ´",
        "Ð¾ÑģÑĤÐ°Ð²"
      ],
      [
        "ĠÐ±",
        "Ð°Ð¹"
      ],
      [
        "ÑĥÑİ",
        "ÑīÐ¸Ñħ"
      ],
      [
        "Ð°Ð²",
        "Ð»Ð¸"
      ],
      [
        "ĠÐł",
        "Ð°ÑģÐ¿ÑĢÐµÐ´ÐµÐ»"
      ],
      [
        "ĠÐ¿ÑĢÐ¸",
        "Ð¾ÑģÑĤÐ°Ð½"
      ],
      [
        "ĠÐ½Ð°Ð´ÐµÐ¶",
        "Ð½ÑĭÐ¹"
      ],
      [
        "ĠÐ·Ð°Ð²",
        "ÐµÑĢÑĪÐµÐ½Ð¸Ñı"
      ],
      [
        "ĠT",
        "CP"
      ],
      [
        "ĠÐ²Ð·Ð°Ð¸Ð¼Ð¾Ð´ÐµÐ¹ÑģÑĤÐ²",
        "ÑĥÑİÑīÐ¸Ñħ"
      ],
      [
        "Ð¾Ñĩ",
        "ÐµÐ½Ð½ÑĭÐ¹"
      ],
      [
        "ĠÑĢÐ°Ð·Ð´",
        "ÐµÐ»ÑıÐµÑĤ"
      ],
      [
        "ĠÐ¿ÑĢÐ¾Ð¸Ð·Ð²Ð¾Ð´",
        "Ð¸ÑĤÐµÐ»ÐµÐ¹"
      ],
      [
        "ĠÐ¿Ð¾ÑĤÑĢÐµÐ±",
        "Ð¸ÑĤÐµÐ»ÐµÐ¹"
      ],
      [
        "ess",
        "ag"
      ],
      [
        "ĠM",
        "essag"
      ],
      [
        "Ġa",
        "wa"
      ],
      [
        "ĠÑĥÐ·",
        "Ð»Ð¾Ð²"
      ],
      [
        "Ð¾ÑĢÑıÐ´",
        "Ð¾ÑĩÐµÐ½Ð½ÑĭÐ¹"
      ],
      [
        "ĠÑĥÐ¿",
        "Ð¾ÑĢÑıÐ´Ð¾ÑĩÐµÐ½Ð½ÑĭÐ¹"
      ],
      [
        "Ð¼ÐµÐ½ÑĤ",
        "Ñĭ"
      ],
      [
        "ĠÐ¾Ð¶Ð¸Ð´Ð°",
        "ÐµÐ¼Ð¾Ð¹"
      ],
      [
        "Ġque",
        "ue"
      ],
      [
        "ĠÐ±Ð°Ð¹",
        "ÑĤÐ¾Ð²"
      ],
      [
        "Ð°Ð²Ð»Ð¸",
        "Ð²Ð°ÐµÑĤ"
      ],
      [
        "ĠÐłÐ°ÑģÐ¿ÑĢÐµÐ´ÐµÐ»",
        "ÐµÐ½Ð½Ð°Ñı"
      ],
      [
        "ĠÐ¿ÑĢÐ¸Ð¾ÑģÑĤÐ°Ð½",
        "Ð°Ð²Ð»Ð¸Ð²Ð°ÐµÑĤ"
      ],
      [
        "ĠMessag",
        "e"
      ],
      [
        "Ġawa",
        "it"
      ],
      [
        "q",
        "u"
      ],
      [
        "Ġ",
        "qu"
      ],
      [
        "Ñı",
        "ÑİÑĤ"
      ],
      [
        "Ðº",
        "Ð»ÑİÑĩ"
      ],
      [
        "ĠÐ²",
        "ÐºÐ»ÑİÑĩ"
      ],
      [
        "Ð¾Ð²",
        "Ð°Ð½"
      ],
      [
        "ĠÐºÐ¾ÑĢÑĢÐµÐºÑĤ",
        "Ð½Ð¾ÑģÑĤÑĮ"
      ],
      [
        "al",
        "ity"
      ],
      [
        "ĠÑģÐ¾Ð³Ð»Ð°Ñģ",
        "Ð¾Ð²Ð°Ð½"
      ],
      [
        "Ġqu",
        "ality"
      ],
      [
        "ĠÐ²ÐºÐ»ÑİÑĩ",
        "Ð°ÐµÑĤ"
      ],
      [
        "ĠÑģÐ¾Ð³Ð»Ð°ÑģÐ¾Ð²Ð°Ð½",
        "Ð½Ð¾ÑģÑĤÑĮ"
      ],
      [
        "Ð¸Ð¼",
        "ÑĭÐµ"
      ],
      [
        "A",
        "G"
      ],
      [
        "D",
        "P"
      ],
      [
        "Ġ",
        "de"
      ],
      [
        "ÑĤ",
        "Ð¸Ð¸"
      ],
      [
        "Ð½",
        "ÐµÐ³Ð¾"
      ],
      [
        "Ð°ÑĤ",
        "Ð°Ð³"
      ],
      [
        "ĠÐ´",
        "Ð°ÑĤÐ°Ð³"
      ],
      [
        "Ð°Ð½",
        "ÑĤÐ¸Ð¸"
      ],
      [
        "ĠÐ½",
        "ÐµÐ·"
      ],
      [
        "Ð¸Ñģ",
        "Ð¸Ð¼ÑĭÐµ"
      ],
      [
        "Ð°Ð²",
        "Ð¸ÑģÐ¸Ð¼ÑĭÐµ"
      ],
      [
        "ÑĢÐ°Ð¼",
        "Ð¼Ñĭ"
      ],
      [
        "ĠÐ³",
        "Ð°ÑĢ"
      ],
      [
        "ĠÐ¿Ð¾Ð¼",
        "Ð¾Ñī"
      ],
      [
        "ĠR",
        "AG"
      ],
      [
        "ĠÐ¿ÐµÑĢÐµÐ´",
        "Ð°ÐµÑĤ"
      ],
      [
        "ÐµÑĪ",
        "Ð½ÐµÐ³Ð¾"
      ],
      [
        "ĠÐ²Ð½",
        "ÐµÑĪÐ½ÐµÐ³Ð¾"
      ],
      [
        "ĠÑıÐ·ÑĭÐº",
        "Ð¾Ð²Ð¾Ð¹"
      ],
      [
        "ĠU",
        "DP"
      ],
      [
        "ĠÐ³ÐµÐ½ÐµÑĢÐ°ÑĨÐ¸",
        "Ñİ"
      ],
      [
        "ĠÐ´Ð¾ÑģÑĤÐ°Ð²",
        "ÐºÐ¸"
      ],
      [
        "Ġde",
        "f"
      ],
      [
        "ĠÐ´Ð°ÑĤÐ°Ð³",
        "ÑĢÐ°Ð¼Ð¼Ñĭ"
      ],
      [
        "ĠÐ½ÐµÐ·",
        "Ð°Ð²Ð¸ÑģÐ¸Ð¼ÑĭÐµ"
      ],
      [
        "ĠÐ³Ð°ÑĢ",
        "Ð°Ð½ÑĤÐ¸Ð¸"
      ],
      [
        "ĠÐ¿Ð¾Ð¼Ð¾Ñī",
        "ÑĮÑİ"
      ],
      [
        "s",
        "y"
      ],
      [
        "Ð¾",
        "ÐµÐ´Ð¸Ð½"
      ],
      [
        "Ñģ",
        "Ð¾ÐµÐ´Ð¸Ð½"
      ],
      [
        "Ð°ÑĤ",
        "Ð°Ð»"
      ],
      [
        "ĠÐº",
        "Ð°ÑĤÐ°Ð»"
      ],
      [
        "Ð¾Ð³",
        "Ð¾Ð²"
      ],
      [
        "ĠÑĦ",
        "Ð°Ð¹Ð»Ð¾Ð²"
      ],
      [
        "ĠÑģÐ¾ÑģÑĤ",
        "Ð°Ð²"
      ],
      [
        "ĠÐ¤",
        "Ð°Ð¹Ð»Ð¾Ð²"
      ],
      [
        "ĠHTTP",
        "S"
      ],
      [
        "ĠÐ¾ÑĢÐ³Ð°Ð½Ð¸Ð·",
        "ÑĥÐµÑĤ"
      ],
      [
        "ĠÑħÑĢÐ°Ð½",
        "ÐµÐ½Ð¸Ðµ"
      ],
      [
        "Ġa",
        "sy"
      ],
      [
        "ÑģÐ¾ÐµÐ´Ð¸Ð½",
        "ÐµÐ½Ð¸Ðµ"
      ],
      [
        "ĠÐºÐ°ÑĤÐ°Ð»",
        "Ð¾Ð³Ð¾Ð²"
      ],
      [
        "ĠÐ¤Ð°Ð¹Ð»Ð¾Ð²",
        "Ð°Ñı"
      ],
      [
        "Ġasy",
        "nc"
      ],
      [
        "ÐµÑĢ",
        "Ð¼ÐµÐ½ÑĤÑĭ"
      ],
      [
        "ĠÐ¿ÑĢ",
        "ÐµÐ²"
      ],
      [
        "Ð¸Ð¼",
        "Ð¸ÑĩÐµÑģÐºÐ¸Ðµ"
      ],
      [
        "ĠÐ¿ÑĢÐ¾Ð³ÑĢÐ°Ð¼Ð¼",
        "Ð½Ð¾Ð¹"
      ],
      [
        "ĠÐ¤",
        "ÐµÑĢÐ¼ÐµÐ½ÑĤÑĭ"
      ],
      [
        "ĠÑģÑĤÑĢÐ¾",
        "ÐµÐ½Ð¸Ðµ"
      ],
      [
        "Ð¾Ñħ",
        "Ð¸Ð¼Ð¸ÑĩÐµÑģÐºÐ¸Ðµ"
      ],
      [
        "ĠÐ±Ð¸",
        "Ð¾ÑħÐ¸Ð¼Ð¸ÑĩÐµÑģÐºÐ¸Ðµ"
      ],
      [
        "ĠÑĥÑģÐºÐ¾ÑĢ",
        "ÑıÑİÑĤ"
      ],
      [
        "ĠÐ²ÐµÑīÐµ",
        "ÑģÑĤÐ²"
      ],
      [
        "ĠÐ¥Ð¸Ð¼",
        "Ð¸Ñı"
      ],
      [
        "ĠÐ¿ÑĢÐµÐ²",
        "ÑĢÐ°ÑīÐµÐ½Ð¸Ñı"
      ],
      [
        "ÑĢ",
        "Ð½ÑĭÐ¹"
      ],
      [
        "Ð²",
        "Ð¾Ðµ"
      ],
      [
        "ĠÑģ",
        "Ð¾Ðº"
      ],
      [
        "ĠÐ²",
        "Ð´"
      ],
      [
        "ĠÐ²",
        "Ð¸Ð´"
      ],
      [
        "ÐµÑĢ",
        "Ð½Ð¾"
      ],
      [
        "Ð½Ð°",
        "ÑĢÐ½ÑĭÐ¹"
      ],
      [
        "ÑĪ",
        "ÐµÐ½Ð¸Ð¹"
      ],
      [
        "ĠÐ¿Ð¾Ð¸ÑģÐº",
        "Ð°"
      ],
      [
        "ĠÐ¾Ð±Ð»Ð°ÑģÑĤ",
        "ÑĮ"
      ],
      [
        "ĠÐĳÐ¸",
        "Ð½Ð°ÑĢÐ½ÑĭÐ¹"
      ],
      [
        "ĠÐ¿ÑĢÐ¸Ð¼",
        "ÐµÑĢÐ½Ð¾"
      ],
      [
        "ĠÑģÐ¾Ðº",
        "ÑĢÐ°ÑīÐ°ÐµÑĤ"
      ],
      [
        "ĠÐ²Ð´",
        "Ð²Ð¾Ðµ"
      ],
      [
        "ĠÐ²Ð¸Ð´",
        "Ðµ"
      ],
      [
        "L",
        "at"
      ],
      [
        "e",
        "ncy"
      ],
      [
        "º",
        "ÑĨÐ¸"
      ],
      [
        "Ġ",
        "Lat"
      ],
      [
        "ÑĢ",
        "Ñģ"
      ],
      [
        "ÑĢÐ°Ð",
        "ºÑĨÐ¸"
      ],
      [
        "ĠÐ¾Ð±",
        "Ð¾Ð·Ð½Ð°Ñĩ"
      ],
      [
        "Ð¾Ðº",
        "ÐµÑĤ"
      ],
      [
        "ĠÐ¡",
        "Ð¾ÐºÐµÑĤ"
      ],
      [
        "ĠÑĢÐµ",
        "ÑģÑĥ"
      ],
      [
        "ĠÐ·Ð°Ð´",
        "ÐµÑĢÐ¶"
      ],
      [
        "ĠÑģÐµÑĤÐµÐ²",
        "Ð¾Ð³Ð¾"
      ],
      [
        "ĠÐ°Ð±ÑģÑĤ",
        "ÑĢÐ°ÐºÑĨÐ¸"
      ],
      [
        "ĠLat",
        "ency"
      ],
      [
        "ĠÐ¾Ð±Ð¾Ð·Ð½Ð°Ñĩ",
        "Ð°ÐµÑĤ"
      ],
      [
        "ĠÑĢÐµÑģÑĥ",
        "ÑĢÑģ"
      ],
      [
        "ĠÐ·Ð°Ð´ÐµÑĢÐ¶",
        "ÐºÑĥ"
      ],
      [
        "ĠÐ°Ð±ÑģÑĤÑĢÐ°ÐºÑĨÐ¸",
        "ÐµÐ¹"
      ],
      [
        "e",
        "ou"
      ],
      [
        "i",
        "m"
      ],
      [
        "Ð¸",
        "ÑĨ"
      ],
      [
        "ÐµÐ½",
        "Ð½Ð¾Ð³Ð¾"
      ],
      [
        "Ð´",
        "Ð°Ð»"
      ],
      [
        "ĠÑĥ",
        "Ð´Ð°Ð»"
      ],
      [
        "ĠÐł",
        "ÐµÐ»ÑıÑĨÐ¸"
      ],
      [
        "ĠT",
        "im"
      ],
      [
        "Ð¸Ð´",
        "Ð°Ð½Ð¸Ñı"
      ],
      [
        "ĠÐ¾Ð¶",
        "Ð¸Ð´Ð°Ð½Ð¸Ñı"
      ],
      [
        "ĠÐ¾ÑĤÐ½Ð¾",
        "ÑĪÐµÐ½Ð¸Ð¹"
      ],
      [
        "ĠÐ²ÑĭÐ·Ð¾Ð²",
        "Ð°"
      ],
      [
        "ĠÑĪ",
        "Ð¸ÑĢ"
      ],
      [
        "eou",
        "t"
      ],
      [
        "ĠÑĥÐ´Ð°Ð»",
        "ÐµÐ½Ð½Ð¾Ð³Ð¾"
      ],
      [
        "ĠÐłÐµÐ»ÑıÑĨÐ¸",
        "Ð¾Ð½Ð½Ð°Ñı"
      ],
      [
        "ĠTim",
        "eout"
      ],
      [
        "Ð¾",
        "Ð¸ÑģÐº"
      ],
      [
        "Ð½",
        "Ð¾Ð¼"
      ],
      [
        "ĠÐ¾",
        "ÑĩÐµÑĢÐµÐ´ÑĮ"
      ],
      [
        "ĠÐŁ",
        "Ð¾Ð¸ÑģÐº"
      ],
      [
        "ÐµÑĢÐ°ÑĨÐ¸",
        "Ð¾Ð½Ð½Ð°Ñı"
      ],
      [
        "ĠÐ²ÑĭÑĩÐ¸ÑģÐ»Ð¸ÑĤÐµÐ»ÑĮ",
        "Ð½ÑĭÐ¼Ð¸"
      ],
      [
        "ĠÐŀÐ¿",
        "ÐµÑĢÐ°ÑĨÐ¸Ð¾Ð½Ð½Ð°Ñı"
      ],
      [
        "ĠÑĢÐµÑģÑĥÑĢÑģ",
        "Ð°Ð¼Ð¸"
      ],
      [
        "ĠÑĪÐ¸ÑĢ",
        "Ð¸Ð½Ñĥ"
      ],
      [
        "Ð¸ÑĩÐµÑģÐº",
        "ÑĥÑİ"
      ],
      [
        "ÑĢÐ°Ð½Ð·Ð°Ðº",
        "ÑĨÐ¸Ñı"
      ],
      [
        "ĠÐ»Ð¾Ð³",
        "Ð¸ÑĩÐµÑģÐºÑĥÑİ"
      ],
      [
        "ĠÐ¢",
        "ÑĢÐ°Ð½Ð·Ð°ÐºÑĨÐ¸Ñı"
      ],
      [
        "ÑĤ",
        "Ð°ÑĨÐ¸Ñİ"
      ],
      [
        "Ñı",
        "Ð½Ð¸"
      ],
      [
        "Ñİ",
        "Ñī"
      ],
      [
        "ĠÐ¾Ð±",
        "ÑĥÑĩÐ°"
      ],
      [
        "ĠÐ²Ñĭ",
        "Ð±Ð¾ÑĢ"
      ],
      [
        "ĠÑĩ",
        "ÑĢÐµÐ·"
      ],
      [
        "ÐµÐ¾Ð±",
        "ÑĥÑĩÐµÐ½Ð¸Ðµ"
      ],
      [
        "Ð°Ð¿",
        "ÑĤÐ°ÑĨÐ¸Ñİ"
      ],
      [
        "ĠÐ°Ð´",
        "Ð°Ð¿ÑĤÐ°ÑĨÐ¸Ñİ"
      ],
      [
        "Ð¼ÐµÑĢ",
        "Ð½ÑĥÑİ"
      ],
      [
        "ĠÐŁÐµÑĢ",
        "ÐµÐ¾Ð±ÑĥÑĩÐµÐ½Ð¸Ðµ"
      ],
      [
        "ÑİÑī",
        "ÐµÐ¹"
      ],
      [
        "ĠÐ¾Ð±ÑĥÑĩÐ°",
        "ÑİÑīÐµÐ¹"
      ],
      [
        "ĠÐ²ÑĭÐ±Ð¾ÑĢ",
        "ÐºÐµ"
      ],
      [
        "ĠÑĩÑĢÐµÐ·",
        "Ð¼ÐµÑĢÐ½ÑĥÑİ"
      ],
      [
        "T",
        "L"
      ],
      [
        "h",
        "ou"
      ],
      [
        "³",
        "ÑĢÑĥ"
      ],
      [
        "Ġ",
        "wa"
      ],
      [
        "Ð²",
        "Ð»ÐµÑĩ"
      ],
      [
        "Ð·",
        "ÐºÑĥ"
      ],
      [
        "ÐµÐ½",
        "Ð¾Ð¹"
      ],
      [
        "ÑĢÐ°Ð",
        "»"
      ],
      [
        "Ð¸ÑĤ",
        "Ð¸ÑĩÐµÑģÐºÐ¸Ñħ"
      ],
      [
        "ĠÐ¸Ð·",
        "Ð²Ð»ÐµÑĩ"
      ],
      [
        "ĠÐ·Ð°Ð",
        "³ÑĢÑĥ"
      ],
      [
        "Ð°Ð»",
        "Ð¸ÑĤÐ¸ÑĩÐµÑģÐºÐ¸Ñħ"
      ],
      [
        "re",
        "hou"
      ],
      [
        "ĠÐ°Ð½",
        "Ð°Ð»Ð¸ÑĤÐ¸ÑĩÐµÑģÐºÐ¸Ñħ"
      ],
      [
        "ĠÑĨ",
        "ÐµÐ½Ð¾Ð¹"
      ],
      [
        "ĠÐ´Ð¾Ð¿Ð¾Ð»Ð½Ð¸ÑĤÐµÐ»ÑĮ",
        "Ð½Ð¾Ð¹"
      ],
      [
        "ĠÐĺÐ½",
        "Ð´ÐµÐºÑģ"
      ],
      [
        "ĠÐ¾Ð¿ÑĤÐ¸Ð¼Ð¸Ð·",
        "Ð¸ÑĢÐ¾Ð²Ð°Ð½"
      ],
      [
        "ĠE",
        "TL"
      ],
      [
        "ĠÑĥÑģÐºÐ¾ÑĢ",
        "ÑıÐµÑĤ"
      ],
      [
        "ĠÐ·Ð°Ð¿ÑĢÐ¾Ñģ",
        "Ñĭ"
      ],
      [
        "ĠÐ·Ð°Ð¿ÑĢÐ¾Ñģ",
        "Ð¾Ð²"
      ],
      [
        "Ġwa",
        "rehou"
      ],
      [
        "ĠÐ¸Ð·Ð²Ð»ÐµÑĩ",
        "ÐµÐ½Ð¸Ðµ"
      ],
      [
        "ĠÐ·Ð°Ð³ÑĢÑĥ",
        "Ð·ÐºÑĥ"
      ],
      [
        "Ġwarehou",
        "se"
      ],
      [
        "a",
        "f"
      ],
      [
        "k",
        "a"
      ],
      [
        "ĠÐ¿Ð¾ÑĤÐ¾Ðº",
        "Ð¾Ð²Ð¾Ð¹"
      ],
      [
        "ĠK",
        "af"
      ],
      [
        "ĠKaf",
        "ka"
      ],
      [
        "a",
        "nt"
      ],
      [
        "i",
        "c"
      ],
      [
        "m",
        "ant"
      ],
      [
        "Ġ",
        "se"
      ],
      [
        "ĠÐĴ",
        "ÑĢÐµÐ¼"
      ],
      [
        "ĠÐ²ÑħÐ¾Ð´",
        "Ð°"
      ],
      [
        "ĠÐ¾Ð¿ÐµÑĢÐ°ÑĨÐ¸",
        "Ð¹"
      ],
      [
        "ĠÑģÐ¾ÑģÑĤÐ¾",
        "ÑıÐ½Ð¸"
      ],
      [
        "ar",
        "ch"
      ],
      [
        "ĠÑĩÐ¸ÑģÐ»",
        "Ð°"
      ],
      [
        "ĠÐ±Ð»Ð¸Ð·",
        "Ð¾ÑģÑĤÑĮ"
      ],
      [
        "ĠSe",
        "mant"
      ],
      [
        "ĠÑĢÐ°Ð·Ð¼ÐµÑĢ",
        "Ð¾Ð¼"
      ],
      [
        "Ġse",
        "arch"
      ],
      [
        "ĠÐĴÑĢÐµÐ¼",
        "ÐµÐ½Ð½Ð°Ñı"
      ],
      [
        "ĠSemant",
        "ic"
      ],
      [
        "ĠÐ¿",
        "Ð¾ÑĢ"
      ],
      [
        "Ð¾Ð¿",
        "ÑĢÐ¾Ð²"
      ],
      [
        "ĠÐºÐ¾Ð½",
        "ÑĤ"
      ],
      [
        "at",
        "ch"
      ],
      [
        "ÑĨÐ¸Ñı",
        "Ð¼Ð¸"
      ],
      [
        "ĠÐ¿Ð¾Ð»Ð¾Ð¶",
        "ÐµÐ½Ð¸Ñı"
      ],
      [
        "ĠB",
        "atch"
      ],
      [
        "ĠÐºÑĢÑĥÐ¿",
        "Ð½ÑĭÐ¼Ð¸"
      ],
      [
        "ĠÐ¿Ð¾ÑĢ",
        "ÑĨÐ¸ÑıÐ¼Ð¸"
      ],
      [
        "n",
        "it"
      ],
      [
        "Ð¾ÑĢ",
        "Ð¸Ð½"
      ],
      [
        "ĠÐ´Ð°Ð½",
        "Ð½ÑĭÐ¼"
      ],
      [
        "ĠÑħ",
        "ÑįÑĪ"
      ],
      [
        "ÑĤÐ°Ð±",
        "Ð»Ð¸ÑĨ"
      ],
      [
        "Ð¾Ð»ÑĮÑĪ",
        "ÑĥÑİ"
      ],
      [
        "ĠÐ¾ÑĢÐ³Ð°Ð½Ð¸Ð·",
        "Ð°ÑĨÐ¸Ð¸"
      ],
      [
        "ĠÐ½ÐµÐ±",
        "Ð¾Ð»ÑĮÑĪÑĥÑİ"
      ],
      [
        "ĠÐ´Ð¾ÑģÑĤÑĥÐ¿",
        "Ð°"
      ],
      [
        "ÑĦÑĥÐ½Ðº",
        "ÑĨÐ¸Ñİ"
      ],
      [
        "ĠÑģÐ¾ÑģÑĤÐ¾ÑıÐ½Ð¸",
        "Ðµ"
      ],
      [
        "Ð¾ÑĢÐ¸Ð½",
        "Ð³"
      ],
      [
        "ÑĤÐ°Ð±Ð»Ð¸ÑĨ",
        "Ð°"
      ],
      [
        "l",
        "f"
      ],
      [
        "Ðµ",
        "ÑģÐ¿"
      ],
      [
        "ĠÑģ",
        "ÐºÐ¾ÑĢ"
      ],
      [
        "ĠÑģ",
        "Ð¾Ð¿ÑĢÐ¾Ð²"
      ],
      [
        "ĠÐ²ÐµÑĢ",
        "Ñģ"
      ],
      [
        "ÑģÐºÐ¾ÑĢ",
        "ÐµÐ½Ð¸Ðµ"
      ],
      [
        "ĠÐ¿Ð¾Ð·Ð¸",
        "ÑĨÐ¸Ð¸"
      ],
      [
        "ĠU",
        "nit"
      ],
      [
        "ĠSe",
        "lf"
      ],
      [
        "ĠÑģÐºÐ¾ÑĢ",
        "Ð¾ÑģÑĤÐ¸"
      ],
      [
        "ĠÑģÐ¾Ð¿ÑĢÐ¾Ð²",
        "Ð¾Ð¶Ð´ÐµÐ½Ð¸Ðµ"
      ],
      [
        "b",
        "re"
      ],
      [
        "c",
        "u"
      ],
      [
        "i",
        "r"
      ],
      [
        "Ġ",
        "bre"
      ],
      [
        "Ð¸",
        "Ð»ÑĮ"
      ],
      [
        "Ð½",
        "Ñİ"
      ],
      [
        "ÑĢ",
        "ÐµÐ½"
      ],
      [
        "Ð²",
        "ÑĤÐ¾Ð¼"
      ],
      [
        "ĠÐ¿ÑĢ",
        "ÐµÐº"
      ],
      [
        "ÐµÐ½",
        "Ð½Ð¾"
      ],
      [
        "ĠÐ¾Ð±",
        "ÑĢÐ°ÑīÐµÐ½Ð¸Ñı"
      ],
      [
        "ĠÐ½",
        "ÐµÑģÑĤ"
      ],
      [
        "ÐµÐ½Ð¸Ñı",
        "Ð¼Ð¸"
      ],
      [
        "ĠÐ°",
        "Ð²ÑĤÐ¾Ð¼"
      ],
      [
        "ĠÑĥ",
        "Ð»ÑĥÑĩ"
      ],
      [
        "ĠÐ¡",
        "ÐºÐ¾ÑĢÐ¾ÑģÑĤÑĮ"
      ],
      [
        "ÑĢÐ¸",
        "ÐºÐ¸"
      ],
      [
        "Ð°Ð±",
        "Ð¸Ð»ÑĮ"
      ],
      [
        "Ð°ÐºÑĤ",
        "Ð¾ÑĢÐ¸Ð½Ð³"
      ],
      [
        "ĠÐ²ÑĢÐµÐ¼",
        "ÐµÐ½Ð½Ð¾"
      ],
      [
        "ĠC",
        "ir"
      ],
      [
        "ĠÑģÐµÑĢÐ²Ð¸Ñģ",
        "Ñĥ"
      ],
      [
        "ak",
        "er"
      ],
      [
        "ÐµÑĦ",
        "Ð°ÐºÑĤÐ¾ÑĢÐ¸Ð½Ð³"
      ],
      [
        "ĠÐ²Ð½ÑĥÑĤ",
        "ÑĢÐµÐ½"
      ],
      [
        "Ð½Ð¾Ð¼",
        "Ñĥ"
      ],
      [
        "cu",
        "it"
      ],
      [
        "Ġbre",
        "aker"
      ],
      [
        "Ð½Ñİ",
        "Ñİ"
      ],
      [
        "ĠÐ¿ÑĢÐµÐº",
        "ÑĢÐ°ÑīÐ°ÐµÑĤ"
      ],
      [
        "ĠÐ½ÐµÑģÑĤ",
        "Ð°Ð±Ð¸Ð»ÑĮ"
      ],
      [
        "ĠÐ°Ð²ÑĤÐ¾Ð¼",
        "Ð°ÑĤ"
      ],
      [
        "ĠÑĥÐ»ÑĥÑĩ",
        "ÑĪÐ°ÐµÑĤ"
      ],
      [
        "ĠCir",
        "cuit"
      ],
      [
        "ĠÐ²Ð½ÑĥÑĤÑĢÐµÐ½",
        "Ð½ÑİÑİ"
      ],
      [
        "ĠÐ½ÐµÑģÑĤÐ°Ð±Ð¸Ð»ÑĮ",
        "Ð½Ð¾Ð¼Ñĥ"
      ],
      [
        "£",
        "ÑģÐºÐ¾ÑĢÐµÐ½Ð¸Ðµ"
      ],
      [
        "ĠÐ",
        "£ÑģÐºÐ¾ÑĢÐµÐ½Ð¸Ðµ"
      ],
      [
        "Ð»",
        "ÐµÐ½"
      ],
      [
        "Ð²",
        "Ð°ÑĤÑĭÐ²Ð°ÐµÑĤ"
      ],
      [
        "Ð¼",
        "Ð½Ð°Ñı"
      ],
      [
        "ĠÐ¾",
        "Ñħ"
      ],
      [
        "ĠÐ¾Ð±",
        "ÐµÑģÐ¿"
      ],
      [
        "ÐµÐ¹",
        "Ð½ÐµÑĢ"
      ],
      [
        "ĠÑĥ",
        "ÑģÑĤÑĢ"
      ],
      [
        "ĠÐļ",
        "Ð¾Ð¼Ð¿"
      ],
      [
        "ĠÑĢÐ°Ð·",
        "ÑĢÐ°Ð±Ð¾ÑĤ"
      ],
      [
        "Ð¾Ð³ÑĢÐ°Ð¼",
        "Ð¼Ð½Ð°Ñı"
      ],
      [
        "ĠÐł",
        "ÐµÑĦÐ°ÐºÑĤÐ¾ÑĢÐ¸Ð½Ð³"
      ],
      [
        "ĠÑģÐµÑĤ",
        "ÑĮ"
      ],
      [
        "ĠÐ¸Ð½Ð¶ÐµÐ½ÐµÑĢ",
        "Ð¸Ñı"
      ],
      [
        "ĠÐ¿ÑĢÐ¾Ð³ÑĢÐ°Ð¼Ð¼",
        "Ð½ÑĭÑħ"
      ],
      [
        "ĠÑģÐ¾",
        "ÐµÐ´Ð¸Ð½ÑıÐµÑĤ"
      ],
      [
        "ĠÐ±Ð¾Ð»ÑĮÑĪ",
        "Ð¸Ðµ"
      ],
      [
        "ĠÐ¾Ð±Ð¼ÐµÐ½",
        "Ð°"
      ],
      [
        "ÑĮÑİÑĤ",
        "ÐµÑĢÐ½Ð°Ñı"
      ],
      [
        "ĠÐŁÑĢ",
        "Ð¾Ð³ÑĢÐ°Ð¼Ð¼Ð½Ð°Ñı"
      ],
      [
        "ĠÐ¾Ñħ",
        "Ð²Ð°ÑĤÑĭÐ²Ð°ÐµÑĤ"
      ],
      [
        "ĠÐ¾Ð±ÐµÑģÐ¿",
        "ÐµÑĩ"
      ],
      [
        "ĠÑĥÑģÑĤÑĢ",
        "Ð¾Ð¹ÑģÑĤÐ²Ð°"
      ],
      [
        "ĠÐļÐ¾Ð¼Ð¿",
        "ÑĮÑİÑĤÐµÑĢÐ½Ð°Ñı"
      ],
      [
        "ĠÑĢÐ°Ð·ÑĢÐ°Ð±Ð¾ÑĤ",
        "ÐºÑĥ"
      ],
      [
        "ĠÐ¿ÑĢ",
        "Ð¸ÑĤ"
      ],
      [
        "ĠÐľ",
        "Ð°ÑģÑģ"
      ],
      [
        "ĠÐºÐ¾Ð¼Ð¿Ð¾Ð½ÐµÐ½ÑĤ",
        "Ð°Ð¼Ð¸"
      ],
      [
        "ĠÐ¿ÑĢÐ¸ÑĤ",
        "ÑıÐ¶"
      ],
      [
        "ÑĤ",
        "ÐµÐ¹Ð½ÐµÑĢ"
      ],
      [
        "Ñĥ",
        "ÑģÐº"
      ],
      [
        "Ð»",
        "ÐµÐ½Ð¸Ñı"
      ],
      [
        "Ð²",
        "ÐµÐ»Ð¸Ñĩ"
      ],
      [
        "ĠÐ¾",
        "ÐºÐ¸ÑģÐ»"
      ],
      [
        "ÑĨ",
        "Ð°Ð¼Ð¸"
      ],
      [
        "ĠÐ¼",
        "Ð°ÑĤÑĢÐ¸"
      ],
      [
        "ĠÑĥ",
        "Ð²ÐµÐ»Ð¸Ñĩ"
      ],
      [
        "Ð¾Ð±",
        "ÑĢÐ°Ð¶"
      ],
      [
        "ĠÐ¸Ð½",
        "Ð´ÐµÐºÑģ"
      ],
      [
        "ĠÐ¾ÑĤ",
        "Ð¾Ð±ÑĢÐ°Ð¶"
      ],
      [
        "ĠÑģÑĤ",
        "ÐµÐ¿"
      ],
      [
        "ĠÐ·Ð°Ð¿",
        "ÑĥÑģÐº"
      ],
      [
        "ĠÐ²Ð·Ð°Ð¸Ð¼",
        "Ð½Ð¾Ðµ"
      ],
      [
        "ĠÐŀ",
        "ÐºÐ¸ÑģÐ»"
      ],
      [
        "Ð¸ÑĢÑĥ",
        "ÐµÐ¼Ð¾Ð¹"
      ],
      [
        "ĠÐ°Ð»Ð³",
        "ÐµÐ±ÑĢÐ°"
      ],
      [
        "ĠÑģÑĤÑĢÑĥÐºÑĤÑĥ",
        "ÑĢÐµ"
      ],
      [
        "ĠÐ²ÐµÐºÑĤÐ¾ÑĢ",
        "Ð°Ð¼Ð¸"
      ],
      [
        "ĠÑįÐ»ÐµÐ¼ÐµÐ½ÑĤ",
        "Ñĭ"
      ],
      [
        "ĠÑģÐ²ÑıÐ·Ð°Ð½",
        "Ð¾"
      ],
      [
        "Ð¸Ð½ÐµÐ¹",
        "Ð½Ð°Ñı"
      ],
      [
        "ĠÐĽ",
        "Ð¸Ð½ÐµÐ¹Ð½Ð°Ñı"
      ],
      [
        "ĠÐ»Ð¸Ð½ÐµÐ¹",
        "Ð½ÑĭÐ¼Ð¸"
      ],
      [
        "ĠÐ°Ð²ÑĤÐ¾Ð¼Ð°ÑĤ",
        "Ð¸ÑĩÐµÑģÐºÐ¸"
      ],
      [
        "ĠÐľÐ°ÑģÑģ",
        "Ð¸Ð²"
      ],
      [
        "ĠÐ¾ÐºÐ¸ÑģÐ»",
        "ÐµÐ½Ð¸Ñı"
      ],
      [
        "ĠÐ¼Ð°ÑĤÑĢÐ¸",
        "ÑĨÐ°Ð¼Ð¸"
      ],
      [
        "ĠÑĥÐ²ÐµÐ»Ð¸Ñĩ",
        "ÐµÐ½Ð¸ÐµÐ¼"
      ],
      [
        "ĠÐ¸Ð½Ð´ÐµÐºÑģ",
        "Ð¸ÑĢÑĥÐµÐ¼Ð¾Ð¹"
      ],
      [
        "ĠÐ¾ÑĤÐ¾Ð±ÑĢÐ°Ð¶",
        "ÐµÐ½Ð¸ÑıÐ¼Ð¸"
      ],
      [
        "ĠÑģÑĤÐµÐ¿",
        "ÐµÐ½Ð¸"
      ],
      [
        "ĠÐ·Ð°Ð¿ÑĥÑģÐº",
        "Ð°ÐµÑĤ"
      ],
      [
        "ĠÐŀÐºÐ¸ÑģÐ»",
        "ÐµÐ½Ð¸Ðµ"
      ],
      [
        "l",
        "ak"
      ],
      [
        "Ġ",
        "lak"
      ],
      [
        "Ñı",
        "ÑĨÐ¸Ð¸"
      ],
      [
        "Ñĥ",
        "ÑģÐ»"
      ],
      [
        "ĠÐ¿",
        "Ð»"
      ],
      [
        "ĠÐ¸",
        "Ð¾Ð½Ð¾Ð²"
      ],
      [
        "Ð¾Ð²",
        "Ð»ÐµÐ½"
      ],
      [
        "Ð¾ÑģÑĤ",
        "Ð°ÑĤ"
      ],
      [
        "ÐµÐ¼",
        "Ñĭ"
      ],
      [
        "ĠÐ¾Ð±",
        "ÑĥÑģÐ»"
      ],
      [
        "ĠÐ¿Ð¾",
        "ÑģÐ»"
      ],
      [
        "ĠÐ¸ÑģÐ¿Ð¾Ð»ÑĮÐ·",
        "ÑĥÑİÑĤ"
      ],
      [
        "Ð¾Ð¿",
        "Ñĭ"
      ],
      [
        "ĠÐ¾Ð±ÑĬ",
        "ÐµÐ¼Ñĭ"
      ],
      [
        "ĠÐ¾Ð¿ÐµÑĢÐ°ÑĨÐ¸",
        "Ñİ"
      ],
      [
        "ĠÐ¾Ð¿ÐµÑĢÐ°ÑĨÐ¸",
        "Ð¾Ð½Ð½Ð¾Ð¹"
      ],
      [
        "ĠÐĺ",
        "Ð¾Ð½Ð½Ð°Ñı"
      ],
      [
        "ĠÐ²ÑĢÐµÐ¼",
        "ÐµÐ½Ð½Ð¾Ð¹"
      ],
      [
        "ĠÐ¿ÑĢÐ¾Ð³ÑĢÐ°Ð¼Ð¼",
        "Ð½ÑĭÐ¼Ð¸"
      ],
      [
        "ĠC",
        "I"
      ],
      [
        "ĠÑįÐ»ÐµÐºÑĤÑĢ",
        "Ð¾ÑģÑĤÐ°ÑĤ"
      ],
      [
        "ĠÐļÐ¾Ð½",
        "ÑĤÐµÐ¹Ð½ÐµÑĢ"
      ],
      [
        "ĠÐ¿Ð¾Ð²ÑĤÐ¾ÑĢ",
        "ÑıÐµÑĤ"
      ],
      [
        "ĠÐ¼ÐµÑħÐ°Ð½Ð¸Ð·",
        "Ð¼Ñĭ"
      ],
      [
        "ĠRe",
        "tr"
      ],
      [
        "ĠÐ¾ÑĪÐ¸Ð±",
        "ÐºÐ¸"
      ],
      [
        "ĠÐ¸Ð·Ð¾Ð»",
        "ÑıÑĨÐ¸Ð¸"
      ],
      [
        "ĠÐ¿ÑĢÐ¸ÑĤÑıÐ¶",
        "ÐµÐ½Ð¸ÐµÐ¼"
      ],
      [
        "Ġlak",
        "e"
      ],
      [
        "Ð¾Ð²Ð»ÐµÐ½",
        "Ð°"
      ],
      [
        "ĠÐ¾Ð±ÑĥÑģÐ»",
        "Ð¾Ð²Ð»ÐµÐ½Ð°"
      ],
      [
        "ĠÐ¿Ð¾ÑģÐ»",
        "Ðµ"
      ],
      [
        "ĠÑįÐ»ÐµÐºÑĤÑĢÐ¾ÑģÑĤÐ°ÑĤ",
        "Ð¸ÑĩÐµÑģÐºÐ¸Ð¼"
      ],
      [
        "ĠÐļÐ¾Ð½ÑĤÐµÐ¹Ð½ÐµÑĢ",
        "Ñĭ"
      ],
      [
        "ĠRetr",
        "y"
      ],
      [
        "O",
        "b"
      ],
      [
        "a",
        "b"
      ],
      [
        "a",
        "m"
      ],
      [
        "i",
        "l"
      ],
      [
        "s",
        "er"
      ],
      [
        "t",
        "re"
      ],
      [
        "v",
        "ab"
      ],
      [
        "Ġ",
        "Ob"
      ],
      [
        "ÑĤ",
        "ÑĢ"
      ],
      [
        "Ñģ",
        "ÐµÐ½"
      ],
      [
        "ĠÐ¿",
        "Ð¾ÑģÑĤÑĥÐ¿"
      ],
      [
        "Ð»",
        "Ð°Ð¼"
      ],
      [
        "ĠÐ¸",
        "ÑģÐº"
      ],
      [
        "ÐµÑĢ",
        "Ðµ"
      ],
      [
        "ĠÐ¼",
        "ÐµÑĢÐµ"
      ],
      [
        "ĠÑĤ",
        "ÑĢÐ°"
      ],
      [
        "ÑģÑģ",
        "Ð¸ÑĢÐ¾Ð²"
      ],
      [
        "ĠÐļ",
        "Ð²Ð°Ð½"
      ],
      [
        "ĠÐ¼ÐµÑĤ",
        "ÑĢÐ¸ÐºÐ¸"
      ],
      [
        "ĠÐľ",
        "ÑĮÑİÑĤ"
      ],
      [
        "Ð»ÑİÑĩ",
        "ÐµÐ½Ð¸Ðµ"
      ],
      [
        "ĠÐ¾Ð´",
        "Ð½Ð¾Ð³Ð¾"
      ],
      [
        "ĠÐ¼Ð°ÑģÑĪÑĤÐ°Ð±",
        "Ð¾Ð²"
      ],
      [
        "ĠS",
        "tre"
      ],
      [
        "ĠÑģÐ²ÑıÐ·Ð°Ð½",
        "Ð°"
      ],
      [
        "ĠÐļÐ¾Ð½",
        "ÑģÐµÐ½"
      ],
      [
        "ÑĤÐ¾Ð²",
        "Ð°Ñı"
      ],
      [
        "ĠÑĥÐ·",
        "Ð»Ð°Ð¼"
      ],
      [
        "ĠÑģÐ¾Ð³Ð»Ð°Ñģ",
        "Ð¾Ð²Ð°ÑĤÑĮ"
      ],
      [
        "ÑģÑĥ",
        "Ñģ"
      ],
      [
        "ĠÐ»Ð¾Ð³",
        "Ð¸"
      ],
      [
        "ĠÐ¼ÐµÑħÐ°Ð½Ð¸",
        "ÐºÐ°"
      ],
      [
        "ĠÐ¾Ð±ÐµÑģÐ¿ÐµÑĩ",
        "Ð¸Ð²Ð°ÐµÑĤ"
      ],
      [
        "il",
        "ity"
      ],
      [
        "ser",
        "vab"
      ],
      [
        "ĠOb",
        "servab"
      ],
      [
        "ĠÐ¿Ð¾ÑģÑĤÑĥÐ¿",
        "Ð»ÐµÐ½Ð¸Ñı"
      ],
      [
        "ĠÐ¸ÑģÐº",
        "Ð»ÑİÑĩÐµÐ½Ð¸Ðµ"
      ],
      [
        "ĠÑĤÑĢÐ°",
        "ÑģÑģÐ¸ÑĢÐ¾Ð²"
      ],
      [
        "ĠÐļÐ²Ð°Ð½",
        "ÑĤÐ¾Ð²Ð°Ñı"
      ],
      [
        "ĠÐľÑĮÑİÑĤ",
        "ÐµÐºÑģ"
      ],
      [
        "ĠStre",
        "am"
      ],
      [
        "ĠÐļÐ¾Ð½ÑģÐµÐ½",
        "ÑģÑĥÑģ"
      ],
      [
        "ĠObservab",
        "ility"
      ],
      [
        "ĠÑĤÑĢÐ°ÑģÑģÐ¸ÑĢÐ¾Ð²",
        "ÐºÐ¸"
      ],
      [
        "C",
        "C"
      ],
      [
        "V",
        "CC"
      ],
      [
        "Ð¸",
        "Ð¾Ð½Ð½Ð°Ñı"
      ],
      [
        "Ñģ",
        "Ð¸Ñı"
      ],
      [
        "Ñĭ",
        "Ð´Ñĥ"
      ],
      [
        "ÐµÐ¼",
        "Ñĥ"
      ],
      [
        "Ñī",
        "ÐµÐ¼Ñĥ"
      ],
      [
        "ĠÐ¿ÑĢÐµÐ´",
        "ÑĭÐ´Ñĥ"
      ],
      [
        "ÑĢÐµ",
        "ÑģÑģ"
      ],
      [
        "ĠÐ¾Ð±ÑĬ",
        "ÐµÐºÑĤ"
      ],
      [
        "ÐµÐ³",
        "ÑĢÐµÑģÑģ"
      ],
      [
        "ĠÐºÐ¾Ð½ÑĤÐµÐºÑģÑĤ",
        "Ñĥ"
      ],
      [
        "ĠM",
        "VCC"
      ],
      [
        "ĠÐ¿ÑĢÐµÐ´ÑģÐºÐ°Ð·",
        "ÑĭÐ²Ð°ÐµÑĤ"
      ],
      [
        "ĠÑģÐ»ÐµÐ´ÑĥÑİ",
        "ÑīÐ¸Ð¹"
      ],
      [
        "ĠÑģÐ±Ð¾ÑĢ",
        "ÐºÑĥ"
      ],
      [
        "ĠÐĲÐ²ÑĤÐ¾ÑĢ",
        "ÐµÐ³ÑĢÐµÑģÑģ"
      ],
      [
        "ĠÐºÐ¾Ð½ÐºÑĥÑĢÐµÐ½ÑĤ",
        "Ð½ÑĭÑħ"
      ],
      [
        "ĠÐºÐ¾Ð½ÑĤ",
        "ÑĢÐ°ÐºÑĤ"
      ],
      [
        "ĠÐ²ÐµÑĢÑģ",
        "Ð¸Ð¸"
      ],
      [
        "ĠÐ¿ÑĢÐµÐ´ÑĭÐ´Ñĥ",
        "ÑīÐµÐ¼Ñĥ"
      ],
      [
        "ĠÐĲÐ²ÑĤÐ¾ÑĢÐµÐ³ÑĢÐµÑģÑģ",
        "Ð¸Ð¾Ð½Ð½Ð°Ñı"
      ],
      [
        "e",
        "nt"
      ],
      [
        "p",
        "y"
      ],
      [
        "ÑĤ",
        "ÐµÐ³"
      ],
      [
        "Ð»",
        "Ð¸Ñĩ"
      ],
      [
        "Ð·",
        "Ð¾ÑĤ"
      ],
      [
        "ĠÐ½",
        "Ð°Ðº"
      ],
      [
        "Ñī",
        "ÐµÐ³Ð¾"
      ],
      [
        "Ð¾Ð¿",
        "Ð»ÐµÐ½Ð¸Ðµ"
      ],
      [
        "ĠÐ¾ÑĤ",
        "Ð»Ð¸Ñĩ"
      ],
      [
        "ĠÐĺ",
        "Ð·Ð¾ÑĤ"
      ],
      [
        "ro",
        "ss"
      ],
      [
        "ro",
        "py"
      ],
      [
        "ĠC",
        "ross"
      ],
      [
        "ĠÑįÐ»ÐµÐ¼ÐµÐ½ÑĤ",
        "Ð°"
      ],
      [
        "ĠÐĺÐ½",
        "ÑĤÐµÐ³"
      ],
      [
        "ĠÐ¿ÑĢÐµÐ´ÑģÐºÐ°Ð·",
        "Ð°Ð½Ð¸Ñı"
      ],
      [
        "ĠÐ¿ÑĢÐ¸Ð¼ÐµÐ½ÑıÐµÑĤ",
        "ÑģÑı"
      ],
      [
        "ĠÑģÐ»ÐµÐ´ÑĥÑİ",
        "ÑīÐµÐ³Ð¾"
      ],
      [
        "ĠÐ½ÐµÐ¹",
        "ÑĤÑĢ"
      ],
      [
        "ent",
        "ropy"
      ],
      [
        "ĠÐ½Ð°Ðº",
        "Ð¾Ð¿Ð»ÐµÐ½Ð¸Ðµ"
      ],
      [
        "ĠÐ¾ÑĤÐ»Ð¸Ñĩ",
        "Ð°ÑİÑĤÑģÑı"
      ],
      [
        "ĠÐĺÐ·Ð¾ÑĤ",
        "Ð¾Ð¿Ñĭ"
      ],
      [
        "ĠÐĺÐ½ÑĤÐµÐ³",
        "ÑĢÐ°Ð»"
      ],
      [
        "ĠÐ½ÐµÐ¹ÑĤÑĢ",
        "Ð¾Ð½Ð¾Ð²"
      ],
      [
        "b",
        "ed"
      ],
      [
        "d",
        "ing"
      ],
      [
        "g",
        "r"
      ],
      [
        "m",
        "bed"
      ],
      [
        "n",
        "te"
      ],
      [
        "Ð¸",
        "Ð°Ð¿"
      ],
      [
        "Ð»",
        "ÐµÐºÑĤÑĢ"
      ],
      [
        "ĠÑģ",
        "Ð¿Ñĥ"
      ],
      [
        "ÐµÑĢ",
        "Ð¾ÑıÑĤ"
      ],
      [
        "ÐµÑĢ",
        "ÑģÐ¸Ñı"
      ],
      [
        "ĠÐ´",
        "Ð¸ÑģÐº"
      ],
      [
        "ĠÐ´",
        "Ð¸Ð°Ð¿"
      ],
      [
        "Ð¾Ð½",
        "Ðµ"
      ],
      [
        "ĠÐ¾Ð±",
        "Ð½Ð¾Ð²"
      ],
      [
        "Ð¸ÑĤ",
        "Ð°ÑĨÐ¸Ñı"
      ],
      [
        "ĠÐ½",
        "ÑĥÐ»Ñı"
      ],
      [
        "ÑĥÑĩ",
        "Ð°Ð¹"
      ],
      [
        "ĠÑģÐ¸ÑģÑĤÐµÐ¼",
        "Ð°Ð¼Ð¸"
      ],
      [
        "ĠÑģÐ»",
        "ÑĥÑĩÐ°Ð¹"
      ],
      [
        "Ð±",
        "ÑĢÐ¾Ñģ"
      ],
      [
        "Ð¾ÑĤ",
        "Ð½ÑĭÐ¹"
      ],
      [
        "ĠÐĴ",
        "ÐµÑĢÐ¾ÑıÑĤ"
      ],
      [
        "ĠÑĢÐ°Ð·",
        "Ð±ÑĢÐ¾Ñģ"
      ],
      [
        "ÐµÐ¶",
        "Ð¸ÑĤ"
      ],
      [
        "Ð°Ð·",
        "Ð¾Ð½Ðµ"
      ],
      [
        "ÑĢÐ°Ð²",
        "Ð¸ÑĤÐ°ÑĨÐ¸Ñı"
      ],
      [
        "ĠÐ»",
        "ÐµÐ¶Ð¸ÑĤ"
      ],
      [
        "ĠÐĶ",
        "Ð¸ÑģÐ¿"
      ],
      [
        "Ð¶ÐµÐ½ÐµÑĢ",
        "Ð¸Ñı"
      ],
      [
        "ĠÐ²Ð·Ð°Ð¸Ð¼Ð¾Ð´ÐµÐ¹ÑģÑĤÐ²",
        "Ð¸Ðµ"
      ],
      [
        "ĠÐµÐ´Ð¸Ð½Ð¸ÑĨ",
        "Ñĭ"
      ],
      [
        "ĠÐĺÐ½",
        "Ð¶ÐµÐ½ÐµÑĢÐ¸Ñı"
      ],
      [
        "ĠE",
        "mbed"
      ],
      [
        "ÐµÑĤÑĢ",
        "Ñĭ"
      ],
      [
        "ĠÑģÐ±Ð¾ÑĢ",
        "Ð°"
      ],
      [
        "ĠÐĵÑĢÐ°Ð´Ð¸ÐµÐ½ÑĤ",
        "Ð½ÑĭÐ¹"
      ],
      [
        "ĠÐ¿Ð°ÑĢÐ°Ð¼",
        "ÐµÑĤÑĢÑĭ"
      ],
      [
        "ĠÑĥÐ¼ÐµÐ½ÑĮ",
        "ÑĪÐµÐ½Ð¸Ñı"
      ],
      [
        "ĠÐ¿Ð»",
        "Ð¾ÑĤÐ½ÑĭÐ¹"
      ],
      [
        "ĠÐ¾Ð±ÑĬÐµÐºÑĤ",
        "Ð¾Ð²"
      ],
      [
        "gr",
        "ation"
      ],
      [
        "nte",
        "gration"
      ],
      [
        "ĠÑģÐ¿Ñĥ",
        "ÑģÐº"
      ],
      [
        "ĠÐ´Ð¸ÑģÐº",
        "ÑĢÐµÑĤÐ½ÑĭÐ¹"
      ],
      [
        "ĠÐ´Ð¸Ð°Ð¿",
        "Ð°Ð·Ð¾Ð½Ðµ"
      ],
      [
        "ĠÐ¾Ð±Ð½Ð¾Ð²",
        "Ð»ÑıÐµÑĤ"
      ],
      [
        "ĠÑģÐ»ÑĥÑĩÐ°Ð¹",
        "Ð½Ð¾Ð¹"
      ],
      [
        "ĠÐĴÐµÑĢÐ¾ÑıÑĤ",
        "Ð½Ð¾ÑģÑĤÑĮ"
      ],
      [
        "ĠÐĶÐ¸ÑģÐ¿",
        "ÐµÑĢÑģÐ¸Ñı"
      ],
      [
        "ĠEmbed",
        "ding"
      ],
      [
        "c",
        "al"
      ],
      [
        "ÑĢ",
        "Ð¸Ð·Ð°ÑĨÐ¸Ñı"
      ],
      [
        "ĠÐ¼",
        "Ð°ÑģÑģ"
      ],
      [
        "ĠÐł",
        "ÐµÐ³"
      ],
      [
        "ĠÐĵ",
        "ÑĢÐ°Ð²Ð¸ÑĤÐ°ÑĨÐ¸Ñı"
      ],
      [
        "ĠRe",
        "cal"
      ],
      [
        "ÑĥÐ»Ñı",
        "ÑĢÐ¸Ð·Ð°ÑĨÐ¸Ñı"
      ],
      [
        "ĠÐ¾Ð±Ð½Ð°ÑĢÑĥÐ¶",
        "ÐµÐ½Ð¸Ñı"
      ],
      [
        "ĠÐłÐµÐ³",
        "ÑĥÐ»ÑıÑĢÐ¸Ð·Ð°ÑĨÐ¸Ñı"
      ],
      [
        "ĠRecal",
        "l"
      ],
      [
        "Ðµ",
        "Ð¾ÑĢ"
      ],
      [
        "Ðµ",
        "Ð¾Ð¼"
      ],
      [
        "Ñģ",
        "Ð¸ÑĤÐµÐ»ÑĮÐ½Ð¾ÑģÑĤÐ¸"
      ],
      [
        "ÐµÑĤ",
        "ÑĢÐ¸"
      ],
      [
        "Ð²",
        "ÑĢÐµÐ¼"
      ],
      [
        "ÐµÐ½",
        "ÑĨÐ¸"
      ],
      [
        "ĠÑĤ",
        "ÐµÐ¾ÑĢ"
      ],
      [
        "ĠÐ³",
        "ÐµÐ¾Ð¼"
      ],
      [
        "ĠI",
        "ntegration"
      ],
      [
        "ĠÐŃ",
        "Ð»ÐµÐºÑĤÑĢ"
      ],
      [
        "ĠÐ¾Ð±Ñī",
        "ÐµÐ¹"
      ],
      [
        "ĠÐ¾ÑĤÐ½Ð¾",
        "ÑģÐ¸ÑĤÐµÐ»ÑĮÐ½Ð¾ÑģÑĤÐ¸"
      ],
      [
        "ĠÐ¼ÐµÑħÐ°Ð½Ð¸Ð·",
        "Ð¼"
      ],
      [
        "ÐµÑĤÑĢÐ¸",
        "ÐµÐ¹"
      ],
      [
        "Ð²ÑĢÐµÐ¼",
        "ÐµÐ½Ð¸"
      ],
      [
        "ÐµÐ½ÑĨÐ¸",
        "Ð°Ð»ÑĮ"
      ],
      [
        "ĠÑĤÐµÐ¾ÑĢ",
        "Ð¸Ð¸"
      ],
      [
        "ĠÐ³ÐµÐ¾Ð¼",
        "ÐµÑĤÑĢÐ¸ÐµÐ¹"
      ],
      [
        "Ð·",
        "Ð°ÑĨÐ¸Ñı"
      ],
      [
        "ÐµÐ½Ð¸",
        "Ð·Ð°ÑĨÐ¸Ñı"
      ],
      [
        "Ð¾Ðº",
        "ÐµÐ½Ð¸Ð·Ð°ÑĨÐ¸Ñı"
      ],
      [
        "ĠÐ¿Ð¾Ð»",
        "Ðµ"
      ],
      [
        "ĠÐ¢",
        "Ð¾ÐºÐµÐ½Ð¸Ð·Ð°ÑĨÐ¸Ñı"
      ],
      [
        "ĠÐ¸Ð´ÐµÐ½ÑĤÐ¸ÑĦÐ¸ÐºÐ°ÑĤÐ¾ÑĢ",
        "Ð¾Ð²"
      ],
      [
        "e",
        "w"
      ],
      [
        "i",
        "ew"
      ],
      [
        "v",
        "iew"
      ],
      [
        "Ġ",
        "re"
      ],
      [
        "ĠÑģ",
        "ÑĢÐµÐ´"
      ],
      [
        "ĠÐ´",
        "Ð²"
      ],
      [
        "ĠÐ´",
        "ÐµÑĦ"
      ],
      [
        "ÑĪ",
        "ÐµÐ½Ð½ÑĭÐµ"
      ],
      [
        "Ð°ÑĨÐ¸",
        "Ð¾Ð½Ð½Ð°Ñı"
      ],
      [
        "ÐµÐºÑĤ",
        "Ñĭ"
      ],
      [
        "ÑĦ",
        "Ð¸Ð´"
      ],
      [
        "ÑĢÐµ",
        "ÑĪÐµÐ½Ð½ÑĭÐµ"
      ],
      [
        "Ð¾ÑĤ",
        "Ð¾Ð½"
      ],
      [
        "ĠÑĢÐ°Ð·",
        "ÑĢÐµÑĪÐµÐ½Ð½ÑĭÐµ"
      ],
      [
        "ĠÐºÐ¾Ð½",
        "ÑĦÐ¸Ð´"
      ],
      [
        "ÑĦÐ¾ÑĢÐ¼",
        "Ð°ÑĨÐ¸Ð¾Ð½Ð½Ð°Ñı"
      ],
      [
        "ĠÐĺÐ½",
        "ÑĦÐ¾ÑĢÐ¼Ð°ÑĨÐ¸Ð¾Ð½Ð½Ð°Ñı"
      ],
      [
        "ĠÐ´ÐµÐ¹ÑģÑĤÐ²",
        "Ð¸Ñı"
      ],
      [
        "ĠÐ´Ð¾ÑģÑĤÑĥÐ¿",
        "Ð½Ð¾ÑģÑĤÑĮ"
      ],
      [
        "ĠÐĲÐ²ÑĤÐ¾ÑĢ",
        "Ð¸Ð·Ð°ÑĨÐ¸Ñı"
      ],
      [
        "ĠÐ±ÐµÐ·Ð¾Ð¿Ð°Ñģ",
        "Ð½Ð¾ÑģÑĤÑĮ"
      ],
      [
        "ÐµÐ½ÑĨÐ¸Ð°Ð»ÑĮ",
        "Ð½Ð¾ÑģÑĤÑĮ"
      ],
      [
        "Ġre",
        "view"
      ],
      [
        "ĠÐ´ÐµÑĦ",
        "ÐµÐºÑĤÑĭ"
      ],
      [
        "ĠÐºÐ¾Ð½ÑĦÐ¸Ð´",
        "ÐµÐ½ÑĨÐ¸Ð°Ð»ÑĮÐ½Ð¾ÑģÑĤÑĮ"
      ],
      [
        "Ð»",
        "ÐµÐ´"
      ],
      [
        "ĠÐ¸",
        "ÑģÑģ"
      ],
      [
        "Ð¾Ð´",
        "Ñĥ"
      ],
      [
        "Ð°ÑĤ",
        "Ð°Ð»Ð¸Ð·"
      ],
      [
        "ÑĪ",
        "Ð»"
      ],
      [
        "ĠÑģÐ»",
        "Ð¾Ð²"
      ],
      [
        "ĠÐļ",
        "Ð°ÑĤÐ°Ð»Ð¸Ð·"
      ],
      [
        "ĠÑĩÐ°ÑģÑĤ",
        "Ð¸ÑĨ"
      ],
      [
        "Ð¸Ð·Ð²Ð¾Ð´",
        "Ð½Ð°Ñı"
      ],
      [
        "ĠÐ´ÐµÐ¹ÑģÑĤÐ²",
        "ÑĥÐµÑĤ"
      ],
      [
        "ÑıÐ¶",
        "ÐµÐ½Ð½ÑĭÐµ"
      ],
      [
        "ĠÐ·Ð°ÑĢ",
        "ÑıÐ´"
      ],
      [
        "ĠÐ·Ð°ÑĢ",
        "ÑıÐ¶ÐµÐ½Ð½ÑĭÐµ"
      ],
      [
        "ĠÐ»Ð¾ÐºÐ°Ð»ÑĮ",
        "Ð½ÑĥÑİ"
      ],
      [
        "ĠÑħÐ¸Ð¼",
        "Ð¸ÑĩÐµÑģÐºÐ¾Ð¹"
      ],
      [
        "ĠÐŁÑĢÐ¾",
        "Ð¸Ð·Ð²Ð¾Ð´Ð½Ð°Ñı"
      ],
      [
        "ĠÐŃÐ»ÐµÐºÑĤÑĢ",
        "Ð¸ÑĩÐµÑģÐºÐ¾Ðµ"
      ],
      [
        "ĠÐ¸ÑģÑģ",
        "Ð»ÐµÐ´"
      ],
      [
        "ĠÐļÐ°ÑĤÐ°Ð»Ð¸Ð·",
        "Ð°ÑĤÐ¾ÑĢ"
      ],
      [
        "ĠÑĩÐ°ÑģÑĤÐ¸ÑĨ",
        "Ñĭ"
      ],
      [
        "Ġ",
        "ÑĢÐ°Ð²"
      ],
      [
        "Ñĥ",
        "Ð¼Ð°"
      ],
      [
        "ÑģÑĤ",
        "ÑĢÐµÐ¼"
      ],
      [
        "Ð¼",
        "Ð¿"
      ],
      [
        "ĠÐ¿ÑĢ",
        "Ð¾Ð´Ñĥ"
      ],
      [
        "ÐµÐ´",
        "ÐµÐ½Ð¸Ñİ"
      ],
      [
        "ĠÐº",
        "Ð²Ð°Ð½"
      ],
      [
        "ĠÐ¿ÑĢÐ¾",
[...]
